{
  "version": "1.0",
  "truncation": null,
  "padding": null,
  "added_tokens": [
    {
      "id": 0,
      "content": "[UNK]",
      "single_word": false,
      "lstrip": false,
      "rstrip": false,
      "normalized": false,
      "special": true
    }
  ],
  "normalizer": {
    "type": "NFKC"
  },
  "pre_tokenizer": {
    "type": "Metaspace",
    "replacement": "▁",
    "prepend_scheme": "never",
    "split": true
  },
  "post_processor": null,
  "decoder": {
    "type": "Metaspace",
    "replacement": "▁",
    "prepend_scheme": "never",
    "split": true
  },
  "model": {
    "type": "BPE",
    "dropout": null,
    "unk_token": "[UNK]",
    "continuing_subword_prefix": null,
    "end_of_word_suffix": null,
    "fuse_unk": false,
    "byte_fallback": false,
    "ignore_merges": false,
    "vocab": {
      "[UNK]": 0,
      "\n": 1,
      "!": 2,
      "\"": 3,
      "#": 4,
      "$": 5,
      "%": 6,
      "&": 7,
      "'": 8,
      "(": 9,
      ")": 10,
      "*": 11,
      "+": 12,
      ",": 13,
      "-": 14,
      ".": 15,
      "/": 16,
      "0": 17,
      "1": 18,
      "2": 19,
      "3": 20,
      "4": 21,
      "5": 22,
      "6": 23,
      "7": 24,
      "8": 25,
      "9": 26,
      ":": 27,
      ";": 28,
      "<": 29,
      "=": 30,
      ">": 31,
      "?": 32,
      "A": 33,
      "B": 34,
      "C": 35,
      "D": 36,
      "E": 37,
      "F": 38,
      "G": 39,
      "H": 40,
      "I": 41,
      "J": 42,
      "K": 43,
      "L": 44,
      "M": 45,
      "N": 46,
      "O": 47,
      "P": 48,
      "Q": 49,
      "R": 50,
      "S": 51,
      "T": 52,
      "U": 53,
      "V": 54,
      "W": 55,
      "X": 56,
      "Y": 57,
      "Z": 58,
      "[": 59,
      "\\": 60,
      "]": 61,
      "^": 62,
      "_": 63,
      "`": 64,
      "a": 65,
      "b": 66,
      "c": 67,
      "d": 68,
      "e": 69,
      "f": 70,
      "g": 71,
      "h": 72,
      "i": 73,
      "j": 74,
      "k": 75,
      "l": 76,
      "m": 77,
      "n": 78,
      "o": 79,
      "p": 80,
      "q": 81,
      "r": 82,
      "s": 83,
      "t": 84,
      "u": 85,
      "v": 86,
      "w": 87,
      "x": 88,
      "y": 89,
      "z": 90,
      "{": 91,
      "|": 92,
      "}": 93,
      "~": 94,
      "°": 95,
      "·": 96,
      "Ö": 97,
      "á": 98,
      "â": 99,
      "æ": 100,
      "ç": 101,
      "è": 102,
      "é": 103,
      "í": 104,
      "ñ": 105,
      "ö": 106,
      "ü": 107,
      "ā": 108,
      "ī": 109,
      "İ": 110,
      "Ś": 111,
      "ś": 112,
      "ū": 113,
      "ș": 114,
      "ə": 115,
      "ɦ": 116,
      "ɪ": 117,
      "ɾ": 118,
      "ʊ": 119,
      "ʼ": 120,
      "ˈ": 121,
      "ː": 122,
      "ί": 123,
      "α": 124,
      "δ": 125,
      "θ": 126,
      "ν": 127,
      "π": 128,
      "ς": 129,
      "ό": 130,
      "ँ": 131,
      "ं": 132,
      "ः": 133,
      "अ": 134,
      "आ": 135,
      "इ": 136,
      "ई": 137,
      "उ": 138,
      "ऊ": 139,
      "ऋ": 140,
      "ऍ": 141,
      "ए": 142,
      "ऐ": 143,
      "ऑ": 144,
      "ओ": 145,
      "औ": 146,
      "क": 147,
      "ख": 148,
      "ग": 149,
      "घ": 150,
      "ङ": 151,
      "च": 152,
      "छ": 153,
      "ज": 154,
      "झ": 155,
      "ञ": 156,
      "ट": 157,
      "ठ": 158,
      "ड": 159,
      "ढ": 160,
      "ण": 161,
      "त": 162,
      "थ": 163,
      "द": 164,
      "ध": 165,
      "न": 166,
      "ऩ": 167,
      "प": 168,
      "फ": 169,
      "ब": 170,
      "भ": 171,
      "म": 172,
      "य": 173,
      "र": 174,
      "ल": 175,
      "ळ": 176,
      "व": 177,
      "श": 178,
      "ष": 179,
      "स": 180,
      "ह": 181,
      "ऻ": 182,
      "़": 183,
      "ऽ": 184,
      "ा": 185,
      "ि": 186,
      "ी": 187,
      "ु": 188,
      "ू": 189,
      "ृ": 190,
      "े": 191,
      "ै": 192,
      "ॉ": 193,
      "ॊ": 194,
      "ो": 195,
      "ौ": 196,
      "्": 197,
      "॔": 198,
      "।": 199,
      "०": 200,
      "१": 201,
      "२": 202,
      "३": 203,
      "४": 204,
      "५": 205,
      "६": 206,
      "७": 207,
      "८": 208,
      "९": 209,
      "॰": 210,
      "ం": 211,
      "ః": 212,
      "అ": 213,
      "ఆ": 214,
      "ఇ": 215,
      "ఈ": 216,
      "ఉ": 217,
      "ఋ": 218,
      "ఎ": 219,
      "ఏ": 220,
      "ఐ": 221,
      "ఒ": 222,
      "ఓ": 223,
      "ఔ": 224,
      "క": 225,
      "ఖ": 226,
      "గ": 227,
      "ఘ": 228,
      "చ": 229,
      "ఛ": 230,
      "జ": 231,
      "ఞ": 232,
      "ట": 233,
      "ఠ": 234,
      "డ": 235,
      "ఢ": 236,
      "ణ": 237,
      "త": 238,
      "థ": 239,
      "ద": 240,
      "ధ": 241,
      "న": 242,
      "ప": 243,
      "ఫ": 244,
      "బ": 245,
      "భ": 246,
      "మ": 247,
      "య": 248,
      "ర": 249,
      "ల": 250,
      "ళ": 251,
      "వ": 252,
      "శ": 253,
      "ష": 254,
      "స": 255,
      "హ": 256,
      "ా": 257,
      "ి": 258,
      "ీ": 259,
      "ు": 260,
      "ూ": 261,
      "ృ": 262,
      "ె": 263,
      "ే": 264,
      "ై": 265,
      "ొ": 266,
      "ో": 267,
      "ౌ": 268,
      "్": 269,
      "ṅ": 270,
      "ṇ": 271,
      "Ṛ": 272,
      "ṣ": 273,
      "ṭ": 274,
      "Ἰ": 275,
      "‌": 276,
      "‍": 277,
      "‎": 278,
      "–": 279,
      "—": 280,
      "‘": 281,
      "’": 282,
      "“": 283,
      "”": 284,
      "†": 285,
      "•": 286,
      "′": 287,
      "‹": 288,
      "›": 289,
      "⁡": 290,
      "₹": 291,
      "↑": 292,
      "−": 293,
      "▁": 294,
      "﻿": 295,
      "wi": 296,
      "ki": 297,
      "wiki": 298,
      "ia": 299,
      "dia": 300,
      "or": 301,
      "tt": 302,
      "](": 303,
      ":/": 304,
      "htt": 305,
      "http": 306,
      "pe": 307,
      "://": 308,
      "https": 309,
      "https://": 310,
      "](https://": 311,
      "g/": 312,
      ".or": 313,
      ".org/": 314,
      "pedia": 315,
      ".wiki": 316,
      ".org/wiki": 317,
      ".org/wiki/": 318,
      ".wikipedia": 319,
      ".wikipedia.org/wiki/": 320,
      "▁[": 321,
      "en": 322,
      "te": 323,
      "▁\"": 324,
      "\")": 325,
      "in": 326,
      "an": 327,
      "on": 328,
      "In": 329,
      "th": 330,
      "](https://en": 331,
      "](https://en.wikipedia.org/wiki/": 332,
      "ti": 333,
      "hi": 334,
      "India": 335,
      "er": 336,
      "ar": 337,
      "20": 338,
      "al": 339,
      "es": 340,
      "ार": 341,
      "](https://hi": 342,
      "](https://hi.wikipedia.org/wiki/": 343,
      "▁क": 344,
      "re": 345,
      "▁|": 346,
      "of": 347,
      "्र": 348,
      "is": 349,
      "the": 350,
      "ci": 351,
      "भार": 352,
      "भारत": 353,
      "tion": 354,
      "and": 355,
      "om": 356,
      "ed": 357,
      "te_": 358,
      "▁-": 359,
      "▁स": 360,
      "▁the": 361,
      "▁of": 362,
      "#ci": 363,
      "#cite_": 364,
      "it": 365,
      "▁(": 366,
      "ou": 367,
      "as": 368,
      "](https://en.wikipedia.org/wiki/India": 369,
      "201": 370,
      "ic": 371,
      "▁म": 372,
      "्य": 373,
      "▁India": 374,
      "le": 375,
      "OT": 376,
      "19": 377,
      "oo": 378,
      "▁in": 379,
      "no": 380,
      "్ర": 381,
      "id": 382,
      "ra": 383,
      "रा": 384,
      "▁प": 385,
      "](https://te": 386,
      "](https://te.wikipedia.org/wiki/": 387,
      "ent": 388,
      "▁s": 389,
      "](https://en.wikipedia.org/wiki/India#cite_": 390,
      "▁and": 391,
      "200": 392,
      "-0": 393,
      "▁p": 394,
      "ate": 395,
      "**": 396,
      "et": 397,
      "ान": 398,
      "ri": 399,
      "ార": 400,
      "ing": 401,
      "-1": 402,
      "am": 403,
      "र्": 404,
      "ें": 405,
      "▁c": 406,
      "ation": 407,
      "us": 408,
      "at": 409,
      "▁C": 410,
      "▁A": 411,
      "ref": 412,
      "▁के": 413,
      "्त": 414,
      "ag": 415,
      "](https://hi.wikipedia.org/wiki/भारत": 416,
      "note": 417,
      "▁ह": 418,
      ").": 419,
      "\\_": 420,
      "ac": 421,
      "▁S": 422,
      "ook": 423,
      "▁f": 424,
      "[[": 425,
      "ang": 426,
      "ref-": 427,
      "note-": 428,
      "ad": 429,
      "▁t": 430,
      "78": 431,
      "\n\n": 432,
      "▁b": 433,
      "ve": 434,
      "या": 435,
      "li": 436,
      "ur": 437,
      "lo": 438,
      "िक": 439,
      "um": 440,
      "ాల": 441,
      "▁m": 442,
      "▁P": 443,
      "ीय": 444,
      "ver": 445,
      "ist": 446,
      "IS": 447,
      "▁अ": 448,
      "we": 449,
      "▁में": 450,
      "com": 451,
      "ul": 452,
      "he": 453,
      "FO": 454,
      "▁1": 455,
      "\"),": 456,
      "NOT": 457,
      "OTNOT": 458,
      "FOOTNOT": 459,
      "FOOTNOTE": 460,
      "్య": 461,
      "of_": 462,
      "978": 463,
      "_of_": 464,
      "BN": 465,
      "ISBN": 466,
      "ww": 467,
      "ch": 468,
      "ial": 469,
      "▁[↑": 470,
      "ro": 471,
      "fi": 472,
      "ce": 473,
      "st": 474,
      "భార": 475,
      "భారత": 476,
      "దే": 477,
      "ों": 478,
      "ory": 479,
      "▁201": 480,
      "un": 481,
      "దేశ": 482,
      "స్": 483,
      "il": 484,
      "▁w": 485,
      "वि": 486,
      "]](https://en.wikipedia.org/wiki/India#cite_": 487,
      "▁d": 488,
      "enti": 489,
      "्ष": 490,
      "ना": 491,
      "ter": 492,
      "our": 493,
      "](https://en.wikipedia.org/wiki/India#cite_ref-": 494,
      "]](https://en.wikipedia.org/wiki/India#cite_note-": 495,
      "21": 496,
      "ाल": 497,
      "▁ज": 498,
      "▁ప": 499,
      "▁T": 500,
      "lin": 501,
      "ons": 502,
      ".\n": 503,
      "ol": 504,
      "▁M": 505,
      "िया": 506,
      "identi": 507,
      "न्": 508,
      "00": 509,
      "fier": 510,
      "identifier": 511,
      "▁R": 512,
      "▁द": 513,
      "_क": 514,
      "సా": 515,
      "tic": 516,
      "identifier)": 517,
      "ेश": 518,
      "▁है": 519,
      "त्र": 520,
      "ర్": 521,
      "-0)": 522,
      "web": 523,
      "राज": 524,
      "](https://hi.wikipedia.org/wiki/भारत#cite_": 525,
      "red": 526,
      "▁to": 527,
      "chi": 528,
      "▁**": 529,
      "న్": 530,
      "em": 531,
      "book": 532,
      "res": 533,
      "भा": 534,
      "▁a": 535,
      "▁B": 536,
      "),": 537,
      "ment": 538,
      "es/": 539,
      "▁|\n": 540,
      "s.": 541,
      "▁|\n|": 542,
      "cial": 543,
      "age": 544,
      "ni": 545,
      "▁ब": 546,
      "और": 547,
      "्व": 548,
      "25": 549,
      "ंग": 550,
      "ig": 551,
      "▁भारत": 552,
      "ला": 553,
      "=1": 554,
      "▁प्र": 555,
      "link": 556,
      "pg": 557,
      "_(": 558,
      "23": 559,
      "10": 560,
      "ma": 561,
      "ति": 562,
      "edit": 563,
      "▁की": 564,
      "action": 565,
      "IT": 566,
      "ir": 567,
      "▁D": 568,
      "▁न": 569,
      "action=": 570,
      "action=edit": 571,
      "▁l": 572,
      "▁\"S": 573,
      "26": 574,
      "ity": 575,
      "&red": 576,
      "?action=edit": 577,
      "angu": 578,
      "link=1": 579,
      "&redlink=1": 580,
      "?action=edit&redlink=1": 581,
      "ind": 582,
      "▁से": 583,
      "sia": 584,
      "ता": 585,
      "▁India\")": 586,
      "ER": 587,
      ".com": 588,
      "24": 589,
      "EF": 590,
      "ITER": 591,
      "_स": 592,
      "ITEREF": 593,
      ".j": 594,
      "ay": 595,
      "्ट": 596,
      "▁और": 597,
      "▁[↑](https://en.wikipedia.org/wiki/India#cite_ref-": 598,
      "లు": 599,
      "ly": 600,
      "्रे": 601,
      ".com/": 602,
      "pecial": 603,
      "▁e": 604,
      "▁का": 605,
      "రా": 606,
      "▁E": 607,
      "india": 608,
      "ourc": 609,
      "199": 610,
      "con": 611,
      "·**": 612,
      "▁**·**": 613,
      "ion": 614,
      "▁•": 615,
      "_India": 616,
      "▁*": 617,
      "pecial:": 618,
      "me": 619,
      "భారతదేశ": 620,
      "\").": 621,
      "28": 622,
      "ld": 623,
      "_S": 624,
      "स्त": 625,
      "▁\"भारत": 626,
      ".శ": 627,
      ".శ.": 628,
      "#C": 629,
      "ct": 630,
      "లో": 631,
      "Uni": 632,
      "cal": 633,
      "go": 634,
      "సా.శ.": 635,
      "#CITEREF": 636,
      "ved": 637,
      "ources/": 638,
      "▁h": 639,
      "978-0": 640,
      "Book": 641,
      "▁H": 642,
      "षा": 643,
      "outh": 644,
      "up": 645,
      "_in": 646,
      "न्द": 647,
      "▁व": 648,
      "राज्य": 649,
      "Sources/": 650,
      "ित": 651,
      "pecial:Book": 652,
      "pecial:BookSources/": 653,
      "ber": 654,
      "oun": 655,
      "rom": 656,
      "क्ष": 657,
      "▁క": 658,
      "978-0-": 659,
      "▁G": 660,
      "▁N": 661,
      "▁आ": 662,
      "11": 663,
      "sh": 664,
      "www": 665,
      "ास": 666,
      "for": 667,
      "-3": 668,
      "త్ర": 669,
      "op": 670,
      "ాలు": 671,
      "gory": 672,
      "ategory": 673,
      "▁200": 674,
      "_A": 675,
      "el": 676,
      "రి": 677,
      "ry": 678,
      "-4": 679,
      "www.": 680,
      "archi": 681,
      "ategory:": 682,
      "క్": 683,
      "भाषा": 684,
      "पु": 685,
      "mp": 686,
      "▁त": 687,
      "ంద": 688,
      "▁on": 689,
      "ew": 690,
      "tu": 691,
      "calf": 692,
      "vers": 693,
      "anguage": 694,
      "50": 695,
      "▁20": 696,
      "ని": 697,
      "▁వ": 698,
      "▁re": 699,
      "etcalf": 700,
      "ak": 701,
      "▁th": 702,
      "ary": 703,
      "ational": 704,
      "ub": 705,
      "स्": 706,
      "ab": 707,
      "](https://en.wikipedia.org/wiki/India#CITEREF": 708,
      "-8": 709,
      "archive": 710,
      "err": 711,
      "ast": 712,
      "22": 713,
      "n_": 714,
      "ge": 715,
      "देश": 716,
      "ish": 717,
      "30": 718,
      "मा": 719,
      "▁19": 720,
      "The": 721,
      "ల్": 722,
      "est": 723,
      "▁[S": 724,
      ".in": 725,
      "री": 726,
      "▁n": 727,
      "భారతదేశం": 728,
      "od": 729,
      "ची": 730,
      "णी": 731,
      "था": 732,
      "▁or": 733,
      "ress": 734,
      "▁ग": 735,
      "▁(identifier)": 736,
      "_(identifier)": 737,
      "▁(identifier)\")": 738,
      "18": 739,
      "ted": 740,
      "]](https://en.wikipedia.org/wiki/India#cite_note-FOOTNOTE": 741,
      "▁को": 742,
      "_of_India": 743,
      "--": 744,
      "▁from": 745,
      "29": 746,
      "ంగ": 747,
      "▁F": 748,
      "ड़": 749,
      "archive.org/": 750,
      "▁J": 751,
      "▁---": 752,
      "rit": 753,
      "▁స": 754,
      "ain": 755,
      "\n-": 756,
      "http://": 757,
      "error": 758,
      "]](https://hi.wikipedia.org/wiki/भारत#cite_": 759,
      "ष्ट": 760,
      "gh": 761,
      ".[[": 762,
      "▁[\"": 763,
      "Har": 764,
      ".jpg": 765,
      "Metcalf": 766,
      "▁उ": 767,
      "▁మ": 768,
      "orld": 769,
      "▁p.": 770,
      "▁ए": 771,
      "ud": 772,
      "ाद": 773,
      "ep": 774,
      "▁for": 775,
      "_P": 776,
      "goo": 777,
      "web.": 778,
      "ust": 779,
      "](https://web.": 780,
      "▁by": 781,
      "▁पर": 782,
      "▁.": 783,
      "web/": 784,
      "archive.org/web/": 785,
      "](https://web.archive.org/web/": 786,
      "్రా": 787,
      "books": 788,
      "List": 789,
      "im": 790,
      "gle": 791,
      "▁In": 792,
      "_and": 793,
      "ष्ट्र": 794,
      "40": 795,
      "श्रे": 796,
      "▁[म": 797,
      "AA": 798,
      "versity": 799,
      "श्रेणी": 800,
      "▁है।": 801,
      "का": 802,
      "_1": 803,
      "os": 804,
      "id=": 805,
      "27": 806,
      "▁सं": 807,
      "▁\"C": 808,
      "▁[A": 809,
      "ha": 810,
      "har": 811,
      "ీయ": 812,
      "_म": 813,
      "▁श": 814,
      "▁ar": 815,
      "श्रेणी:": 816,
      "▁g": 817,
      "▁is": 818,
      "_के": 819,
      "ount": 820,
      "ने": 821,
      "](https://en.wikipedia.org/wiki/S": 822,
      "with": 823,
      "google": 824,
      "ort": 825,
      "conom": 826,
      "िल": 827,
      "ेत्र": 828,
      "ండ": 829,
      "प्र": 830,
      "▁Indian": 831,
      "978-1": 832,
      "▁L": 833,
      "ec": 834,
      "?id=": 835,
      "▁वि": 836,
      "म्": 837,
      "books.": 838,
      ".com/books": 839,
      "google.com/books": 840,
      "books.google.com/books": 841,
      "ले": 842,
      "▁O": 843,
      "books.google.com/books?id=": 844,
      "▁[ISBN": 845,
      "हि": 846,
      "ens": 847,
      "umb": 848,
      "▁\"ISBN": 849,
      "ISBN_(identifier)": 850,
      "_C": 851,
      "▁./": 852,
      "_in_India": 853,
      "జ్య": 854,
      "s/": 855,
      "-9": 856,
      "'s": 857,
      "15": 858,
      "▁చ": 859,
      "\"))": 860,
      "late": 861,
      "](https://hi.wikipedia.org/wiki/भारत#cite_ref-": 862,
      "]](https://hi.wikipedia.org/wiki/भारत#cite_note-": 863,
      "्या": 864,
      "▁Asia": 865,
      "ap": 866,
      "▁K": 867,
      "▁इ": 868,
      "▁W": 869,
      "*.": 870,
      "िय": 871,
      "▁[*": 872,
      "13": 873,
      "](https://books.google.com/books?id=": 874,
      "ther": 875,
      "ng": 876,
      "▁[C": 877,
      "सं": 878,
      "16": 879,
      "తా": 880,
      "▁([": 881,
      "ము": 882,
      "ి.": 883,
      "ut": 884,
      "](https://en.wikipedia.org/wiki/C": 885,
      "నా": 886,
      "##": 887,
      "17": 888,
      "inal": 889,
      "gov": 890,
      "la": 891,
      "్ట": 892,
      ".jpg)": 893,
      "_के_": 894,
      "arg": 895,
      "सा": 896,
      "University": 897,
      "తి": 898,
      "▁र": 899,
      "px": 900,
      "p.": 901,
      "do": 902,
      "▁The": 903,
      "mons": 904,
      "ी](https://hi.wikipedia.org/wiki/": 905,
      "▁\"M": 906,
      "त्त": 907,
      "ot": 908,
      "uc": 909,
      "ज़": 910,
      "సి": 911,
      "media": 912,
      "errors": 913,
      "nd": 914,
      "త్": 915,
      "Harv": 916,
      "▁pp.": 917,
      "s,": 918,
      ".gov": 919,
      "](S": 920,
      "र्व": 921,
      "ff": 922,
      "▁[↑](https://en.wikipedia.org/wiki/India#cite_ref-FOOTNOTE": 923,
      "राष्ट्र": 924,
      "per": 925,
      ".in/": 926,
      "av": 927,
      "14": 928,
      "▁be": 929,
      "de": 930,
      "pecial:BookSources/978-0-": 931,
      "-7": 932,
      "ong": 933,
      "umm": 934,
      "-2": 935,
      "PA": 936,
      "▁[M": 937,
      "fn": 938,
      "aj": 939,
      "over": 940,
      "](https://en.wikipedia.org/wiki/M": 941,
      "▁भाषा": 942,
      "load": 943,
      "▁(సా.శ.": 944,
      "्षेत्र": 945,
      "िस": 946,
      "und": 947,
      "upload": 948,
      "ence": 949,
      "tein": 950,
      ".wikimedia": 951,
      "ys": 952,
      "ance": 953,
      "br": 954,
      "▁सा": 955,
      "యా": 956,
      "commons": 957,
      "35": 958,
      "▁\"म": 959,
      "![": 960,
      "mai": 961,
      "ंड": 962,
      "ులు": 963,
      "▁రా": 964,
      "al_": 965,
      "pedia/": 966,
      ".org/wikipedia/": 967,
      "thumb": 968,
      "upload.wikimedia": 969,
      "upload.wikimedia.org/wikipedia/": 970,
      "](https://upload.wikimedia.org/wikipedia/": 971,
      "ी_": 972,
      "–సా.శ.": 973,
      "](https://mai": 974,
      "](https://en.wikipedia.org/wiki/ISBN_(identifier)": 975,
      "▁[ISBN](https://en.wikipedia.org/wiki/ISBN_(identifier)": 976,
      "/thumb": 977,
      "/thumb/": 978,
      "-5": 979,
      "di": 980,
      "](https://mai.wikipedia.org/wiki/": 981,
      "cy": 982,
      "▁అ": 983,
      ")[[": 984,
      "art": 985,
      "▁ल": 986,
      "rie": 987,
      "](https://upload.wikimedia.org/wikipedia/commons": 988,
      "%2": 989,
      "▁[B": 990,
      "&pg": 991,
      "&pg=": 992,
      "पा": 993,
      "ans": 994,
      "जा": 995,
      "](https://upload.wikimedia.org/wikipedia/commons/thumb/": 996,
      "px-": 997,
      "1.": 998,
      "47": 999,
      "▁\"B": 1000,
      "iginal": 1001,
      "ow": 1002,
      "▁as": 1003,
      "▁st": 1004,
      "_M": 1005,
      "चि": 1006,
      "मन": 1007,
      "▁राज्य": 1008,
      "▁ప్ర": 1009,
      "36": 1010,
      "_D": 1011,
      "ిక": 1012,
      "ear": 1013,
      "lig": 1014,
      "ages": 1015,
      "ूची": 1016,
      "all": 1017,
      "▁I": 1018,
      "tern": 1019,
      "Category:": 1020,
      "తం": 1021,
      "log": 1022,
      "38": 1023,
      "▁original": 1024,
      "श्रेणी:Harv": 1025,
      "▁\"A": 1026,
      "2.": 1027,
      "विश": 1028,
      "▁य": 1029,
      "गर": 1030,
      "▁भ": 1031,
      "&pg=PA": 1032,
      "▁\"P": 1033,
      "ht": 1034,
      ".p": 1035,
      "](https://web.archive.org/web/201": 1036,
      "rchi": 1037,
      "ी\")": 1038,
      "ana": 1039,
      "▁with": 1040,
      "▁Ret": 1041,
      "ిన": 1042,
      "▁हैं": 1043,
      "జ్యం": 1044,
      "land": 1045,
      "70": 1046,
      "rieved": 1047,
      "▁Retrieved": 1048,
      "ll": 1049,
      "कार": 1050,
      "हा": 1051,
      "ere": 1052,
      "esh": 1053,
      ")\n\n": 1054,
      "_T": 1055,
      "జా": 1056,
      "2006": 1057,
      "temp": 1058,
      "](https://en.wikipedia.org/wiki/B": 1059,
      "emp": 1060,
      "opul": 1061,
      "कि": 1062,
      "2018": 1063,
      "हिन्द": 1064,
      "ంచ": 1065,
      "కు": 1066,
      "Indian": 1067,
      "ore": 1068,
      "ss": 1069,
      "omm": 1070,
      "ensus": 1071,
      "ummit": 1072,
      "क्त": 1073,
      "og": 1074,
      "-10": 1075,
      "ंग्रे": 1076,
      "](https://te.wikipedia.org/wiki/భారతదేశం": 1077,
      "▁[↑](https://hi.wikipedia.org/wiki/भारत#cite_ref-": 1078,
      "nic": 1079,
      "ोल": 1080,
      "](https://en.wikipedia.org/wiki/P": 1081,
      "मी": 1082,
      "▁University": 1083,
      "ates": 1084,
      "पर": 1085,
      "ेला": 1086,
      "ను": 1087,
      "పూ": 1088,
      "▁no": 1089,
      "ass": 1090,
      ".\n-": 1091,
      "ile": 1092,
      "ke": 1093,
      "*](https://books.google.com/books?id=": 1094,
      "%20": 1095,
      "titu": 1096,
      "ata": 1097,
      "▁\"T": 1098,
      "ism": 1099,
      "భా": 1100,
      "▁&": 1101,
      "▁क्षेत्र": 1102,
      "▁[P": 1103,
      "▁कर": 1104,
      "istory": 1105,
      "-6": 1106,
      "39": 1107,
      "nment": 1108,
      "](http://": 1109,
      "hin": 1110,
      "ric": 1111,
      "िर": 1112,
      "ani": 1113,
      "ప్ర": 1114,
      "48": 1115,
      "2011": 1116,
      "rchived": 1117,
      "धान": 1118,
      "ire": 1119,
      "द्": 1120,
      "ank": 1121,
      "ेष": 1122,
      "ద్": 1123,
      "ింద": 1124,
      ".jp": 1125,
      "स्तान": 1126,
      "oc": 1127,
      "र्म": 1128,
      "▁अन": 1129,
      "▁*[": 1130,
      "se": 1131,
      "▁was": 1132,
      "opulation": 1133,
      "/https://": 1134,
      "60": 1135,
      "▁ఉ": 1136,
      "ृत": 1137,
      "ेल": 1138,
      "Stein": 1139,
      "्रा": 1140,
      "से": 1141,
      "▁\"E": 1142,
      "90": 1143,
      "ts": 1144,
      "ंध": 1145,
      "ం:": 1146,
      "](https://hi.wikipedia.org/wiki/म": 1147,
      "वा": 1148,
      "Hind": 1149,
      "श्": 1150,
      "ard": 1151,
      "▁Category:": 1152,
      "ाना": 1153,
      "ubl": 1154,
      "sher": 1155,
      "ord": 1156,
      "eral": 1157,
      "ue": 1158,
      "▁ఆ": 1159,
      "▁ex": 1160,
      "ai": 1161,
      "to": 1162,
      "%2C": 1163,
      ".jpg/": 1164,
      "7.": 1165,
      "ोत": 1166,
      "](https://www.": 1167,
      "▁[अ": 1168,
      "ries": 1169,
      "▁language": 1170,
      "धार": 1171,
      "▁१": 1172,
      "▁an": 1173,
      "ीप": 1174,
      "▁de": 1175,
      "arget": 1176,
      "language": 1177,
      "](https://en.wikipedia.org/wiki/A": 1178,
      "भि": 1179,
      "▁ర": 1180,
      "_N": 1181,
      "िण": 1182,
      "▁\"अ": 1183,
      "▁ने": 1184,
      "anguages": 1185,
      "ture": 1186,
      "CS": 1187,
      "ies": 1188,
      "](https://en.wikipedia.org/wiki/E": 1189,
      "_R": 1190,
      "ीय_": 1191,
      "9.": 1192,
      "_b": 1193,
      "▁are": 1194,
      "మా": 1195,
      "▁సా": 1196,
      "▁[भारत": 1197,
      "భారతీయ": 1198,
      "45": 1199,
      "_B": 1200,
      "other": 1201,
      "వా": 1202,
      "a\")": 1203,
      "के": 1204,
      "▁एक": 1205,
      "▁r": 1206,
      "](https://en.wikipedia.org/wiki/T": 1207,
      "46": 1208,
      "▁Press": 1209,
      "రు": 1210,
      "▁\"D": 1211,
      "als": 1212,
      "लेख": 1213,
      "AJ": 1214,
      "▁ति": 1215,
      "4.": 1216,
      "43": 1217,
      "ont": 1218,
      "ूल": 1219,
      "ical": 1220,
      "BAJ": 1221,
      "QBAJ": 1222,
      "▁\"स": 1223,
      "क्षिण": 1224,
      "2010": 1225,
      "ingh": 1226,
      "iss": 1227,
      "ations": 1228,
      "▁पु": 1229,
      "विशेष": 1230,
      "_s": 1231,
      "ोग": 1232,
      "వి": 1233,
      "ష్ట": 1234,
      "▁it": 1235,
      "ian": 1236,
      "tem": 1237,
      "ార్": 1238,
      "పూ.": 1239,
      "tics": 1240,
      "▁Hind": 1241,
      "_Asia": 1242,
      "ंद": 1243,
      "ंत्र": 1244,
      "▁\"G": 1245,
      "▁\"List": 1246,
      "క్ష": 1247,
      "udd": 1248,
      "▁[स": 1249,
      "ford": 1250,
      "_G": 1251,
      "](https://en.wikipedia.org/wiki/D": 1252,
      "ib": 1253,
      "▁V": 1254,
      "స్థ": 1255,
      "onstitu": 1256,
      "రిత్ర": 1257,
      "विशेष:": 1258,
      "ex": 1259,
      "les": 1260,
      "ine": 1261,
      "aki": 1262,
      "▁[978-0-": 1263,
      "थि": 1264,
      "iv": 1265,
      "\")\n-": 1266,
      "▁प्रदेश": 1267,
      "AAQBAJ": 1268,
      "df": 1269,
      "\")\n\n": 1270,
      "/http://": 1271,
      "▁whi": 1272,
      "xford": 1273,
      "▁[G": 1274,
      "htm": 1275,
      "ern": 1276,
      "eng": 1277,
      "న్న": 1278,
      "ountries": 1279,
      "conomic": 1280,
      "ers": 1281,
      "omp": 1282,
      "hm": 1283,
      "यु": 1284,
      "49": 1285,
      "▁\"N": 1286,
      "List_of_": 1287,
      "end": 1288,
      "ess": 1289,
      "MetcalfMetcalf": 1290,
      "tive": 1291,
      "stan": 1292,
      "0%": 1293,
      "ction": 1294,
      "ral": 1295,
      "ik": 1296,
      "▁(P": 1297,
      "33": 1298,
      "6.": 1299,
      "_E": 1300,
      "जन": 1301,
      "pecial:BookSources/978-1": 1302,
      "RI": 1303,
      "_p": 1304,
      "▁\"भारतीय": 1305,
      "oli": 1306,
      "नी": 1307,
      "ven": 1308,
      "धिक": 1309,
      "गमन": 1310,
      "artic": 1311,
      "ult": 1312,
      "vi": 1313,
      "▁\"क": 1314,
      "tim": 1315,
      "▁तिथि": 1316,
      "▁देश": 1317,
      "▁3": 1318,
      "▁ख": 1319,
      "्री": 1320,
      "▁2011": 1321,
      "▁जन": 1322,
      "-p": 1323,
      "ions": 1324,
      "द्य": 1325,
      "ी_स": 1326,
      "conomy": 1327,
      "](https://te.wikipedia.org/wiki/భారతదేశం#cite_": 1328,
      "▁\"ब": 1329,
      "▁[2": 1330,
      "1)": 1331,
      "77": 1332,
      "▁[D": 1333,
      "▁भारतीय": 1334,
      "na": 1335,
      "ँच": 1336,
      "ून": 1337,
      "గా": 1338,
      "▁\"R": 1339,
      "2009": 1340,
      "▁[N": 1341,
      "1998": 1342,
      "▁तथा": 1343,
      "5.": 1344,
      "ark": 1345,
      "ूर्व": 1346,
      "](https://en.wikipedia.org/wiki/G": 1347,
      "](https://en.wikipedia.org/wiki/R": 1348,
      "ంట": 1349,
      "కి": 1350,
      "▁तिथि:": 1351,
      "port": 1352,
      "ढ़": 1353,
      "दी": 1354,
      "-1)": 1355,
      "bot": 1356,
      "rou": 1357,
      "▁which": 1358,
      "त्": 1359,
      "మ్రా": 1360,
      "▁च": 1361,
      "cont": 1362,
      "ష్ట్ర": 1363,
      "cl": 1364,
      "▁[![": 1365,
      "▁[1": 1366,
      "▁[E": 1367,
      "ties": 1368,
      "icial": 1369,
      "lop": 1370,
      "ope": 1371,
      "ంత": 1372,
      "](https://en.wikipedia.org/wiki/N": 1373,
      "his": 1374,
      "▁अभि": 1375,
      "250": 1376,
      "▁अभिगमन": 1377,
      "au": 1378,
      "धर्म": 1379,
      "▁[क": 1380,
      "df)": 1381,
      "DF": 1382,
      "्ल": 1383,
      "albot": 1384,
      "fe": 1385,
      "▁[ब": 1386,
      "्रोत": 1387,
      "▁South": 1388,
      "new": 1389,
      "मान": 1390,
      "ती": 1391,
      "india.gov": 1392,
      "वं": 1393,
      "out": 1394,
      "riti": 1395,
      "పు": 1396,
      "▁हैं।": 1397,
      "हर": 1398,
      "](https://en.wikipedia.org/wiki/List_of_": 1399,
      "ame": 1400,
      ")\")": 1401,
      "द्ध": 1402,
      "8.": 1403,
      "Asher": 1404,
      "▁న": 1405,
      "▁[R": 1406,
      "▁[T": 1407,
      "िट": 1408,
      "▁li": 1409,
      ").\n": 1410,
      "ach": 1411,
      "▁(PDF": 1412,
      "▁India's": 1413,
      "रकार": 1414,
      "▁has": 1415,
      "पुर": 1416,
      "▁that": 1417,
      "3.": 1418,
      "बर": 1419,
      "మి": 1420,
      "ాన": 1421,
      "▁राज": 1422,
      "](https://hi.wikipedia.org/wiki/क": 1423,
      "ration": 1424,
      "स्तक": 1425,
      "पुस्तक": 1426,
      "ublic": 1427,
      "विशेष:पुस्तक": 1428,
      "्रोत/": 1429,
      "ta": 1430,
      "िका": 1431,
      "territ": 1432,
      "▁जा": 1433,
      "स्क": 1434,
      "राष्ट्रीय": 1435,
      "gen": 1436,
      "गु": 1437,
      "ज्": 1438,
      "▁\"Special:BookSources/978-0-": 1439,
      "](Special:BookSources/978-0-": 1440,
      "ob": 1441,
      "పా": 1442,
      "▁ఇ": 1443,
      "▁త": 1444,
      "▁[Archived": 1445,
      "భాష": 1446,
      "AAQBAJ&pg=PA": 1447,
      "80": 1448,
      "हास": 1449,
      "िश": 1450,
      "_and_": 1451,
      "▁5": 1452,
      "ous": 1453,
      ".pdf)": 1454,
      "हार": 1455,
      "ali": 1456,
      "](https://hi.wikipedia.org/wiki/स": 1457,
      "▁स्": 1458,
      "United": 1459,
      "RICS": 1460,
      "4)": 1461,
      "ath": 1462,
      "\n\n##": 1463,
      "ty": 1464,
      "rad": 1465,
      ",_": 1466,
      "sv": 1467,
      "పాల": 1468,
      "లీ": 1469,
      "▁pro": 1470,
      "▁इस": 1471,
      "logy": 1472,
      "ile:": 1473,
      "sland": 1474,
      "3)": 1475,
      "▁\"प": 1476,
      "idge": 1477,
      "▁वर्": 1478,
      "2)": 1479,
      "▁దేశ": 1480,
      "▁मेला": 1481,
      "ange": 1482,
      "స్తా": 1483,
      "▁De": 1484,
      "▁–": 1485,
      "िव": 1486,
      "56": 1487,
      "eg": 1488,
      "ya": 1489,
      "File:": 1490,
      "ure": 1491,
      "వర్": 1492,
      "ాయ": 1493,
      "pend": 1494,
      "aste": 1495,
      "रालेख": 1496,
      "ost": 1497,
      "ुख": 1498,
      "▁\"In": 1499,
      "र्थ": 1500,
      "inist": 1501,
      "hist": 1502,
      "ा_": 1503,
      "▁हु": 1504,
      "_की_स": 1505,
      "10.": 1506,
      "_में": 1507,
      "न\")": 1508,
      "्च": 1509,
      "ree": 1510,
      "DP": 1511,
      "MetcalfMetcalf2006": 1512,
      "द्र": 1513,
      "ध्य": 1514,
      "ुस": 1515,
      "](https://hi.wikipedia.org/wiki/अ": 1516,
      "000": 1517,
      "mpire": 1518,
      "ंग्रेज़": 1519,
      "మ్రాజ్యం": 1520,
      "रालेखित": 1521,
      "्स": 1522,
      "_भारत": 1523,
      "iki": 1524,
      "▁[K": 1525,
      "ritish": 1526,
      "4%": 1527,
      "ove": 1528,
      "rap": 1529,
      "85": 1530,
      "man": 1531,
      "शिया": 1532,
      "्ड": 1533,
      "](File:": 1534,
      "amil": 1535,
      "దేశ్": 1536,
      "▁भाषा\")": 1537,
      "▁भी": 1538,
      "onstitution": 1539,
      "37": 1540,
      "ah": 1541,
      "पाल": 1542,
      "ोक": 1543,
      "▁सम": 1544,
      "▁pe": 1545,
      "elhi": 1546,
      "थान": 1547,
      "ం](https://te.wikipedia.org/wiki/": 1548,
      "ated": 1549,
      "▁2014": 1550,
      "त्तर": 1551,
      "bridge": 1552,
      "चित्र": 1553,
      "ru": 1554,
      "▁at": 1555,
      "▁सूची": 1556,
      "किस्तान": 1557,
      "-b": 1558,
      "-s": 1559,
      "ite": 1560,
      "](https://en.wikipedia.org/wiki/India#cite_ref-FOOTNOTE": 1561,
      "..": 1562,
      "2004": 1563,
      "2007": 1564,
      "ambridge": 1565,
      "्वीप": 1566,
      "E0%": 1567,
      "फ़": 1568,
      "ంబ": 1569,
      "టి": 1570,
      "](https://hi.wikipedia.org/wiki/ब": 1571,
      ".nic": 1572,
      "hand": 1573,
      "ese": 1574,
      "▁cent": 1575,
      "outh_Asia": 1576,
      "67": 1577,
      "velop": 1578,
      "मिल": 1579,
      "▁v": 1580,
      "late_": 1581,
      "do-": 1582,
      "रब": 1583,
      "ంలో": 1584,
      "](https://hi.wikipedia.org/wiki/भारत_में": 1585,
      "స్తాన్": 1586,
      "\"\n": 1587,
      "\"](https://web.archive.org/web/201": 1588,
      "s\")": 1589,
      "▁\"K": 1590,
      "▁हि": 1591,
      "hel": 1592,
      "▁7": 1593,
      "usic": 1594,
      "times": 1595,
      "](https://en.wikipedia.org/wiki/In": 1596,
      "yson": 1597,
      "-d": 1598,
      "duc": 1599,
      "lia": 1600,
      "ते": 1601,
      "గు": 1602,
      "డు": 1603,
      "నే": 1604,
      "్చ": 1605,
      "ack": 1606,
      "ountry": 1607,
      "oh": 1608,
      "▁\"Indian": 1609,
      "gover": 1610,
      "ansk": 1611,
      "-t": 1612,
      "120": 1613,
      "▁\"The": 1614,
      "▁[प": 1615,
      "▁सरकार": 1616,
      "▁se": 1617,
      "qu": 1618,
      "world": 1619,
      "మూ": 1620,
      "▁[978-1": 1621,
      "isation": 1622,
      "్రీ": 1623,
      "▁History": 1624,
      "జాత": 1625,
      "▁its": 1626,
      "12": 1627,
      "521": 1628,
      "RC": 1629,
      "रु": 1630,
      "▁U": 1631,
      "▁te": 1632,
      "▁un": 1633,
      "inent": 1634,
      "lection": 1635,
      "दक्षिण": 1636,
      "ष्": 1637,
      "▁घ": 1638,
      "anskrit": 1639,
      "IN": 1640,
      "Oxford": 1641,
      "dit": 1642,
      "ूच": 1643,
      "ूर": 1644,
      "లా": 1645,
      "ase": 1646,
      "ulture": 1647,
      "ign": 1648,
      "▁reg": 1649,
      "ంగా": 1650,
      "html": 1651,
      "ashm": 1652,
      "\\_S": 1653,
      "row": 1654,
      "velopment": 1655,
      "Dw": 1656,
      "गण": 1657,
      "हु": 1658,
      "ा:": 1659,
      "▁२": 1660,
      "▁(201": 1661,
      "ater": 1662,
      "akistan": 1663,
      "alay": 1664,
      "\n\n[": 1665,
      "uring": 1666,
      "template": 1667,
      "_d": 1668,
      "డ్": 1669,
      "ిల్": 1670,
      "▁జ": 1671,
      "▁199": 1672,
      "alth": 1673,
      "dition": 1674,
      "कर": 1675,
      "ूप": 1676,
      "orth": 1677,
      "emplate": 1678,
      ".nic.in/": 1679,
      "World": 1680,
      "lish": 1681,
      "▁4": 1682,
      "नाम": 1683,
      "_प्र": 1684,
      "mer": 1685,
      "mund": 1686,
      "/https://www.": 1687,
      "श्चि": 1688,
      "othermund": 1689,
      "ज्ञ": 1690,
      "_language": 1691,
      "census": 1692,
      "ैद": 1693,
      "లి": 1694,
      "lion": 1695,
      "స్త్ర": 1696,
      "▁तक": 1697,
      "साँच": 1698,
      "roup": 1699,
      "led": 1700,
      "pu": 1701,
      "ीन": 1702,
      "](https://en.wikipedia.org/wiki/K": 1703,
      "ome": 1704,
      "urope": 1705,
      "▁wh": 1706,
      "irst": 1707,
      "ave": 1708,
      "\").\n-": 1709,
      "any": 1710,
      "ulke": 1711,
      "62": 1712,
      "\"))\n": 1713,
      "radesh": 1714,
      "59": 1715,
      "కా": 1716,
      "ణా": 1717,
      "దక్ష": 1718,
      "ధిక": 1719,
      "](https://hi.wikipedia.org/wiki/भारतीय_": 1720,
      "▁ప్రా": 1721,
      "▁వి": 1722,
      "సియా": 1723,
      "overnment": 1724,
      "జాతీయ": 1725,
      "_F": 1726,
      "सम": 1727,
      "▁languages": 1728,
      "05": 1729,
      "ef": 1730,
      "▁[L": 1731,
      "▁sub": 1732,
      "▁cont": 1733,
      "▁18": 1734,
      "odern": 1735,
      "AARC": 1736,
      "%E0%": 1737,
      "Singh": 1738,
      "ati": 1739,
      "▁ad": 1740,
      "▁mil": 1741,
      "ligion": 1742,
      "వం": 1743,
      "ury": 1744,
      "ों_की_स": 1745,
      "▁సం": 1746,
      "▁చరిత్ర": 1747,
      "ograp": 1748,
      "ख्या": 1749,
      "जी": 1750,
      "मे": 1751,
      "▁were": 1752,
      "न्न": 1753,
      "government": 1754,
      ".;": 1755,
      "ined": 1756,
      "ound": 1757,
      "Stein2010": 1758,
      "-m": 1759,
      "6)": 1760,
      "65": 1761,
      "tical": 1762,
      "doi": 1763,
      "ओं": 1764,
      "ण्ड": 1765,
      "ीं": 1766,
      "డి": 1767,
      "▁[the": 1768,
      "](https://hi.wikipedia.org/wiki/प": 1769,
      "]](https://hi.wikipedia.org/wiki/भारत#cite_note-FOOTNOTE": 1770,
      "ింది.": 1771,
      "2003": 1772,
      "ril": 1773,
      "![](https://upload.wikimedia.org/wikipedia/commons/thumb/": 1774,
      "continent": 1775,
      "250px-": 1776,
      "\"](https://www.": 1777,
      "-india": 1778,
      "▁le": 1779,
      "\")*": 1780,
      "erv": 1781,
      "न्द्र": 1782,
      "\nCategory:": 1783,
      "7)": 1784,
      "जाब": 1785,
      "_by": 1786,
      ".sv": 1787,
      "/c": 1788,
      "ంధ": 1789,
      "▁किया": 1790,
      "స్త": 1791,
      "_and_S": 1792,
      "_के_राज्य": 1793,
      "▁రాజ్యం": 1794,
      "Stein1998": 1795,
      "▁సామ్రాజ్యం": 1796,
      "ंदिर": 1797,
      "వర్గ": 1798,
      "దక్షి": 1799,
      "Singh2009": 1800,
      "usin": 1801,
      "\\_and": 1802,
      "\\_errors": 1803,
      "▁विश": 1804,
      "help": 1805,
      "oi": 1806,
      "ames": 1807,
      "चीन": 1808,
      "▁Hindu": 1809,
      "val": 1810,
      "_the": 1811,
      "దీ": 1812,
      "▁[In": 1813,
      "▁\"L": 1814,
      "ice": 1815,
      "2005": 1816,
      "▁नि": 1817,
      "ండి": 1818,
      "వర్గం:": 1819,
      "History": 1820,
      "Talbot": 1821,
      "▁2": 1822,
      "▁errors": 1823,
      "्रिट": 1824,
      "2008": 1825,
      "▁हो": 1826,
      "▁St": 1827,
      "▁2021": 1828,
      "▁([help": 1829,
      "AsherTalbot": 1830,
      "▁errors\"))\n": 1831,
      "जरा": 1832,
      "ुल": 1833,
      "anc": 1834,
      "old": 1835,
      "age/": 1836,
      "ght": 1837,
      ".jpg)](File:": 1838,
      "▁[उ": 1839,
      "omb": 1840,
      "▁2007": 1841,
      "69": 1842,
      "gan": 1843,
      "mber": 1844,
      "ंजाब": 1845,
      "वन": 1846,
      "తర": 1847,
      "▁బ": 1848,
      "ission": 1849,
      "▁खाना": 1850,
      "ों_की_सूची": 1851,
      "▁8": 1852,
      "rate": 1853,
      "matics": 1854,
      "\").[[": 1855,
      "ोर": 1856,
      "▁2010": 1857,
      "ुसार": 1858,
      "-in": 1859,
      "hy": 1860,
      "ms": 1861,
      "ug": 1862,
      "ब्": 1863,
      "une": 1864,
      "ystem": 1865,
      "1_": 1866,
      "बसे": 1867,
      "ట్": 1868,
      "ది": 1869,
      "ిత": 1870,
      "](https://en.wikipedia.org/wiki/Indian_": 1871,
      "ेंद्र": 1872,
      "](https://hi.wikipedia.org/wiki/भारत_क": 1873,
      "▁गया": 1874,
      "▁Asian": 1875,
      "▁राज्यों": 1876,
      "5)": 1877,
      "58": 1878,
      "fn_": 1879,
      "uary": 1880,
      "चल": 1881,
      "▁error": 1882,
      "▁template": 1883,
      "no-t": 1884,
      "\\_no-t": 1885,
      "▁Sfn": 1886,
      "▁target": 1887,
      "](https://web.archive.org/web/20": 1888,
      "▁[मूल": 1889,
      "fn\\_no-t": 1890,
      "template_": 1891,
      "arget\\_errors": 1892,
      "\\_Sfn\\_no-t": 1893,
      "_and_Sfn_": 1894,
      "\\_and\\_Sfn\\_no-t": 1895,
      "▁error:": 1896,
      "▁target:": 1897,
      "template_errors": 1898,
      "arget\\_errors\n": 1899,
      "_and_Sfn_template_errors": 1900,
      "\\_and\\_Sfn\\_no-target\\_errors\n": 1901,
      "ise": 1902,
      "▁Comm": 1903,
      "ालय": 1904,
      "▁सूची\")": 1905,
      "A4%": 1906,
      "_c": 1907,
      "ail": 1908,
      "न्त": 1909,
      "▁26": 1910,
      "ant": 1911,
      "on-": 1912,
      "_చ": 1913,
      "uk": 1914,
      "प्त": 1915,
      "बंध": 1916,
      "ం\")": 1917,
      "▁\"మ": 1918,
      "ctor": 1919,
      "34": 1920,
      "C&pg=PA": 1921,
      "_L": 1922,
      "▁CITEREF": 1923,
      "ace": 1924,
      "स्था": 1925,
      "▁./श्रेणी:": 1926,
      "_m": 1927,
      "aw": 1928,
      "data": 1929,
      "ैन": 1930,
      "eneral": 1931,
      "](https://en.wikipedia.org/wiki/L": 1932,
      "▁ch": 1933,
      "▁Ap": 1934,
      "पाकिस्तान": 1935,
      "▁प्रा": 1936,
      "51": 1937,
      "▁ఎ": 1938,
      "▁[మ": 1939,
      "▁\"F": 1940,
      "ari": 1941,
      "▁सबसे": 1942,
      "uly": 1943,
      "ियों": 1944,
      "▁(సా.శ.పూ.": 1945,
      "▁पुरालेखित": 1946,
      "चित्र:": 1947,
      "▁पुरालेखित।": 1948,
      "-g": 1949,
      "hind": 1950,
      "vis": 1951,
      "▁25": 1952,
      "▁sfn": 1953,
      "isher": 1954,
      "Edit": 1955,
      "Page/": 1956,
      "o-": 1957,
      "▁\"उ": 1958,
      "ternational": 1959,
      "inistry": 1960,
      "EditPage/": 1961,
      "_भाषा": 1962,
      "shi": 1963,
      "ister": 1964,
      "युक्त": 1965,
      "india.gov.in/": 1966,
      "स्कृत": 1967,
      "68": 1968,
      "fter": 1969,
      "lass": 1970,
      "pr": 1971,
      "year": 1972,
      "ధ్య": 1973,
      "▁గ": 1974,
      "▁శ": 1975,
      "▁territ": 1976,
      "ork": 1977,
      "ories": 1978,
      "](https://hi.wikipedia.org/wiki/चित्र:": 1979,
      "off": 1980,
      "▁मान": 1981,
      "ियाँ": 1982,
      "ంద్ర": 1983,
      "ustry": 1984,
      "क्ति": 1985,
      "/artic": 1986,
      "cies": 1987,
      "rib": 1988,
      "ashmir": 1989,
      "-l": 1990,
      "mb": 1991,
      "yn": 1992,
      "aman": 1993,
      "_सं": 1994,
      "ood": 1995,
      "याल": 1996,
      "earch": 1997,
      "।[[": 1998,
      "ైన": 1999,
      "](https://en.wikipedia.org/wiki/F": 2000,
      "](https://te.wikipedia.org/wiki/మ": 2001,
      "▁जिस": 2002,
      "▁పే": 2003,
      "ంది.": 2004,
      "स्थान": 2005,
      "air": 2006,
      "वरी": 2007,
      "▁ri": 2008,
      "2014": 2009,
      "ats": 2010,
      "▁अधिक": 2011,
      "ाली": 2012,
      "_Indian_": 2013,
      "Union": 2014,
      "▁१९": 2015,
      "आई": 2016,
      "▁कि": 2017,
      "aint": 2018,
      "DwAAQBAJ&pg=PA": 2019,
      "्रिटिश": 2020,
      "्ला": 2021,
      "▁[F": 2022,
      "म्ब": 2023,
      "श्मी": 2024,
      "Rothermund": 2025,
      "Wiki": 2026,
      "च्च": 2027,
      "ज्य": 2028,
      "म्रा": 2029,
      "ట్ట": 2030,
      "హింద": 2031,
      "▁భారతదేశం": 2032,
      "](https://hi.wikipedia.org/wiki/भारत#CITEREF": 2033,
      "ంగ్": 2034,
      "▁साथ": 2035,
      "ద్ధ": 2036,
      "](https://hi.wikipedia.org/wiki/भारत_में_": 2037,
      "330": 2038,
      "uj": 2039,
      "uch": 2040,
      "ugh": 2041,
      "▁धर्म": 2042,
      "▁An": 2043,
      "umber": 2044,
      "▁10": 2045,
      "्वर": 2046,
      "▁आधार": 2047,
      "▁संघ": 2048,
      "की": 2049,
      "शास": 2050,
      "197": 2051,
      "▁17": 2052,
      "▁**[": 2053,
      "ople": 2054,
      "▁this": 2055,
      "nglish": 2056,
      "Kulke": 2057,
      "a_": 2058,
      "तमिल": 2059,
      "दा": 2060,
      "▁India,": 2061,
      "low": 2062,
      "तिहास": 2063,
      "▁New": 2064,
      "ించ": 2065,
      "▁ఒ": 2066,
      "▁ag": 2067,
      "▁था": 2068,
      "▁భాష": 2069,
      "▁[క": 2070,
      "▁\"श्रेणी:Harv": 2071,
      "](https://hi.wikipedia.org/wiki/श्रेणी:Harv": 2072,
      "▁सि": 2073,
      "ley": 2074,
      "ాల్": 2075,
      "▁\"Special:BookSources/978-1": 2076,
      "▁उप": 2077,
      "▁./Category:": 2078,
      "▁./श्रेणी:Harv": 2079,
      "](Special:BookSources/978-1": 2080,
      "▁Island": 2081,
      "](http://www.": 2082,
      "▁([help](https://hi.wikipedia.org/wiki/श्रेणी:Harv": 2083,
      "_and_Sfn_template_errors?action=edit&redlink=1": 2084,
      "म्राज्य": 2085,
      "▁./श्रेणी:Harv\\_and\\_Sfn\\_no-target\\_errors\n": 2086,
      "▁([help](https://hi.wikipedia.org/wiki/श्रेणी:Harv_and_Sfn_template_errors?action=edit&redlink=1": 2087,
      "ed.": 2088,
      "▁Pres": 2089,
      "ongress": 2090,
      "▁[भारतीय": 2091,
      "▁विश्व": 2092,
      "ombined": 2093,
      "1,": 2094,
      "100": 2095,
      "PP": 2096,
      "aper": 2097,
      "les/": 2098,
      "▁Empire": 2099,
      "▁World": 2100,
      "emplate:": 2101,
      "8/": 2102,
      "att": 2103,
      "mar": 2104,
      "रे": 2105,
      "emb": 2106,
      "▁बाद": 2107,
      "िल्ल": 2108,
      "▁Asia\")": 2109,
      "ower": 2110,
      "Hindi": 2111,
      "]](https://te.wikipedia.org/wiki/భారతదేశం#cite_": 2112,
      "णा": 2113,
      "तंत्र": 2114,
      "ेव": 2115,
      "చ్చ": 2116,
      "జీ": 2117,
      "ేంద్ర": 2118,
      "ority": 2119,
      "▁\"క": 2120,
      "](https://hi.wikipedia.org/wiki/उ": 2121,
      "edi": 2122,
      "्यट": 2123,
      "माण": 2124,
      "1/": 2125,
      "9)": 2126,
      "ori": 2127,
      "lim": 2128,
      "iron": 2129,
      ".jpg/250px-": 2130,
      "%E0%A4%": 2131,
      "KulkeRothermund": 2132,
      "57": 2133,
      "मुख": 2134,
      "gy": 2135,
      "ागर": 2136,
      "arch": 2137,
      "▁July": 2138,
      "ledge": 2139,
      "▁April": 2140,
      "national": 2141,
      "ंब": 2142,
      "गढ़": 2143,
      "भी": 2144,
      "वे": 2145,
      "ांग": 2146,
      "త్య": 2147,
      "బ్": 2148,
      "మీ": 2149,
      "radition": 2150,
      "](https://te.wikipedia.org/wiki/ద": 2151,
      "్యా": 2152,
      "రాష్ట్ర": 2153,
      "▁./వర్గం:": 2154,
      "Hindu": 2155,
      "news/": 2156,
      "▁हिन्द": 2157,
      "-c": 2158,
      "Dyson": 2159,
      "dom": 2160,
      "एस": 2161,
      "king": 2162,
      "lear": 2163,
      "act": 2164,
      "▁\"South": 2165,
      "ummit\")": 2166,
      "/http://www.": 2167,
      "7-1": 2168,
      "Combined": 2169,
      "ober": 2170,
      "ution": 2171,
      "ोर्": 2172,
      "▁[W": 2173,
      "क्षेत्र": 2174,
      "▁शास": 2175,
      "121": 2176,
      "du": 2177,
      "viron": 2178,
      "टी": 2179,
      "▁government": 2180,
      "entral": 2181,
      "uman": 2182,
      "hina": 2183,
      "श्चिम": 2184,
      "vironment": 2185,
      "ves": 2186,
      "में": 2187,
      "ంక": 2188,
      "ప్": 2189,
      "యు": 2190,
      "▁9": 2191,
      "▁[J": 2192,
      "▁\"J": 2193,
      "rab": 2194,
      "▁cons": 2195,
      "line": 2196,
      "्वार": 2197,
      "eptem": 2198,
      "తంత్ర": 2199,
      "▁not": 2200,
      "engal": 2201,
      "](https://te.wikipedia.org/wiki/భారతదేశం#cite_ref-": 2202,
      "దక్షిణ": 2203,
      "]](https://te.wikipedia.org/wiki/భారతదేశం#cite_note-": 2204,
      "eptember": 2205,
      "_at": 2206,
      "वर्": 2207,
      "▁[सं": 2208,
      "▁कार": 2209,
      "07": 2210,
      "pt": 2211,
      "▁थ": 2212,
      "▁us": 2213,
      "ide": 2214,
      "▁Pradesh": 2215,
      "िया\")": 2216,
      "ional": 2217,
      "also": 2218,
      "athe": 2219,
      "cre": 2220,
      "▁year": 2221,
      "](https://en.wikipedia.org/wiki/J": 2222,
      "cient": 2223,
      "▁into": 2224,
      "▁system": 2225,
      "▁pl": 2226,
      "_Press": 2227,
      "uclear": 2228,
      "गुजरा": 2229,
      "_प्रदेश": 2230,
      "uropean": 2231,
      "_స": 2232,
      "_और": 2233,
      "एं": 2234,
      "తము": 2235,
      "వే": 2236,
      "ష్": 2237,
      "ాన్": 2238,
      "స్క": 2239,
      "▁En": 2240,
      "▁have": 2241,
      "ड़ा": 2242,
      "imes": 2243,
      "fficial": 2244,
      "▁यह": 2245,
      "ిల్లీ": 2246,
      "ज्ञान": 2247,
      "ph": 2248,
      "▁off": 2249,
      "▁15": 2250,
      "\"](https://": 2251,
      "0.": 2252,
      "2-0)": 2253,
      "_re": 2254,
      "ocial": 2255,
      "\")**": 2256,
      "now": 2257,
      "anges": 2258,
      "▁during": 2259,
      "s.[[": 2260,
      "_summit": 2261,
      "Dyson2018": 2262,
      ",000": 2263,
      "uis": 2264,
      "argest": 2265,
      "▁[Archived](https://web.archive.org/web/20": 2266,
      "ographi": 2267,
      "dus": 2268,
      "तर": 2269,
      "జి": 2270,
      "ధాన": 2271,
      "బె": 2272,
      "▁[t": 2273,
      "▁\"विशेष:पुस्तक": 2274,
      "inister": 2275,
      "](https://hi.wikipedia.org/wiki/ISBN_(identifier)": 2276,
      "](https://hi.wikipedia.org/wiki/विशेष:पुस्तक": 2277,
      "▁स्रोत/": 2278,
      "▁their": 2279,
      "▁पा": 2280,
      "ారు": 2281,
      "▁comp": 2282,
      "](https://hi.wikipedia.org/wiki/भारत_के_": 2283,
      "ember": 2284,
      "लाई": 2285,
      "_स्रोत/": 2286,
      "▁కా": 2287,
      "▁[ISBN](https://hi.wikipedia.org/wiki/ISBN_(identifier)": 2288,
      "_के_आ": 2289,
      "▁రాజ": 2290,
      "▁लि": 2291,
      "▁language\")": 2292,
      "▁(PDF)": 2293,
      "साँचा:": 2294,
      "ांग्ला": 2295,
      "](https://hi.wikipedia.org/wiki/विशेष:पुस्तक_स्रोत/": 2296,
      "jab": 2297,
      "mi": 2298,
      "oor": 2299,
      "rin": 2300,
      "▁24": 2301,
      "\")*.": 2302,
      "idd": 2303,
      "ram": 2304,
      "▁Archived": 2305,
      "▁first": 2306,
      "▁Pro": 2307,
      "ill": 2308,
      "map": 2309,
      "ayan": 2310,
      "odi": 2311,
      "▁यु": 2312,
      "▁Press\").": 2313,
      "त्प": 2314,
      "outledge": 2315,
      "%28": 2316,
      "44": 2317,
      "_K": 2318,
      "ote": 2319,
      "annic": 2320,
      "India)": 2321,
      "▁countries": 2322,
      "ref-1": 2323,
      "note-1": 2324,
      "ctober": 2325,
      "ritannic": 2326,
      "▁October": 2327,
      ".\"\n": 2328,
      "_In": 2329,
      "fl": 2330,
      "son": 2331,
      "धी": 2332,
      "▁also": 2333,
      "▁par": 2334,
      "▁16": 2335,
      "▁2023": 2336,
      "\n\n###": 2337,
      "National": 2338,
      "ंप": 2339,
      "िन": 2340,
      "००": 2341,
      "దు": 2342,
      "మ్": 2343,
      "శ్": 2344,
      "▁राष्ट्रीय": 2345,
      "2023": 2346,
      "](https://te.wikipedia.org/wiki/క": 2347,
      "entre": 2348,
      "▁part": 2349,
      "్యవ": 2350,
      "▁[↑](https://hi.wikipedia.org/wiki/भारत#cite_": 2351,
      "▁जु": 2352,
      "ेश्वर": 2353,
      "▁है,": 2354,
      "▁रूप": 2355,
      "history": 2356,
      "liament": 2357,
      "ूचना": 2358,
      "_చరిత్ర": 2359,
      "330px-": 2360,
      "/0": 2361,
      "31": 2362,
      "ive": 2363,
      "काल": 2364,
      "▁k": 2365,
      "▁21": 2366,
      "cience": 2367,
      "्यव": 2368,
      "▁Sh": 2369,
      "▁dis": 2370,
      "brary": 2371,
      "usiness": 2372,
      "▁[न": 2373,
      "▁स्व": 2374,
      "▁con": 2375,
      "▁Th": 2376,
      "▁दक्षिण": 2377,
      "india/": 2378,
      "▁2024": 2379,
      "-80": 2380,
      "udden": 2381,
      "_University": 2382,
      "ban": 2383,
      "ne": 2384,
      "ran": 2385,
      "तेल": 2386,
      "सभ": 2387,
      "▁नाम": 2388,
      "ond": 2389,
      "hism": 2390,
      "/p": 2391,
      "_पर": 2392,
      "बाद": 2393,
      "रक्ष": 2394,
      "ाष्ट्र": 2395,
      "ఢిల్లీ": 2396,
      "పంచ": 2397,
      "–1": 2398,
      "time": 2399,
      "▁India:": 2400,
      "etwe": 2401,
      "ారి": 2402,
      "िक्ष": 2403,
      "chno": 2404,
      "▁world": 2405,
      "_मेला": 2406,
      "नेमा": 2407,
      "धार_पर": 2408,
      "द्योग": 2409,
      "हाराष्ट्र": 2410,
      "మూస": 2411,
      "_के_आधार_पर": 2412,
      "etween": 2413,
      "_के_आधार_पर_भारत": 2414,
      "/A": 2415,
      "ology": 2416,
      "एशिया": 2417,
      "सद": 2418,
      "estern": 2419,
      "19-8": 2420,
      "racy": 2421,
      "▁Ch": 2422,
      "▁Aug": 2423,
      "▁September": 2424,
      "ishing": 2425,
      "▁form": 2426,
      "ी_भाषा": 2427,
      "▁(PDF).": 2428,
      ".svg": 2429,
      "▁Commission": 2430,
      "▁August": 2431,
      "%29": 2432,
      "-19": 2433,
      "ck": 2434,
      "rans": 2435,
      "ली": 2436,
      "▁[I": 2437,
      "▁पूर्व": 2438,
      "▁class": 2439,
      "ural": 2440,
      "▁अप": 2441,
      "rop": 2442,
      "unjab": 2443,
      "1994": 2444,
      "▁विक": 2445,
      "pecial:BookSources/978": 2446,
      "_H": 2447,
      "सी": 2448,
      "▁22": 2449,
      "▁2019": 2450,
      "-26": 2451,
      "pib": 2452,
      "मह": 2453,
      "वाद": 2454,
      "వు": 2455,
      "▁wi": 2456,
      "▁\"భారతీయ": 2457,
      "thno": 2458,
      "er,": 2459,
      "▁मंदिर": 2460,
      "adu": 2461,
      "urr": 2462,
      "▁Metcalf": 2463,
      "▁Re": 2464,
      "ंगा": 2465,
      "▁[Archived](https://web.archive.org/web/201": 2466,
      "ंग्रेज़ी": 2467,
      "▁subcontinent": 2468,
      "▁पुरालेखित।.": 2469,
      "▁जुलाई": 2470,
      "_के_आधार_पर_भारत_के_राज्य": 2471,
      "2_": 2472,
      "3-0)": 2473,
      "iver": 2474,
      "ron": 2475,
      "wing": 2476,
      "▁[हिन्द": 2477,
      "ool": 2478,
      "_University_Press": 2479,
      "\".": 2480,
      "ार्": 2481,
      "▁2018": 2482,
      "210": 2483,
      "▁न्या": 2484,
      "▁2006": 2485,
      "fr": 2486,
      "ual": 2487,
      "पति": 2488,
      "one": 2489,
      "▁Act": 2490,
      "oll": 2491,
      "▁गण": 2492,
      "▁अनुसार": 2493,
      "CE": 2494,
      "a,": 2495,
      "pp": 2496,
      "खा": 2497,
      "चे": 2498,
      "జన": 2499,
      "టు": 2500,
      "టె": 2501,
      "ार्ट": 2502,
      "omen": 2503,
      "raven": 2504,
      "amb": 2505,
      "विधान": 2506,
      "नाग": 2507,
      "▁చె": 2508,
      "నాయ": 2509,
      "–సా.శ.పూ.": 2510,
      "▁[↑](https://hi.wikipedia.org/wiki/भारत#cite_ref-FOOTNOTE": 2511,
      "▁ఆర్": 2512,
      "▁देशों": 2513,
      "gency": 2514,
      "పాలిత": 2515,
      "స్త్రం:": 2516,
      "▁ప్రాంత": 2517,
      "ేంద్రపాలిత": 2518,
      "](https://te.wikipedia.org/wiki/దస్త్రం:": 2519,
      "-20": 2520,
      "_%28": 2521,
      "टे": 2522,
      "ोन": 2523,
      "▁6": 2524,
      "▁\"H": 2525,
      "्यवस्था": 2526,
      "-re": 2527,
      "4-0)": 2528,
      "tal": 2529,
      "▁res": 2530,
      "▁\"O": 2531,
      "▁India\"),": 2532,
      "▁Ass": 2533,
      "▁Se": 2534,
      "▁June": 2535,
      "ortal": 2536,
      "▁been": 2537,
      "chnology": 2538,
      "_I": 2539,
      "▁per": 2540,
      "▁[H": 2541,
      "▁\"इ": 2542,
      "eser": 2543,
      "▁but": 2544,
      "▁[*A": 2545,
      "iddle": 2546,
      "87": 2547,
      "cri": 2548,
      "pl": 2549,
      "ंक": 2550,
      "स्ट": 2551,
      "ఖ్య": 2552,
      "గో": 2553,
      "తో": 2554,
      "బి": 2555,
      "హి": 2556,
      "ara": 2557,
      "▁population": 2558,
      "▁Cambridge": 2559,
      "▁between": 2560,
      "ंगाल": 2561,
      "▁तट": 2562,
      "▁एवं": 2563,
      "ffair": 2564,
      "श्मीर": 2565,
      "స్కృ": 2566,
      "ritannica": 2567,
      "-language": 2568,
      "countries": 2569,
      "oast": 2570,
      "जय": 2571,
      "ल\")": 2572,
      "andhi": 2573,
      "edic": 2574,
      "-17": 2575,
      "able": 2576,
      ".jpg/330px-": 2577,
      "▁प्रदेश\")": 2578,
      ".html": 2579,
      "_3": 2580,
      "_अ": 2581,
      "fric": 2582,
      "hol": 2583,
      "lad": 2584,
      "ule": 2585,
      "va": 2586,
      "arh": 2587,
      "▁मु": 2588,
      "1947": 2589,
      "▁more": 2590,
      "▁2016": 2591,
      "Harle": 2592,
      "harma": 2593,
      "धिकार": 2594,
      "embly": 2595,
      "ok": 2596,
      "rish": 2597,
      "श्री": 2598,
      "▁al": 2599,
      "▁ac": 2600,
      "ped": 2601,
      "ident": 2602,
      "amp": 2603,
      "ument": 2604,
      "▁Population": 2605,
      "_क्षेत्र": 2606,
      "▁एशिया": 2607,
      "avid": 2608,
      "%2F": 2609,
      "904": 2610,
      "india.gov.in": 2611,
      "\n\n[![](https://upload.wikimedia.org/wikipedia/commons/thumb/": 2612,
      "Template:": 2613,
      "_ప": 2614,
      "रो": 2615,
      "ीस": 2616,
      "హా": 2617,
      "▁Y": 2618,
      "▁all": 2619,
      "▁ను": 2620,
      "▁జాతీయ": 2621,
      "▁\"द": 2622,
      "ering": 2623,
      "▁केंद्र": 2624,
      "भाग": 2625,
      "संख्या": 2626,
      "%20%20": 2627,
      "▁2014.\n": 2628,
      "్యవస్థ": 2629,
      "8)": 2630,
      "ft": 2631,
      "mu": 2632,
      "oon": 2633,
      "लि": 2634,
      "▁[[": 2635,
      "▁[इ": 2636,
      "▁[Indian": 2637,
      "▁\"हिन्द": 2638,
      "rade": 2639,
      "▁bec": 2640,
      "▁music": 2641,
      "igh": 2642,
      "berg": 2643,
      "ड़ी": 2644,
      "नेपाल": 2645,
      "ligi": 2646,
      "logue": 2647,
      "▁समय": 2648,
      "▁century": 2649,
      "गुजरात": 2650,
      ":[": 2651,
      "_W": 2652,
      "van": 2653,
      "िन्": 2654,
      ".org/10.": 2655,
      "▁\"W": 2656,
      "int": 2657,
      "are": 2658,
      "2024": 2659,
      "▁मा": 2660,
      "\n\n-": 2661,
      "depend": 2662,
      "-2)": 2663,
      "doi.org/10.": 2664,
      "र्द": 2665,
      "ures": 2666,
      "istan": 2667,
      "epublic": 2668,
      "umbai": 2669,
      "▁साम्राज्य": 2670,
      "▁state": 2671,
      "view": 2672,
      "81": 2673,
      "fic": 2674,
      "ibrary": 2675,
      "lang": 2676,
      "tates": 2677,
      "एँ": 2678,
      "क्स": 2679,
      "गो": 2680,
      "ैक": 2681,
      "ोड़": 2682,
      "డా": 2683,
      "దా": 2684,
      "బడ": 2685,
      "మే": 2686,
      "రణ": 2687,
      "▁లో": 2688,
      "peration": 2689,
      "▁\"I": 2690,
      "icy": 2691,
      "▁मूल": 2692,
      "▁dance": 2693,
      "term": 2694,
      "ाला": 2695,
      "▁जो": 2696,
      "▁after": 2697,
      "▁बहु": 2698,
      "▁सेना": 2699,
      "▁కూ": 2700,
      "ాలు,": 2701,
      "▁2009": 2702,
      "-81": 2703,
      "म्बर": 2704,
      "▁రాష్ట్ర": 2705,
      "विश्व": 2706,
      "▁भू": 2707,
      "rick": 2708,
      "ompany": 2709,
      "కిస్తాన్": 2710,
      "clud": 2711,
      "▁చరిత్ర\")": 2712,
      "ujar": 2713,
      "्यटन": 2714,
      "thnologue": 2715,
      "88": 2716,
      "par": 2717,
      "त्य": 2718,
      "लोक": 2719,
      "ीत": 2720,
      "ttar": 2721,
      "▁[3": 2722,
      "▁\"न": 2723,
      "▁\"सं": 2724,
      "▁East": 2725,
      ".jpg)\n\n": 2726,
      "शासित": 2727,
      "ces": 2728,
      "imp": 2729,
      "ls": 2730,
      "▁over": 2731,
      "ia\")": 2732,
      "cember": 2733,
      "▁ab": 2734,
      "230": 2735,
      "form": 2736,
      "▁1950": 2737,
      "▁[Stein": 2738,
      "▁For": 2739,
      "▁Jan": 2740,
      "राष्ट्रपति": 2741,
      "हासागर": 2742,
      "▁स्थ": 2743,
      "▁वर्ष": 2744,
      "4–": 2745,
      "76": 2746,
      "dustry": 2747,
      "pur": 2748,
      "wart": 2749,
      "zberg": 2750,
      "▁other": 2751,
      "kim": 2752,
      "iation": 2753,
      "ince": 2754,
      "ones": 2755,
      "chwart": 2756,
      "▁National": 2757,
      "fore": 2758,
      "olitical": 2759,
      "▁Press.": 2760,
      "▁years": 2761,
      "chwartzberg": 2762,
      "2/": 2763,
      "75": 2764,
      "her": 2765,
      "wo": 2766,
      "तिक": 2767,
      "धु": 2768,
      "भू": 2769,
      "ील": 2770,
      "ेट": 2771,
      "▁ఈ": 2772,
      "▁భారత": 2773,
      "▁28": 2774,
      "](https://en.wikipedia.org/wiki/W": 2775,
      "▁comm": 2776,
      "▁di": 2777,
      "नाथ": 2778,
      "▁English": 2779,
      "త్రి": 2780,
      "ాలు\")": 2781,
      "ాలు](https://te.wikipedia.org/wiki/": 2782,
      "▁अन्य": 2783,
      "les\\_": 2784,
      "ovement": 2785,
      "▁region": 2786,
      "1-0)": 2787,
      "500": 2788,
      "_O": 2789,
      "lam": 2790,
      "\").\n": 2791,
      "alley": 2792,
      "ान\")": 2793,
      "ade": 2794,
      "life": 2795,
      "ird": 2796,
      "▁2020": 2797,
      "▁number": 2798,
      "_De": 2799,
      "ganisation": 2800,
      "%7": 2801,
      ".as": 2802,
      "por": 2803,
      "y\")": 2804,
      "डी": 2805,
      "pear": 2806,
      "▁[Metcalf": 2807,
      "](https://en.wikipedia.org/wiki/H": 2808,
      "2016": 2809,
      "rime": 2810,
      "anglad": 2811,
      "▁most": 2812,
      "cture": 2813,
      "▁(identifier)\"):[": 2814,
      "angladesh": 2815,
      "79": 2816,
      "णि": 2817,
      "▁es": 2818,
      "arb": 2819,
      "2019": 2820,
      "्यता": 2821,
      "▁Ar": 2822,
      "cyc": 2823,
      "obb": 2824,
      "-to": 2825,
      "64": 2826,
      "ID": 2827,
      "_క": 2828,
      "टक": 2829,
      "पी": 2830,
      "తు": 2831,
      "పతి": 2832,
      "▁फ": 2833,
      "▁ని": 2834,
      "▁27": 2835,
      "▁స్థ": 2836,
      "▁[e": 2837,
      "▁[v": 2838,
      "▁[द": 2839,
      "▁[అ": 2840,
      "▁[ప": 2841,
      "▁\"భారతదేశం": 2842,
      "\")\n": 2843,
      "్రి": 2844,
      "ourt": 2845,
      "ర్వ": 2846,
      "న్ని": 2847,
      "▁है।\n\n": 2848,
      "ose": 2849,
      "म्म": 2850,
      "apit": 2851,
      ".jpg)](https://hi.wikipedia.org/wiki/चित्र:": 2852,
      "वंश": 2853,
      "మిళ": 2854,
      "▁जाता": 2855,
      "వంశ": 2856,
      "तंत्रता": 2857,
      "वेब": 2858,
      "द्योगिक": 2859,
      "_t": 2860,
      "ges": 2861,
      "ze": 2862,
      "वै": 2863,
      "ृति": 2864,
      "▁en": 2865,
      "theast": 2866,
      "2001": 2867,
      "olicy": 2868,
      "▁दे": 2869,
      "▁election": 2870,
      "formatics": 2871,
      "▁[South": 2872,
      "▁उत्तर": 2873,
      "ustral": 2874,
      "emple": 2875,
      "ikshi": 2876,
      "▁[2](https://en.wikipedia.org/wiki/India#cite_ref-FOOTNOTE": 2877,
      "▁[1](https://en.wikipedia.org/wiki/India#cite_ref-FOOTNOTE": 2878,
      "र्थिक": 2879,
      "times.com/": 2880,
      "ikshit": 2881,
      "*,": 2882,
      "-f": 2883,
      "▁छ": 2884,
      "encies": 2885,
      "asia": 2886,
      "2000": 2887,
      "atus": 2888,
      "▁Congress": 2889,
      "lob": 2890,
      "_of_the": 2891,
      "▁Talbot": 2892,
      "▁May": 2893,
      "with\\_": 2894,
      "▁states": 2895,
      "Fisher": 2896,
      "तु": 2897,
      "orther": 2898,
      "ash": 2899,
      "2012": 2900,
      "▁13": 2901,
      "union": 2902,
      "▁वा": 2903,
      "ode": 2904,
      "▁रह": 2905,
      "हिन्दी": 2906,
      "Fisher2018": 2907,
      "-le": 2908,
      "Ar": 2909,
      "CO": 2910,
      "IM": 2911,
      "_మ": 2912,
      "_భాష": 2913,
      "cent": 2914,
      "lations": 2915,
      "पे": 2916,
      "मंत्र": 2917,
      "रण": 2918,
      "रवरी": 2919,
      "ाट": 2920,
      "िज़": 2921,
      "ఫ్": 2922,
      "▁ड": 2923,
      "▁స్": 2924,
      "▁[ज": 2925,
      "▁[బ": 2926,
      "▁[స": 2927,
      "▁[पु": 2928,
      "▁\"అ": 2929,
      "ics": 2930,
      "ama": 2931,
      "wealth": 2932,
      "विज्ञान": 2933,
      "న్నాయ": 2934,
      "▁కాల": 2935,
      "ड़े": 2936,
      "]](https://hi.wikipedia.org/wiki/भारत#cite_note-1": 2937,
      "eport": 2938,
      "▁Oxford": 2939,
      ".jpg)](https://te.wikipedia.org/wiki/దస్త్రం:": 2940,
      "ी](https://hi.wikipedia.org/wiki/अ": 2941,
      "ndaman": 2942,
      "ులు](https://te.wikipedia.org/wiki/": 2943,
      "▁రై": 2944,
      "▁निर्": 2945,
      "यालय": 2946,
      "హిందూ": 2947,
      "▁[↑](https://hi.wikipedia.org/wiki/भारत#cite_ref-1": 2948,
      "▁2006](https://en.wikipedia.org/wiki/India#CITEREF": 2949,
      "-21": 2950,
      "1–": 2951,
      "co": 2952,
      "oth": 2953,
      "ale": 2954,
      "ased": 2955,
      "▁Census": 2956,
      "auth": 2957,
      "120px-": 2958,
      "▁territories": 2959,
      "ographic": 2960,
      "ffairs": 2961,
      ")\n": 2962,
      "-25": 2963,
      "89": 2964,
      "Vi": 2965,
      "_territ": 2966,
      "min": 2967,
      "oci": 2968,
      "p?": 2969,
      "ल्": 2970,
      "reat": 2971,
      "▁spe": 2972,
      "▁Constitution": 2973,
      "▁अग": 2974,
      "str": 2975,
      "▁2012": 2976,
      "▁had": 2977,
      "censusindia.gov.in/": 2978,
      "ed.).": 2979,
      "▁official": 2980,
      "langoff": 2981,
      "▁January": 2982,
      "orthern": 2983,
      ".india": 2984,
      "4).": 2985,
      "a/": 2986,
      "eh": 2987,
      "pa": 2988,
      "▁[s": 2989,
      "▁\"आ": 2990,
      "onwealth": 2991,
      "eration": 2992,
      "ough": 2993,
      "adi": 2994,
      "ched": 2995,
      "emoc": 2996,
      "▁Budd": 2997,
      "▁BCE": 2998,
      "ight": 2999,
      "▁[2](https://en.wikipedia.org/wiki/India#cite_ref-": 3000,
      "▁[1](https://en.wikipedia.org/wiki/India#cite_ref-": 3001,
      "AsherTalbot2008": 3002,
      "▁2010](https://en.wikipedia.org/wiki/India#CITEREF": 3003,
      "ughal": 3004,
      "CN": 3005,
      "Uttar": 3006,
      "डु": 3007,
      "ेस": 3008,
      "ఆసియా": 3009,
      "ద్ర": 3010,
      "భూ": 3011,
      "మె": 3012,
      "య్య": 3013,
      "ర్య": 3014,
      "▁ల": 3015,
      "▁23": 3016,
      "](https://doi.org/10.": 3017,
      "▁\"ప": 3018,
      "▁\"బ": 3019,
      "▁\"స": 3020,
      "ofindia": 3021,
      "ाने": 3022,
      "▁[↑](https://te.wikipedia.org/wiki/భారతదేశం#cite_ref-": 3023,
      "ross": 3024,
      "files/": 3025,
      "नाव": 3026,
      "▁द्वार": 3027,
      "माज": 3028,
      "త్త": 3029,
      "▁అధిక": 3030,
      "▁ప్రదేశ్": 3031,
      "ప్రదేశ్": 3032,
      "सेना": 3033,
      "▁चु": 3034,
      "▁हुई": 3035,
      "त्पाद": 3036,
      "▁నుండి": 3037,
      "న్నాయి.": 3038,
      "55": 3039,
      "_4": 3040,
      "_ब": 3041,
      "country": 3042,
      "डिया": 3043,
      "िस्तान": 3044,
      "▁ऊ": 3045,
      "pect": 3046,
      "andard": 3047,
      "eds.": 3048,
      "riod": 3049,
      "▁tradition": 3050,
      "come": 3051,
      "▁1,": 3052,
      "▁dec": 3053,
      "▁national": 3054,
      "▁Hindi": 3055,
      "▁December": 3056,
      "▁विकास": 3057,
      "▁became": 3058,
      "-78": 3059,
      "1]](https://en.wikipedia.org/wiki/India#cite_note-FOOTNOTE": 3060,
      "73": 3061,
      "86": 3062,
      "GDP": 3063,
      "TR": 3064,
      "has": 3065,
      "मार": 3066,
      "ूर्": 3067,
      "ृष्": 3068,
      "▁up": 3069,
      "▁[आ": 3070,
      "\");": 3071,
      "high": 3072,
      "ala": 3073,
      "▁sh": 3074,
      "▁two": 3075,
      "▁me": 3076,
      "change": 3077,
      "▁2022": 3078,
      "▁It": 3079,
      "olitics": 3080,
      "ligious": 3081,
      "_न": 3082,
      "bi": 3083,
      "s-": 3084,
      "िज": 3085,
      "ised": 3086,
      "▁Pe": 3087,
      "▁Plate": 3088,
      "▁March": 3089,
      "▁Development": 3090,
      "nown": 3091,
      ",[[": 3092,
      "-23": 3093,
      "-28": 3094,
      "2).": 3095,
      "han": 3096,
      "ईसा": 3097,
      "कल": 3098,
      "खाना": 3099,
      "गोल": 3100,
      "धि": 3101,
      "ణి": 3102,
      "తమిళ": 3103,
      "మైన": 3104,
      "హార": 3105,
      "ోర్": 3106,
      "▁\"ఇ": 3107,
      "▁\"భారత": 3108,
      "](https://hi.wikipedia.org/wiki/इ": 3109,
      "▁सु": 3110,
      "](https://te.wikipedia.org/wiki/బ": 3111,
      "▁अरब": 3112,
      "▁दिया": 3113,
      "▁बढ़": 3114,
      "-40": 3115,
      "abad": 3116,
      "▁మొ": 3117,
      "harat": 3118,
      "నాగ": 3119,
      "త్తర": 3120,
      "ులు\")": 3121,
      "्रां": 3122,
      "▁हुआ": 3123,
      "फ़रवरी": 3124,
      "ंबई": 3125,
      "ారు.": 3126,
      "▁लिए": 3127,
      "శ్మీ": 3128,
      "మూస:": 3129,
      "र्दू": 3130,
      "censusindia.gov.in/2011": 3131,
      ".n": 3132,
      "7-0": 3133,
      "Asia": 3134,
      "if": 3135,
      "योग": 3136,
      "▁we": 3137,
      "▁ro": 3138,
      "▁[O": 3139,
      "](https://en.wikipedia.org/wiki/The": 3140,
      "read": 3141,
      "omin": 3142,
      "▁includ": 3143,
      "rah": 3144,
      "▁summit\")": 3145,
      "etail": 3146,
      "ing\\_": 3147,
      "▁caste": 3148,
      "ussia": 3149,
      "loy": 3150,
      "▁war": 3151,
      "ters": 3152,
      "1997": 3153,
      "_in_S": 3154,
      "▁2025": 3155,
      "rits": 3156,
      "ाद्वीप": 3157,
      "▁artic": 3158,
      "▁general": 3159,
      "▁[*India": 3160,
      "▁क्षेत्र\")": 3161,
      "▁\"Economy": 3162,
      "](https://en.wikipedia.org/wiki/Economy": 3163,
      "ivil": 3164,
      "्रीका": 3165,
      "गणना": 3166,
      ".indiatimes.com/": 3167,
      "-B": 3168,
      "6).": 3169,
      "_प": 3170,
      "_19": 3171,
      "cat": 3172,
      "f/": 3173,
      "द्वीप": 3174,
      "▁'": 3175,
      "city": 3176,
      "▁पार्ट": 3177,
      "inguis": 3178,
      "_सा": 3179,
      "▁*The": 3180,
      "▁संविधान": 3181,
      "▁थी": 3182,
      "EO": 3183,
      "WEO": 3184,
      "_V": 3185,
      "_11": 3186,
      "c=": 3187,
      "cord": 3188,
      "ect": 3189,
      "get": 3190,
      "nam": 3191,
      "vol": 3192,
      "ौद्ध": 3193,
      "▁$": 3194,
      "▁Union": 3195,
      "ann": 3196,
      "्रम": 3197,
      "tionary": 3198,
      "▁मे": 3199,
      "rain": 3200,
      "▁1.": 3201,
      "▁Times": 3202,
      "▁Reg": 3203,
      "पुरी": 3204,
      ".gov.in/": 3205,
      ".png": 3206,
      ")\n-": 3207,
      "_f": 3208,
      "ae": 3209,
      "lesh": 3210,
      "rganisation": 3211,
      "न](https://hi.wikipedia.org/wiki/": 3212,
      "नगर": 3213,
      "रेल": 3214,
      "శా": 3215,
      "ైనా": 3216,
      "▁j": 3217,
      "▁ध": 3218,
      "▁[ఇ": 3219,
      "▁[India": 3220,
      "▁[doi": 3221,
      "teen": 3222,
      "▁\"జ": 3223,
      "](https://en.wikipedia.org/wiki/O": 3224,
      "arna": 3225,
      "▁मार": 3226,
      "ooperation": 3227,
      "](https://te.wikipedia.org/wiki/ఇ": 3228,
      "](https://te.wikipedia.org/wiki/స": 3229,
      "atar": 3230,
      "िक्": 3231,
      "chool": 3232,
      "భారత_": 3233,
      "▁जून": 3234,
      "olk": 3235,
      "▁दिस": 3236,
      "राजस्थान": 3237,
      "▁BRICS": 3238,
      "_(India)": 3239,
      "రాజ": 3240,
      "లో](https://te.wikipedia.org/wiki/": 3241,
      "రిజ": 3242,
      "క్కు": 3243,
      "ండ్": 3244,
      "त्तरा": 3245,
      "जाति": 3246,
      "ow/": 3247,
      "धानमंत्र": 3248,
      "▁\"Doi": 3249,
      "](https://en.wikipedia.org/wiki/Doi": 3250,
      "ैदान": 3251,
      "▁खाना\")": 3252,
      "माणु": 3253,
      "స్కృతి": 3254,
      "▁(identifier)\"):[10.": 3255,
      "म्मू": 3256,
      "IMF": 3257,
      "leshow/": 3258,
      "▁[doi](https://en.wikipedia.org/wiki/Doi": 3259,
      "▁दिसम्बर": 3260,
      "▁[doi](https://en.wikipedia.org/wiki/Doi_(identifier)": 3261,
      "/S": 3262,
      "7/": 3263,
      "99": 3264,
      "▁time": 3265,
      "ini": 3266,
      "ered": 3267,
      "ारी": 3268,
      "▁incre": 3269,
      "▁Fe": 3270,
      "म्प": 3271,
      ".jpg/120px-": 3272,
      "स्कृति": 3273,
      "▁Commissioner": 3274,
      "32": 3275,
      "5–": 3276,
      "C).": 3277,
      "yan": 3278,
      "▁30": 3279,
      "▁und": 3280,
      "tel": 3281,
      "omas": 3282,
      "▁India.": 3283,
      "1950": 3284,
      "▁Sanskrit": 3285,
      "adh": 3286,
      "ung": 3287,
      "imalay": 3288,
      "▁इतिहास": 3289,
      "▁War": 3290,
      "doc": 3291,
      "bruary": 3292,
      ")\n\n##": 3293,
      "ublishing": 3294,
      "▁period": 3295,
      ".aspx": 3296,
      "4/": 3297,
      "Craven": 3298,
      "cms": 3299,
      "oy": 3300,
      "slam": 3301,
      "yayan": 3302,
      "▁ref": 3303,
      "▁rate": 3304,
      "tes": 3305,
      "tecture": 3306,
      "than": 3307,
      "](https://en.wikipedia.org/wiki/I": 3308,
      "19-9": 3309,
      "राठ": 3310,
      "▁sup": 3311,
      "logo": 3312,
      "▁modern": 3313,
      "cean": 3314,
      "ilg": 3315,
      "illion": 3316,
      "▁one": 3317,
      "▁Press](https://en.wikipedia.org/wiki/": 3318,
      "ultan": 3319,
      "521-80": 3320,
      "atsyayan": 3321,
      "ainting": 3322,
      "KulkeRothermund2004": 3323,
      "Hinduism": 3324,
      "_Island": 3325,
      "countries_by": 3326,
      "904-7": 3327,
      "ricket": 3328,
      "ujarat": 3329,
      "Craven1997": 3330,
      "521-80904-7": 3331,
      "&s": 3332,
      ".htm": 3333,
      "124": 3334,
      "LA": 3335,
      "bn": 3336,
      "ned": 3337,
      "tro": 3338,
      "वी": 3339,
      "स\")": 3340,
      "ैल": 3341,
      "ैंड": 3342,
      "ం?action=edit&redlink=1": 3343,
      "చే": 3344,
      "బా": 3345,
      "▁फ़रवरी": 3346,
      "▁[జ": 3347,
      "](https://hi.wikipedia.org/wiki/सं": 3348,
      "▁(eds.": 3349,
      "▁पह": 3350,
      "र्स": 3351,
      "र्जा": 3352,
      "](https://hi.wikipedia.org/wiki/भारतीय": 3353,
      "▁పా": 3354,
      "त्रि": 3355,
      "▁बना": 3356,
      "▁వా": 3357,
      "▁group": 3358,
      "ండు": 3359,
      "▁చూ": 3360,
      "త్వ": 3361,
      "र्वत": 3362,
      "ंडिया": 3363,
      "पात": 3364,
      "ప్రధాన": 3365,
      "▁తే": 3366,
      "mbol": 3367,
      "▁हिन्दी": 3368,
      "▁शासन": 3369,
      "वेबैक": 3370,
      "▁द्वारा": 3371,
      "inguistic": 3372,
      "▁मार्च": 3373,
      "minist": 3374,
      "निक": 3375,
      "फल": 3376,
      "हित": 3377,
      "▁0.": 3378,
      "\"):": 3379,
      "chin": 3380,
      "ताब्": 3381,
      "1990": 3382,
      "cond": 3383,
      "1162": 3384,
      "▁than": 3385,
      "▁northern": 3386,
      "▁[*The": 3387,
      ".ph": 3388,
      "duction": 3389,
      "2]](https://en.wikipedia.org/wiki/India#cite_note-FOOTNOTE": 3390,
      "Main": 3391,
      "_आ": 3392,
      "ahar": 3393,
      "jan": 3394,
      "m.nic.in/": 3395,
      "ncl": 3396,
      "rg": 3397,
      "vatsyayan": 3398,
      "way": 3399,
      "वार": 3400,
      "सभा": 3401,
      "०१": 3402,
      "▁am": 3403,
      "▁29": 3404,
      "▁emp": 3405,
      "▁end": 3406,
      "arge": 3407,
      "▁|\n\n": 3408,
      "astern": 3409,
      "▁such": 3410,
      "्ता:": 3411,
      "\n\nMain": 3412,
      "▁दृ": 3413,
      "▁प्रमुख": 3414,
      "▁later": 3415,
      "aksh": 3416,
      "▁there": 3417,
      "▁art": 3418,
      "](https://en.wikipedia.org/wiki/South_Asia": 3419,
      "-108": 3420,
      "-107-1": 3421,
      "CS1": 3422,
      "_BRICS": 3423,
      "athak": 3424,
      "ovember": 3425,
      "▁million": 3426,
      "-in-": 3427,
      "-lord": 3428,
      "19-88": 3429,
      "▁classical": 3430,
      "▁अगस्त": 3431,
      "ehru": 3432,
      "nclm.nic.in/": 3433,
      "vatsyayan-lord": 3434,
      "/auth": 3435,
      "98": 3436,
      "ee": 3437,
      "ealth": 3438,
      "site": 3439,
      "utt": 3440,
      "गा": 3441,
      "▁ट": 3442,
      "ar,": 3443,
      "▁(*": 3444,
      "olper": 3445,
      "▁2008": 3446,
      "akh": 3447,
      "▁1947": 3448,
      "ankar": 3449,
      "lobal": 3450,
      "olpert": 3451,
      "2–": 3452,
      "6–": 3453,
      "En": 3454,
      "JP": 3455,
      "_సా": 3456,
      "back": 3457,
      "ंट": 3458,
      "खंड": 3459,
      "खण्ड": 3460,
      "रू": 3461,
      "व्यवस्था": 3462,
      "हीं": 3463,
      "ुरु": 3464,
      "ुंबई": 3465,
      "ोम": 3466,
      "ौर": 3467,
      "ौद्योगिक": 3468,
      "ంప": 3469,
      "కో": 3470,
      "గణ": 3471,
      "దిన": 3472,
      "నై": 3473,
      "రీ": 3474,
      "▁या": 3475,
      "▁राष्ट्र": 3476,
      "▁\"చ": 3477,
      "arliament": 3478,
      "▁संग": 3479,
      "ould": 3480,
      "ict": 3481,
      "](https://te.wikipedia.org/wiki/జ": 3482,
      "ారం": 3483,
      "ammu": 3484,
      "_of_S": 3485,
      "नाडु": 3486,
      "▁जल": 3487,
      "▁Modern": 3488,
      "▁दर": 3489,
      "▁प्रति": 3490,
      "स्त्र": 3491,
      "upta": 3492,
      "▁క్రీ": 3493,
      "▁2004": 3494,
      "క్‌": 3495,
      "నికి": 3496,
      "ల్ల": 3497,
      "ంగీ": 3498,
      "▁సి": 3499,
      "osed": 3500,
      "▁Language": 3501,
      "_Centre": 3502,
      "](https://hi.wikipedia.org/wiki/भारत#cite_ref-FOOTNOTE": 3503,
      "నాభా": 3504,
      "▁हैं,": 3505,
      "జాబి": 3506,
      "किम": 3507,
      "पर्यटन": 3508,
      "Hindust": 3509,
      "ikh": 3510,
      "दीव": 3511,
      "▁[![](https://upload.wikimedia.org/wikipedia/commons/thumb/": 3512,
      "achal": 3513,
      "▁इसके": 3514,
      "पालिका": 3515,
      "▁శా": 3516,
      "▁భాష\")": 3517,
      "▁सिनेमा": 3518,
      "▁Environment": 3519,
      "బెంగ": 3520,
      "िक्षा": 3521,
      "महाद्वीप": 3522,
      "िक्किम": 3523,
      "▁February": 3524,
      "జాబితా": 3525,
      "93": 3526,
      "BC": 3527,
      "cul": 3528,
      "lor": 3529,
      "ner": 3530,
      "rar": 3531,
      "ras": 3532,
      "ua": 3533,
      "war": 3534,
      "ोष": 3535,
      "arly": 3536,
      "ed/": 3537,
      "▁सद": 3538,
      "▁(2018": 3539,
      "ouse": 3540,
      "▁south": 3541,
      "etra": 3542,
      "right": 3543,
      "atak": 3544,
      "urt": 3545,
      "▁mathe": 3546,
      "▁Per": 3547,
      "▁Pakistan": 3548,
      "istrar": 3549,
      "▁2019.": 3550,
      "olle": 3551,
      "▁दो": 3552,
      "ake": 3553,
      "owland": 3554,
      "▁2011.\n-": 3555,
      "MetcalfMetcalf2006),": 3556,
      "rowth": 3557,
      "▁who": 3558,
      "limate": 3559,
      "▁2018](https://en.wikipedia.org/wiki/India#CITEREF": 3560,
      "Harle1994": 3561,
      "धिकारिक": 3562,
      ".IN": 3563,
      "IA": 3564,
      "UN": 3565,
      "len": 3566,
      "lag": 3567,
      "nal": 3568,
      "rist": 3569,
      "ाम": 3570,
      "▁[ओ": 3571,
      "▁\"ओ": 3572,
      "rovis": 3573,
      "▁Min": 3574,
      "▁British": 3575,
      "▁बा": 3576,
      "_Sh": 3577,
      "▁K.": 3578,
      "hinese": 3579,
      "onstituent": 3580,
      "pura": 3581,
      "िल्ली": 3582,
      "WEO.IN": 3583,
      "IMFWEO.IN": 3584,
      "Ludden": 3585,
      "Qu": 3586,
      "_for": 3587,
      "tb": 3588,
      "tig": 3589,
      "-14": 3590,
      "▁14": 3591,
      "▁2013": 3592,
      "▁2017": 3593,
      "ild": 3594,
      "errit": 3595,
      "do-A": 3596,
      "▁प्राप्त": 3597,
      "-to-": 3598,
      "▁under": 3599,
      "Dikshit": 3600,
      "European": 3601,
      "Schwartzberg": 3602,
      "_देश": 3603,
      "can": 3604,
      "dones": 3605,
      "rm": 3606,
      "ria": 3607,
      "ura": 3608,
      "west": 3609,
      "लिस": 3610,
      "वीं": 3611,
      "शक": 3612,
      "स](https://hi.wikipedia.org/wiki/": 3613,
      "చల్": 3614,
      "యన్": 3615,
      "షు": 3616,
      "ూర్": 3617,
      "▁[m": 3618,
      "▁[చ": 3619,
      "▁[భారత": 3620,
      "▁[భారతీయ": 3621,
      "▁\"V": 3622,
      "](https://en.wikipedia.org/wiki/V": 3623,
      "arn": 3624,
      "esearch": 3625,
      "▁industry": 3626,
      "rative": 3627,
      "](https://te.wikipedia.org/wiki/ప": 3628,
      "](https://te.wikipedia.org/wiki/భారతీయ": 3629,
      "ార్ట": 3630,
      "ingdom": 3631,
      "ాలయ": 3632,
      "▁many": 3633,
      "state": 3634,
      "▁long": 3635,
      "▁large": 3636,
      "▁2003": 3637,
      "క్క": 3638,
      "▁వ్యవస్థ": 3639,
      "ast_Asia": 3640,
      "▁ము": 3641,
      "osi": 3642,
      "▁शा": 3643,
      "ండో": 3644,
      "िये": 3645,
      "ముంబ": 3646,
      "utra": 3647,
      "సిన": 3648,
      "avy": 3649,
      "ినల్": 3650,
      "ंग्रेस": 3651,
      "ద్ద": 3652,
      "▁ఉన్న": 3653,
      "ृत्य": 3654,
      "▁rule": 3655,
      "ूनिव": 3656,
      "పాకిస్తాన్": 3657,
      "ुख्य": 3658,
      "▁people": 3659,
      "ूरो": 3660,
      "ంధీ": 3661,
      "](https://hi.wikipedia.org/wiki/भारत_की_": 3662,
      "](https://hi.wikipedia.org/wiki/भारत_का_": 3663,
      "inistry_of_": 3664,
      "_संघ": 3665,
      "▁ఒక": 3666,
      "▁ఒరిజ": 3667,
      "▁युद्ध": 3668,
      "तेलु": 3669,
      "pecial:BookSources/978-81": 3670,
      "▁न्यायालय": 3671,
      "వంశం": 3672,
      "▁[पुरालेखित": 3673,
      "](https://en.wikipedia.org/wiki/Economy_of_": 3674,
      "धानमंत्री": 3675,
      "▁(eds.).": 3676,
      "▁తేదీ": 3677,
      "▁among": 3678,
      "DikshitSchwartzberg": 3679,
      "ార్టీ": 3680,
      "▁ఒరిజినల్": 3681,
      "DikshitSchwartzberg2023": 3682,
      "\"](https://books.google.com/books?id=": 3683,
      "-प": 3684,
      "-of": 3685,
      "2,": 3686,
      "aus": 3687,
      "ele": 3688,
      "िम": 3689,
      "िला": 3690,
      "▁[978": 3691,
      "▁[United": 3692,
      "tions": 3693,
      "▁Ac": 3694,
      "▁2015": 3695,
      "▁[\"C": 3696,
      "ssam": 3697,
      "erala": 3698,
      "▁union": 3699,
      "▁States": 3700,
      "ances": 3701,
      "Wikipedia": 3702,
      "%E0%A4%B": 3703,
      "▁कार्य": 3704,
      "545": 3705,
      "▁out": 3706,
      "religion": 3707,
      "ety": 3708,
      "uslim": 3709,
      "▁All": 3710,
      "▁2011.": 3711,
      "▁Bank": 3712,
      ".com/news/": 3713,
      "118": 3714,
      "▁[\"India": 3715,
      "▁original](https://www.": 3716,
      "हाय": 3717,
      "▁ext": 3718,
      "%2C_": 3719,
      "rown": 3720,
      "ervation": 3721,
      "▁2021.": 3722,
      "/articleshow/": 3723,
      "▁गणराज्य": 3724,
      "01": 3725,
      "3]](https://en.wikipedia.org/wiki/India#cite_note-FOOTNOTE": 3726,
      "7,": 3727,
      "_J": 3728,
      "languages": 3729,
      "rdu": 3730,
      "wal": 3731,
      "ङ्": 3732,
      "त्व": 3733,
      "लयाल": 3734,
      "▁em": 3735,
      "▁high": 3736,
      "pee": 3737,
      "▁\"India": 3738,
      "eral_": 3739,
      "alore": 3740,
      "2017": 3741,
      "rac": 3742,
      "rim": 3743,
      "▁Arab": 3744,
      "▁Afric": 3745,
      "achin": 3746,
      "angalore": 3747,
      "rol": 3748,
      "ताज": 3749,
      "▁economic": 3750,
      "ources": 3751,
      "_Summit": 3752,
      "2905": 3753,
      "key": 3754,
      "ineering": 3755,
      "arket": 3756,
      "ज्ञा": 3757,
      "ynast": 3758,
      "▁Islands": 3759,
      "ोर्ड": 3760,
      "▁Act,": 3761,
      "श्रील": 3762,
      "_in_South_Asia": 3763,
      "1162-2": 3764,
      "-107-11162-2": 3765,
      "19-882905": 3766,
      "erritory": 3767,
      "ast_Asia_Summit": 3768,
      "19-882905-8": 3769,
      ".fr": 3770,
      "6/": 3771,
      "_ए": 3772,
      "a-": 3773,
      "rd": 3774,
      "ymbol": 3775,
      "ंका": 3776,
      "कट": 3777,
      "गंगा": 3778,
      "देव": 3779,
      "भो": 3780,
      "र-": 3781,
      "शा": 3782,
      "हैद": 3783,
      "ीमा": 3784,
      "ूह": 3785,
      "జ్": 3786,
      "వరి": 3787,
      "శ్చ": 3788,
      "ిన్న": 3789,
      "ెల": 3790,
      "▁ओ": 3791,
      "tex": 3792,
      "▁\"ज": 3793,
      "▁\"భారతదేశ": 3794,
      "](https://hi.wikipedia.org/wiki/आ": 3795,
      "▁महासागर": 3796,
      "్రె": 3797,
      "राबाद": 3798,
      "र्ना": 3799,
      "▁अप्र": 3800,
      "_का_": 3801,
      "resident": 3802,
      "254": 3803,
      "▁नी": 3804,
      "24)": 3805,
      "1996": 3806,
      "నిస్తాన్": 3807,
      "▁మధ్య": 3808,
      "▁संबंध": 3809,
      "▁[Asher": 3810,
      "हिमा": 3811,
      "▁Kashmir": 3812,
      "त्तीस": 3813,
      "र्वो": 3814,
      "▁भाषाओं": 3815,
      "▁original](https://": 3816,
      "](https://te.wikipedia.org/wiki/భారతదేశంలో": 3817,
      "▁करने": 3818,
      "िरपे": 3819,
      "▁अन्त": 3820,
      "▁*[The": 3821,
      "▁ఉంది.": 3822,
      "▁ఉన్నాయి.": 3823,
      "वायु": 3824,
      "ीपी": 3825,
      "_New": 3826,
      "స్థాన్": 3827,
      "endra": 3828,
      "▁मेला\")": 3829,
      "▁हुए": 3830,
      "meric": 3831,
      "मेर": 3832,
      "▁పేజీ": 3833,
      "orities": 3834,
      "भीम": 3835,
      "మ్మూ": 3836,
      "▁[हिन्दी](https://hi.wikipedia.org/wiki/": 3837,
      "▁Assembly": 3838,
      "▁\"భారతదేశంలో": 3839,
      "▁చూసిన": 3840,
      "▁తేదీ:": 3841,
      "हैदराबाद": 3842,
      "శ్చి": 3843,
      "र्नाटक": 3844,
      "िरपेक्ष": 3845,
      "▁పేజీని": 3846,
      "71": 3847,
      "84": 3848,
      "II": 3849,
      "South": 3850,
      "economic": 3851,
      "ix": 3852,
      "भर": 3853,
      "▁/": 3854,
      "▁imp": 3855,
      "tition": 3856,
      "▁कुल": 3857,
      "ictionary": 3858,
      "▁some": 3859,
      "र्ष": 3860,
      "▁CE": 3861,
      "ulti": 3862,
      "ments": 3863,
      "▁बन": 3864,
      "▁Economic": 3865,
      "▁वार": 3866,
      "▁GDP": 3867,
      "▁शताब्": 3868,
      "प्रा": 3869,
      "ingham": 3870,
      "\"](https://web.archive.org/web/20160": 3871,
      "▁territory": 3872,
      "_Informatics": 3873,
      ".png)": 3874,
      "_Informatics_Centre": 3875,
      "300": 3876,
      "6]](https://en.wikipedia.org/wiki/India#cite_note-": 3877,
      "Spear": 3878,
      "che": 3879,
      "cted": 3880,
      "d/": 3881,
      "detail": 3882,
      "election": 3883,
      "fgh": 3884,
      "iri": 3885,
      "jpg": 3886,
      "k:": 3887,
      "pic": 3888,
      "yle": 3889,
      "zation": 3890,
      "भु": 3891,
      "▁ra": 3892,
      "▁he": 3893,
      "dian": 3894,
      "▁[19": 3895,
      "▁\"Oxford": 3896,
      "ines": 3897,
      "inance": 3898,
      "itary": 3899,
      "2015": 3900,
      "196": 3901,
      "▁social": 3902,
      "-15": 3903,
      "ada": 3904,
      "▁maj": 3905,
      "▁minister": 3906,
      "ility": 3907,
      "23)": 3908,
      "26)": 3909,
      "pecial:EditPage/": 3910,
      "▁her": 3911,
      "▁Nadu": 3912,
      "-317": 3913,
      "ainism": 3914,
      "▁...": 3915,
      "apan": 3916,
      ".gov/": 3917,
      "overe": 3918,
      "](https://mai.wikipedia.org/wiki/भारत": 3919,
      "ligence": 3920,
      "ohn": 3921,
      "/article": 3922,
      "Artic": 3923,
      "censusindia.gov.in/2011census": 3924,
      "▁article": 3925,
      "teenth": 3926,
      "telligence": 3927,
      "urton": 3928,
      "arnatak": 3929,
      "Spear1990": 3930,
      "fghan": 3931,
      "pecial:EditPage/Template:": 3932,
      "415": 3933,
      "6-0)": 3934,
      "7-0)": 3935,
      "_n": 3936,
      "a.": 3937,
      "e/": 3938,
      "भ्यता": 3939,
      "िख": 3940,
      "▁(1,": 3941,
      "ical_": 3942,
      "▁since": 3943,
      "र्ज": 3944,
      "roj": 3945,
      "▁R.": 3946,
      "▁Raj": 3947,
      "▁land": 3948,
      "▁India\").": 3949,
      "28)": 3950,
      "▁Nations": 3951,
      "▁3,": 3952,
      "...": 3953,
      ".svg/": 3954,
      "▁used": 3955,
      "0)": 3956,
      "119": 3957,
      "3),": 3958,
      "7_": 3959,
      "91": 3960,
      "94": 3961,
      "eb": 3962,
      "i,": 3963,
      "ihar": 3964,
      "jo": 3965,
      "press": 3966,
      "ंह": 3967,
      "इल": 3968,
      "गल": 3969,
      "गान": 3970,
      "झार": 3971,
      "तट": 3972,
      "मालय": 3973,
      "ल](https://hi.wikipedia.org/wiki/": 3974,
      "हन": 3975,
      "हरी": 3976,
      "िहार": 3977,
      "షన్": 3978,
      "హ్": 3979,
      "ెలు": 3980,
      "▁ऑ": 3981,
      "▁लेख": 3982,
      "▁history": 3983,
      "▁term": 3984,
      "▁[V": 3985,
      "▁[Oxford": 3986,
      "](https://hi.wikipedia.org/wiki/ओ": 3987,
      "reme": 3988,
      "▁they": 3989,
      "▁India*](https://books.google.com/books?id=": 3990,
      "](https://te.wikipedia.org/wiki/అ": 3991,
      "etary": 3992,
      "▁China": 3993,
      "▁केन्द्र": 3994,
      "▁ही": 3995,
      "▁होत": 3996,
      "ournal": 3997,
      "ियां": 3998,
      "▁नद": 3999,
      "▁नहीं": 4000,
      "▁से](http://www.": 4001,
      "రియా": 4002,
      "पुरा": 4003,
      "स्ला": 4004,
      "ains": 4005,
      "▁उद्य": 4006,
      "▁మార్": 4007,
      "▁है।[[": 4008,
      "▁संसद": 4009,
      "▁Official": 4010,
      "▁Wiki": 4011,
      ".jpg)\n-": 4012,
      "▁रहा": 4013,
      "ప్రపంచ": 4014,
      "विशेष:EditPage/": 4015,
      "▁मेला](https://hi.wikipedia.org/wiki/": 4016,
      "गणराज्य": 4017,
      "श्चिमी": 4018,
      "▁సంస్కృతి": 4019,
      "దీవ": 4020,
      "▁स्रोत/978-0-": 4021,
      "▁स्रोत/978-1": 4022,
      "](https://hi.wikipedia.org/wiki/विशेष:पुस्तक_स्रोत/978-0-": 4023,
      "](https://hi.wikipedia.org/wiki/विशेष:पुस्तक_स्रोत/978-1": 4024,
      "▁भूम": 4025,
      "_Development": 4026,
      "union_territ": 4027,
      "▁चुनाव": 4028,
      "रेलू": 4029,
      "▁[पुरालेखित](https://web.archive.org/web/201": 4030,
      "र्वोच्च": 4031,
      "विशेष:EditPage/साँचा:": 4032,
      "-India": 4033,
      "1-0": 4034,
      "63": 4035,
      "UCN": 4036,
      "_उ": 4037,
      "az": 4038,
      "ov": 4039,
      "owe": 4040,
      "olog": 4041,
      "work": 4042,
      "अन": 4043,
      "फ्रीका": 4044,
      "।\n\n": 4045,
      "१९": 4046,
      "▁ci": 4047,
      "▁oc": 4048,
      "orest": 4049,
      "▁\"United": 4050,
      "▁\"History": 4051,
      "\")[[": 4052,
      "](https://en.wikipedia.org/wiki/History": 4053,
      "19-5": 4054,
      "1970": 4055,
      "▁Cons": 4056,
      "agar": 4057,
      "▁SAARC": 4058,
      "▁found": 4059,
      "▁trans": 4060,
      "▁both": 4061,
      "urban": 4062,
      "rote": 4063,
      "▁largest": 4064,
      "industry": 4065,
      "▁India\")\n\n": 4066,
      "ly,": 4067,
      "▁General": 4068,
      "▁आधिकारिक": 4069,
      "verse": 4070,
      "▁2026": 4071,
      "_Pradesh": 4072,
      "▁संस्कृति": 4073,
      "](https://en.wikipedia.org/wiki/South": 4074,
      "_Temple": 4075,
      "riculture": 4076,
      "▁जनगणना": 4077,
      "reek": 4078,
      "करण": 4079,
      "ography": 4080,
      "_at_the": 4081,
      "▁play": 4082,
      "▁world's": 4083,
      "▁2006](https://en.wikipedia.org/wiki/India#CITEREFMetcalfMetcalf2006),": 4084,
      "▁article:": 4085,
      "fghanistan": 4086,
      "▁occ": 4087,
      "3TR": 4088,
      "5-0)": 4089,
      "Ag": 4090,
      "RL": 4091,
      "[![](https://upload.wikimedia.org/wikipedia/commons/thumb/": 4092,
      "_en": 4093,
      "ao": 4094,
      "oa": 4095,
      "▁1998": 4096,
      "▁[सा": 4097,
      "ins": 4098,
      "rature": 4099,
      "▁Al": 4100,
      "url": 4101,
      "ISO": 4102,
      "india-g": 4103,
      "▁2005": 4104,
      "▁गा": 4105,
      "imf": 4106,
      "harm": 4107,
      "ffer": 4108,
      "ffice": 4109,
      "▁left": 4110,
      "▁2021.\n": 4111,
      "pring": 4112,
      "3TRt": 4113,
      "127": 4114,
      "9).": 4115,
      "bank": 4116,
      "itt": 4117,
      "stitu": 4118,
      "हरा": 4119,
      "ancy": 4120,
      "its": 4121,
      "▁(20": 4122,
      "onsoon": 4123,
      "243": 4124,
      "▁north": 4125,
      "▁Fr": 4126,
      "own": 4127,
      "▁status": 4128,
      "-india-": 4129,
      "▁\"हिन्दी\")": 4130,
      "formation": 4131,
      "ociety": 4132,
      ".aspx?": 4133,
      "-विज्ञान": 4134,
      "110": 4135,
      "4-108": 4136,
      "6]](https://en.wikipedia.org/wiki/India#cite_note-FOOTNOTE": 4137,
      "Robb": 4138,
      "Sharma": 4139,
      "_व": 4140,
      "_వ": 4141,
      "britannica": 4142,
      "gram": 4143,
      "hang": 4144,
      "ili": 4145,
      "lack": 4146,
      "ning": 4147,
      "ris": 4148,
      "sur": 4149,
      "ंच": 4150,
      "ईरा": 4151,
      "छत्तीस": 4152,
      "पक": 4153,
      "लग": 4154,
      "सून": 4155,
      "िंध": 4156,
      "ीच": 4157,
      "ोस": 4158,
      "ం\"),": 4159,
      "ంత్రి": 4160,
      "ఆఫ్": 4161,
      "కత": 4162,
      "కై": 4163,
      "క్య": 4164,
      "దాయ": 4165,
      "రే": 4166,
      "లంక": 4167,
      "వీ": 4168,
      "శ్రీ": 4169,
      "షి": 4170,
      "సు": 4171,
      "▁ఏ": 4172,
      "▁2.": 4173,
      "oral": 4174,
      "](Category:": 4175,
      "▁[च": 4176,
      "▁[సి": 4177,
      "▁\"ल": 4178,
      "tice": 4179,
      "ess/": 4180,
      "▁कई": 4181,
      "▁कश्मीर": 4182,
      "▁सैन": 4183,
      "▁(India": 4184,
      "▁मैदान": 4185,
      "▁पर्वत": 4186,
      "](https://te.wikipedia.org/wiki/చ": 4187,
      "▁Company": 4188,
      "▁Summit\")": 4189,
      "los": 4190,
      "▁member": 4191,
      "road": 4192,
      "states": 4193,
      "స్సా": 4194,
      "वित": 4195,
      "▁పరి": 4196,
      "▁పార్టీ": 4197,
      "▁दि": 4198,
      "_का": 4199,
      "న్‌": 4200,
      "emale": 4201,
      "▁Bengal": 4202,
      "▁बीच": 4203,
      "25)": 4204,
      "▁Delhi": 4205,
      "▁से](http://": 4206,
      "न्दिर": 4207,
      "क्षा": 4208,
      "▁కు": 4209,
      "▁Gandhi": 4210,
      "ryan": 4211,
      "▁వచ్చ": 4212,
      "▁गु": 4213,
      "▁उत्पाद": 4214,
      "epal": 4215,
      "▁\"Category:": 4216,
      "_मंदिर": 4217,
      "लेट": 4218,
      "▁इन": 4219,
      "ముద్ర": 4220,
      "▁began": 4221,
      "िस्ट": 4222,
      "▁करोड़": 4223,
      "ock": 4224,
      "▁अनु": 4225,
      "▁[अंग्रेज़": 4226,
      "केर": 4227,
      "uddhism": 4228,
      "ibet": 4229,
      "engali": 4230,
      "▁\"National": 4231,
      "_Empire": 4232,
      "ultural": 4233,
      "viol": 4234,
      "గాంధీ": 4235,
      "▁राजनी": 4236,
      "▁\"पंजाब": 4237,
      "र्थव्यवस्था": 4238,
      "ducation": 4239,
      "నేపాల": 4240,
      "▁[पंजाब": 4241,
      "qual": 4242,
      "Oxford_University_Press": 4243,
      "Stein2010),": 4244,
      "usiness/": 4245,
      "▁होता": 4246,
      "ब्ब": 4247,
      "▁जिसमें": 4248,
      "▁పేరు": 4249,
      "హిందీ": 4250,
      "▁Empire\")": 4251,
      "▁कारण": 4252,
      "074-108": 4253,
      "_मेला?action=edit&redlink=1": 4254,
      "▁చెయ్య": 4255,
      "esert": 4256,
      "गोआ": 4257,
      "▁కూడా": 4258,
      "▁2010](https://en.wikipedia.org/wiki/India#CITEREFStein2010),": 4259,
      "-78074-108": 4260,
      "yanmar": 4261,
      "▁Press](https://en.wikipedia.org/wiki/Oxford_University_Press": 4262,
      "ultanate": 4263,
      "र्सिट": 4264,
      "ministrative": 4265,
      "rgani": 4266,
      "ంగీతం": 4267,
      "ముంబై": 4268,
      "ूनिवर्सिट": 4269,
      "श्रीलंका": 4270,
      "శ్చిమ": 4271,
      "Articles\\_": 4272,
      "▁మార్గ": 4273,
      "britannica.com/": 4274,
      "gramme": 4275,
      "▁[अंग्रेज़ी](https://hi.wikipedia.org/wiki/अ": 4276,
      "▁చెయ్యబడ": 4277,
      "-78074-108-6": 4278,
      "/India": 4279,
      "130": 4280,
      "54": 4281,
      "Pages": 4282,
      "_2": 4283,
      "ities": 4284,
      "ling": 4285,
      "मो": 4286,
      "hief": 4287,
      "भारत)": 4288,
      "itz": 4289,
      "lect": 4290,
      "▁Science": 4291,
      "▁12": 4292,
      "ement": 4293,
      "▁David": 4294,
      "akhand": 4295,
      "ubcontinent": 4296,
      "epart": 4297,
      "ंग्रेजी": 4298,
      "▁पुरा": 4299,
      "▁Valley": 4300,
      "▁वर्ग": 4301,
      "olden": 4302,
      "-largest": 4303,
      "-language\\_": 4304,
      "▁शताब्दी": 4305,
      "Pages\\_": 4306,
      "epartment": 4307,
      ".world": 4308,
      "1-1": 4309,
      "8-0)": 4310,
      "Report": 4311,
      "eval": 4312,
      "तन्त": 4313,
      "पान": 4314,
      "बा": 4315,
      "▁50": 4316,
      "aran": 4317,
      "▁power": 4318,
      "▁C.": 4319,
      "▁Con": 4320,
      "local": 4321,
      "▁made": 4322,
      "▁Pl": 4323,
      "▁अव": 4324,
      "▁total": 4325,
      "स्थ": 4326,
      "def": 4327,
      "_Delhi": 4328,
      "▁depend": 4329,
      "▁स्था": 4330,
      "▁उपमहाद्वीप": 4331,
      "edieval": 4332,
      "National_Informatics_Centre": 4333,
      "तन्त्र": 4334,
      "National_Informatics_Centre2005": 4335,
      "-C": 4336,
      ".bn": 4337,
      "_g": 4338,
      "_द": 4339,
      "af": 4340,
      "be": 4341,
      "ho": 4342,
      "ie": 4343,
      "pres": 4344,
      "थिल": 4345,
      "वास": 4346,
      "ैथिल": 4347,
      "▁।": 4348,
      "▁[दक्षिण": 4349,
      "▁\"दक्षिण": 4350,
      "anor": 4351,
      "thnic": 4352,
      "eries": 4353,
      "arl": 4354,
      "aria": 4355,
      "aldi": 4356,
      "cip": 4357,
      "icha": 4358,
      "▁मुख्य": 4359,
      "▁sp": 4360,
      "▁prime": 4361,
      "ament": 4362,
      "lowing": 4363,
      "003": 4364,
      "▁app": 4365,
      "▁Be": 4366,
      "253": 4367,
      "105": 4368,
      "sian": 4369,
      "▁relations": 4370,
      "▁From": 4371,
      ".[[3": 4372,
      "ots": 4373,
      "otals": 4374,
      "undament": 4375,
      "ommonwealth": 4376,
      "order": 4377,
      "_East_Asia_Summit": 4378,
      "rough": 4379,
      "](https://en.wikipedia.org/wiki/List_of_countries_by": 4380,
      "histor": 4381,
      "AARC_summit": 4382,
      "▁lead": 4383,
      "/cb": 4384,
      "maputra": 4385,
      "flu": 4386,
      "rishna": 4387,
      "▁York": 4388,
      "emocracy": 4389,
      "rahmaputra": 4390,
      "rovisional": 4391,
      "do-Aryan": 4392,
      "▁(India)\")": 4393,
      "rganization": 4394,
      "aldives": 4395,
      "ichael": 4396,
      "5%": 4397,
      "72": 4398,
      "9,": 4399,
      "_इ": 4400,
      "glia": 4401,
      "ks": 4402,
      "known": 4403,
      "ser": 4404,
      "ंत": 4405,
      "पि": 4406,
      "मर": 4407,
      "वल": 4408,
      "शीन": 4409,
      "ीगढ़": 4410,
      "ॉक": 4411,
      "గర": 4412,
      "టక": 4413,
      "టా": 4414,
      "దార": 4415,
      "నీ": 4416,
      "రో": 4417,
      "సభ": 4418,
      "ెద్ద": 4419,
      "▁[वि": 4420,
      "enn": 4421,
      "▁\"च": 4422,
      "▁\"సి": 4423,
      "](https://hi.wikipedia.org/wiki/च": 4424,
      "](https://hi.wikipedia.org/wiki/ल": 4425,
      "▁कु": 4426,
      "ret": 4427,
      "▁स्त": 4428,
      "▁सभा": 4429,
      "▁सूचना": 4430,
      "as,": 4431,
      "▁मध्य": 4432,
      "](https://te.wikipedia.org/wiki/భారత_": 4433,
      "ानव": 4434,
      "ams": 4435,
      "urn": 4436,
      "ालदीव": 4437,
      "▁जी": 4438,
      "▁పు": 4439,
      "▁Mon": 4440,
      "▁द्वीप": 4441,
      "▁दशक": 4442,
      "ेशन": 4443,
      "ेशिया": 4444,
      "emon": 4445,
      "▁D.": 4446,
      "రాజ్య": 4447,
      "षाण": 4448,
      "क्षर": 4449,
      "▁కేంద్రపాలిత": 4450,
      "-30": 4451,
      "elang": 4452,
      "▁మా": 4453,
      "काश": 4454,
      "▁शक्ति": 4455,
      "▁शिक्षा": 4456,
      "▁చే": 4457,
      "ము\")": 4458,
      "त्तरी": 4459,
      "త్స": 4460,
      "ंडीगढ़": 4461,
      "▁రాజ్య": 4462,
      "▁लोग": 4463,
      "▁क्षेत्रीय": 4464,
      "▁area": 4465,
      "వాతంత్ర": 4466,
      "ivis": 4467,
      "जनसंख्या": 4468,
      "▁जनसंख्या": 4469,
      "▁దేశాల": 4470,
      "లాదేశ్": 4471,
      "]](https://hi.wikipedia.org/wiki/भारत#cite_note-FOOTNOTEStein1998": 4472,
      "]](https://hi.wikipedia.org/wiki/भारत#cite_note-FOOTNOTESingh2009": 4473,
      "స్తు": 4474,
      "▁సామ్రాజ్యం](https://te.wikipedia.org/wiki/": 4475,
      "ంగ్లాదేశ్": 4476,
      "▁భాషలు": 4477,
      "मुख्य": 4478,
      "_ప్రా": 4479,
      "fication": 4480,
      "▁estim": 4481,
      "్రిటి": 4482,
      "▁అధికార": 4483,
      "त्तराखण्ड": 4484,
      "etraglia": 4485,
      "ూర్పు": 4486,
      "▁अप्रैल": 4487,
      "हिमाचल": 4488,
      "▁लेख:": 4489,
      "3TRtDwAAQBAJ&pg=PA": 4490,
      "కైవు": 4491,
      "9-0)": 4492,
      "cess": 4493,
      "i-": 4494,
      "vid": 4495,
      "गू": 4496,
      "टान": 4497,
      "तृत": 4498,
      "मु": 4499,
      "श्य": 4500,
      "▁ed.).": 4501,
      "▁[c": 4502,
      "▁\"तमिल": 4503,
      "on,": 4504,
      "▁(2006": 4505,
      "ing_": 4506,
      "▁country": 4507,
      "▁Sec": 4508,
      "▁Publishing": 4509,
      "_of_C": 4510,
      "▁Tamil": 4511,
      ".\n13": 4512,
      "▁Di": 4513,
      "▁Ex": 4514,
      "▁Himalay": 4515,
      "ounci": 4516,
      "](https://web.archive.org/web/200": 4517,
      "imachal": 4518,
      "▁लोक": 4519,
      "▁राज्य\")": 4520,
      "ोलन": 4521,
      "▁Press,": 4522,
      "apita": 4523,
      "ustralia": 4524,
      "document": 4525,
      "*)": 4526,
      "-and": 4527,
      "129": 4528,
      "3/": 4529,
      "7]](https://en.wikipedia.org/wiki/India#cite_note-FOOTNOTE": 4530,
      "IJ": 4531,
      "NGDP": 4532,
      "Rowland": 4533,
      "Un": 4534,
      "_with": 4535,
      "aur": 4536,
      "garh": 4537,
      "kar": 4538,
      "lance": 4539,
      "rid": 4540,
      "को": 4541,
      "८५": 4542,
      "▁his": 4543,
      "orce": 4544,
      "ortheast": 4545,
      "▁[p": 4546,
      "▁[पाकिस्तान": 4547,
      "▁\"[": 4548,
      "▁\"पाकिस्तान": 4549,
      "aries": 4550,
      "ared/": 4551,
      "20)": 4552,
      "icon": 4553,
      "▁मो": 4554,
      "leg": 4555,
      "rig": 4556,
      "-135": 4557,
      "▁co": 4558,
      "ages/": 4559,
      "▁mar": 4560,
      "▁movement": 4561,
      "▁11": 4562,
      "linkim": 4563,
      "olon": 4564,
      "00)": 4565,
      "▁River": 4566,
      "aylor": 4567,
      "▁economy": 4568,
      "▁Ge": 4569,
      "shared/": 4570,
      "force": 4571,
      "abha": 4572,
      "](https://en.wikipedia.org/wiki/India#CITEREFB": 4573,
      "asting": 4574,
      "▁non-": 4575,
      "▁[\"The": 4576,
      "udi": 4577,
      "ummer": 4578,
      "overty": 4579,
      "ternal": 4580,
      "ूर्वी": 4581,
      "operation": 4582,
      "do-P": 4583,
      "▁tex": 4584,
      "\")*,": 4585,
      ".svg.png)": 4586,
      "hola": 4587,
      "-lead": 4588,
      "nclm.nic.in/shared/": 4589,
      "donesia": 4590,
      "india-glance": 4591,
      "Rowland1970": 4592,
      "linkimages/": 4593,
      "nclm.nic.in/shared/linkimages/": 4594,
      "india-glance/": 4595,
      "-22": 4596,
      "/P": 4597,
      "53": 4598,
      "QAAQBAJ&pg=PA": 4599,
      "dr": 4600,
      "rof": 4601,
      "▁ले": 4602,
      "arath": 4603,
      "ominal": 4604,
      "educ": 4605,
      "asing": 4606,
      "\\_देश": 4607,
      "vel": 4608,
      "urch": 4609,
      "▁Republic": 4610,
      "▁Linguistic": 4611,
      ".html)": 4612,
      "education": 4613,
      "\"[[": 4614,
      "-S": 4615,
      "-n": 4616,
      "-with": 4617,
      ".ni": 4618,
      "/D": 4619,
      "1-3": 4620,
      "DD": 4621,
      "Wolpert": 4622,
      "_राज": 4623,
      "ey": 4624,
      "eligion": 4625,
      "iz": 4626,
      "public": 4627,
      "rial": 4628,
      "uth": 4629,
      "y,": 4630,
      "गत": 4631,
      "धा": 4632,
      "बी": 4633,
      "म\")": 4634,
      "षय": 4635,
      "िनेमा": 4636,
      "ृद्ध": 4637,
      "ంజా": 4638,
      "గి": 4639,
      "టీ": 4640,
      "టాన్": 4641,
      "మంత్రి": 4642,
      "లను": 4643,
      "వె": 4644,
      "వరణ": 4645,
      "హదార": 4646,
      "ూచ": 4647,
      "▁హ": 4648,
      "▁భారతదేశ": 4649,
      ".org": 4650,
      "▁[4": 4651,
      "arli": 4652,
      "isc": 4653,
      "them": 4654,
      "omes": 4655,
      "▁सक": 4656,
      "्यों": 4657,
      "్రమ": 4658,
      "-16": 4659,
      "\n\nमुख्य": 4660,
      "▁P.": 4661,
      "▁Public": 4662,
      "tical_": 4663,
      "्वतंत्रता": 4664,
      "▁प्रेस": 4665,
      "▁प्रौद्योगिक": 4666,
      "భారతదేశ_": 4667,
      "▁व्य": 4668,
      "▁కొ": 4669,
      "-3)": 4670,
      "▁వ్యా": 4671,
      "▁new": 4672,
      "▁J.": 4673,
      "▁మత": 4674,
      "▁మతము": 4675,
      "good": 4676,
      "▁शु": 4677,
      "ियार": 4678,
      "తావరణ": 4679,
      "నాడు": 4680,
      "▁लग": 4681,
      "परमाणु": 4682,
      "ेली": 4683,
      "▁[National": 4684,
      "▁life": 4685,
      "▁राजवंश": 4686,
      "▁जाती": 4687,
      "ज्ज": 4688,
      "▁ఇతర": 4689,
      "▁स्थान": 4690,
      "ాయి": 4691,
      "ణాసియా": 4692,
      "▁प्राचीन": 4693,
      "ship": 4694,
      "▁धर्म\")": 4695,
      "▁था।": 4696,
      "ांग्लादेश": 4697,
      "టెడ్": 4698,
      "▁ఆర్కైవు": 4699,
      "cript": 4700,
      "▁రైలు": 4701,
      "భూటాన్": 4702,
      "pectancy": 4703,
      "▁पहले": 4704,
      "_సామ్రాజ్యం": 4705,
      "ildlife": 4706,
      "▁[हिन्दी](https://hi.wikipedia.org/wiki/हिन्दी": 4707,
      "▁चुनावों": 4708,
      "pringer": 4709,
      "▁सैन्य": 4710,
      "వాతంత్ర్య": 4711,
      "Wolpert2003": 4712,
      "122": 4713,
      "2]](https://en.wikipedia.org/wiki/India#cite_note-": 4714,
      "2-4": 4715,
      "All": 4716,
      "Gua": 4717,
      "JIJ": 4718,
      "Zva": 4719,
      "ez": 4720,
      "lurton": 4721,
      "mal": 4722,
      "rust": 4723,
      "s_of_India": 4724,
      "t-": 4725,
      "ving": 4726,
      "ward": 4727,
      "ym": 4728,
      "इन": 4729,
      "▁urban": 4730,
      "▁[ड": 4731,
      "ency": 4732,
      "onom": 4733,
      "](https://en.wikipedia.org/wiki/United": 4734,
      "erry": 4735,
      "arendra": 4736,
      "▁them": 4737,
      "icob": 4738,
      "▁India](https://en.wikipedia.org/wiki/G": 4739,
      "▁influ": 4740,
      "rat": 4741,
      "ravi": 4742,
      "▁summit": 4743,
      "-00": 4744,
      "▁pre": 4745,
      "▁painting": 4746,
      "ature": 4747,
      "▁Affairs": 4748,
      "▁S.": 4749,
      "lief": 4750,
      "lopedia": 4751,
      "▁western": 4752,
      "▁dire": 4753,
      "21)": 4754,
      "-0)\n": 4755,
      "nium": 4756,
      "▁भारत\")": 4757,
      "▁Data": 4758,
      "ayback": 4759,
      "▁eastern": 4760,
      "▁Europe": 4761,
      "▁आर्थिक": 4762,
      "▁1960": 4763,
      "▁[\"A": 4764,
      "uduch": 4765,
      "▁gre": 4766,
      "▁Lank": 4767,
      "-90": 4768,
      "▁Kingdom": 4769,
      "▁[↑](https://en.wikipedia.org/wiki/India#cite_ref-FOOTNOTEMetcalfMetcalf2006": 4770,
      "avi": 4771,
      "_Nadu": 4772,
      "▁नेतृत": 4773,
      "ext": 4774,
      "ikkim": 4775,
      "▁जनवरी": 4776,
      "ports": 4777,
      "general_": 4778,
      "amil_Nadu": 4779,
      "▁२०१": 4780,
      "▁contrib": 4781,
      "_Indian_general_": 4782,
      "▁dispu": 4783,
      "%7C": 4784,
      "%7c": 4785,
      "cyclopedia": 4786,
      "volution": 4787,
      "▁employ": 4788,
      "quality": 4789,
      "GuaJIJ": 4790,
      "ZvaGuaJIJ": 4791,
      "uducherry": 4792,
      "_Indian_general_election": 4793,
      "ZvaGuaJIJgo": 4794,
      "-50": 4795,
      "-29": 4796,
      "/ark": 4797,
      "0–": 4798,
      "320": 4799,
      "9–": 4800,
      "CL": 4801,
      "Vu": 4802,
      "ZVu": 4803,
      "_on": 4804,
      "_24": 4805,
      "bc": 4806,
      "f.fr": 4807,
      "kZVu": 4808,
      "lm": 4809,
      "उप": 4810,
      "रि": 4811,
      ":/121": 4812,
      "208": 4813,
      "्यान": 4814,
      "lem": 4815,
      "198": 4816,
      "ripura": 4817,
      "217": 4818,
      "भाज": 4819,
      "akes": 4820,
      "ड़िया": 4821,
      "anipur": 4822,
      "48/cb": 4823,
      "actbook": 4824,
      "▁स्थित": 4825,
      "cyclop": 4826,
      "Uttarakhand": 4827,
      "ूर्ण": 4828,
      "▁Minorities": 4829,
      "▁स्थाप": 4830,
      ".bnf.fr": 4831,
      "/ark:/121": 4832,
      ".bnf.fr/ark:/121": 4833,
      ".bnf.fr/ark:/12148/cb": 4834,
      "-on-": 4835,
      "3-8": 4836,
      "NA": 4837,
      "gra": 4838,
      "hra": 4839,
      "ii": 4840,
      "फा": 4841,
      "ाटी": 4842,
      "tered": 4843,
      "reed": 4844,
      "-06": 4845,
      "▁culture": 4846,
      "▁Centre": 4847,
      "▁billion": 4848,
      "ource": 4849,
      "ाले": 4850,
      "▁Government": 4851,
      "▁Indus": 4852,
      "▁Ocean": 4853,
      "ogue": 4854,
      "MetcalfMetcalf2012": 4855,
      "▁2,": 4856,
      "▁right": 4857,
      "8/8": 4858,
      "duct": 4859,
      "urrent": 4860,
      ".html).": 4861,
      "cording": 4862,
      "omestic": 4863,
      "4]](https://en.wikipedia.org/wiki/India#cite_note-": 4864,
      "5]](https://en.wikipedia.org/wiki/India#cite_note-FOOTNOTE": 4865,
      "Kashmir": 4866,
      "Provisional": 4867,
      "SAARC_summit": 4868,
      "_घ": 4869,
      "ate_": 4870,
      "aut": 4871,
      "each": 4872,
      "hat": 4873,
      "hrist": 4874,
      "lood": 4875,
      "mrits": 4876,
      "oard": 4877,
      "ple": 4878,
      "y-": 4879,
      "yer": 4880,
      "yam": 4881,
      "ंति": 4882,
      "अभि": 4883,
      "क्": 4884,
      "खन": 4885,
      "ग्व": 4886,
      "च्": 4887,
      "जं": 4888,
      "दार": 4889,
      "धन": 4890,
      "पद": 4891,
      "फोर्ड": 4892,
      "ब्ल": 4893,
      "बेट": 4894,
      "यत": 4895,
      "लों": 4896,
      "ैंक": 4897,
      "ॉल": 4898,
      "ॉंग्रेस": 4899,
      "ौसेना": 4900,
      "२००": 4901,
      "ం.": 4902,
      "ంశ": 4903,
      "ఆర్": 4904,
      "ఉత్తర": 4905,
      "ఒడి": 4906,
      "కీయ": 4907,
      "గలు": 4908,
      "చు": 4909,
      "జరా": 4910,
      "తూర్పు": 4911,
      "ది.": 4912,
      "భు": 4913,
      "మన్": 4914,
      "యి": 4915,
      "లస": 4916,
      "ీన": 4917,
      "ేక": 4918,
      "▁·": 4919,
      "▁డ": 4920,
      "▁im": 4921,
      "▁ईसा": 4922,
      "▁జాబితా": 4923,
      "iam": 4924,
      "ors": 4925,
      "▁[ग": 4926,
      "▁[ल": 4927,
      "▁[భారతదేశ": 4928,
      "hib": 4929,
      "alam": 4930,
      "ally": 4931,
      "esti": 4932,
      "](https://hi.wikipedia.org/wiki/न": 4933,
      "](https://hi.wikipedia.org/wiki/पाकिस्तान": 4934,
      "▁साल": 4935,
      "▁मौ": 4936,
      "ootb": 4937,
      "raz": 4938,
      "राम": 4939,
      "](https://hi.wikipedia.org/wiki/भारत_के": 4940,
      "▁far": 4941,
      "[[14": 4942,
      "ver,": 4943,
      "ists": 4944,
      "ular": 4945,
      "uled": 4946,
      "hell": 4947,
      "▁2014.": 4948,
      "▁women": 4949,
      "▁పట్ట": 4950,
      "_की_": 4951,
      "ర్\")": 4952,
      "▁**జాతీయ": 4953,
      "ema": 4954,
      "ंगाना": 4955,
      "▁Gu": 4956,
      "▁November": 4957,
      "▁Nehru": 4958,
      "architecture": 4959,
      "నిక": 4960,
      "isha": 4961,
      "▁1965": 4962,
      "ంగ్రె": 4963,
      "ड़ियाँ": 4964,
      "▁సభ": 4965,
      "▁उन": 4966,
      "▁forest": 4967,
      "काता": 4968,
      "ecu": 4969,
      "▁विस्त": 4970,
      "▁विदेश": 4971,
      "▁इंडिया": 4972,
      "తాబ్": 4973,
      "law": 4974,
      "ी](https://hi.wikipedia.org/wiki/द": 4975,
      "aves": 4976,
      "ंडोन": 4977,
      "arty": 4978,
      "▁राज्यक्षेत्र": 4979,
      "▁ప్రపంచ": 4980,
      "▁ప్రభు": 4981,
      "oreign": 4982,
      "ोलकाता": 4983,
      "iley": 4984,
      "▁क्षेत्रों": 4985,
      "ंध्र": 4986,
      "▁ఆసియా": 4987,
      "▁\"अंग्रेज़ी": 4988,
      "केन्द्र": 4989,
      "▁[Government": 4990,
      "▁देश\")": 4991,
      "మ్రాజ్య": 4992,
      "▁[![A": 4993,
      "](https://en.wikipedia.org/wiki/National": 4994,
      "हरिया": 4995,
      "](https://en.wikipedia.org/wiki/List_of_SAARC_summit": 4996,
      "पुरम": 4997,
      "िशा": 4998,
      "▁मेला\"),": 4999,
      "ंग्रेज़ी_भाषा": 5000,
      "timesofindia": 5001,
      "గుజరా": 5002,
      "▁second": 5003,
      "▁technology": 5004,
      "ष्ण": 5005,
      "▁regions": 5006,
      "ashmiri": 5007,
      "समिया": 5008,
      "न्नई": 5009,
      "▁సామ్రాజ్యం\")": 5010,
      "▁Hinduism": 5011,
      "ancis": 5012,
      "बंधन": 5013,
      "awahar": 5014,
      "▁पुरालेखित।,": 5015,
      "▁मानसून": 5016,
      "త్యేక": 5017,
      "రాష్ట్రపతి": 5018,
      "kingdom": 5019,
      "ప్ప": 5020,
      "_और_संघ": 5021,
      "▁కాశ్మీ": 5022,
      "▁రాజవంశం": 5023,
      "▁युग": 5024,
      "▁स्वतंत्रता": 5025,
      "तेलंगाना": 5026,
      "रक्षा": 5027,
      "_के_आधार_पर_भारत_के_राज्यों_की_सूची": 5028,
      "चेन्नई": 5029,
      "▁చెంద": 5030,
      "▁ఆర్ధిక": 5031,
      "eserve": 5032,
      "%20%20%20%20": 5033,
      "क्सफोर्ड": 5034,
      "▁बहुत": 5035,
      "पीठ": 5036,
      "▁స్థాన": 5037,
      "▁निर्माण": 5038,
      "hasha": 5039,
      "धिराज्य": 5040,
      "తమిళనాడు": 5041,
      "-4020": 5042,
      "omason": 5043,
      "_Islands": 5044,
      "त्रिपुरा": 5045,
      "▁groups": 5046,
      "ప్రధానమంత్రి": 5047,
      "_BRICS_summit": 5048,
      "గణతంత్ర": 5049,
      "▁క్రీడ": 5050,
      "▁Persian": 5051,
      "तेलुगू": 5052,
      "ज्ञापक": 5053,
      "ymbols": 5054,
      "▁ओर": 5055,
      "भीमबेट": 5056,
      "overeign": 5057,
      "झारखंड": 5058,
      "छत्तीसगढ़": 5059,
      "िंधु": 5060,
      "ఆఫ్ఘ": 5061,
      "శ్రీలంక": 5062,
      "షియా": 5063,
      "న్‌ఫ": 5064,
      "నేపాల్": 5065,
      "ब्बत": 5066,
      "▁[अंग्रेज़ी](https://hi.wikipedia.org/wiki/अंग्रेज़ी_भाषा": 5067,
      "▁చెయ్యబడింది.": 5068,
      "▁कुछ": 5069,
      "icobar": 5070,
      "▁summits\")": 5071,
      "ZvaGuaJIJgoC&pg=PA": 5072,
      "अभिज्ञापक": 5073,
      "च्छ": 5074,
      "ootball": 5075,
      "తాబ్ద": 5076,
      "](https://en.wikipedia.org/wiki/List_of_SAARC_summits": 5077,
      "timesofindia.indiatimes.com/": 5078,
      "awaharl": 5079,
      "भीमबेटका": 5080,
      "-D": 5081,
      "123": 5082,
      "Ethnologue": 5083,
      "New": 5084,
      "a)": 5085,
      "bbc": 5086,
      "nc": 5087,
      "nominal": 5088,
      "que": 5089,
      "एन": 5090,
      "पार": 5091,
      "्म": 5092,
      "▁[य": 5093,
      "▁[ह": 5094,
      "▁\"य": 5095,
      "भारतीय": 5096,
      "▁मन": 5097,
      "▁मह": 5098,
      "entury": 5099,
      "\\_artic": 5100,
      "▁mi": 5101,
      "▁Territory": 5102,
      "_(भारत)": 5103,
      "▁नव": 5104,
      "26.": 5105,
      "266": 5106,
      "▁H.": 5107,
      "▁व्या": 5108,
      "archive.org/detail": 5109,
      "ection": 5110,
      "\")\n\n[![](https://upload.wikimedia.org/wikipedia/commons/thumb/": 5111,
      "▁राजधान": 5112,
      "▁2024.": 5113,
      "rishn": 5114,
      "▁साम्राज्य\")": 5115,
      "धुनिक": 5116,
      "langoff-1": 5117,
      "langoff_1": 5118,
      "](https://doi.org/10.10": 5119,
      "_साम्राज्य": 5120,
      "CS1\\_": 5121,
      "fferent": 5122,
      "Pages\\_us": 5123,
      "nominal)": 5124,
      "archive.org/details/": 5125,
      "/files/": 5126,
      "125": 5127,
      "2)[[": 5128,
      "318": 5129,
      "5/": 5130,
      "7).": 5131,
      "AS": 5132,
      "Library": 5133,
      "_राज्य": 5134,
      "_38": 5135,
      "_43": 5136,
      "_languages": 5137,
      "cog": 5138,
      "ime": 5139,
      "तम": 5140,
      "दि": 5141,
      "▁°": 5142,
      "▁Qu": 5143,
      "en,": 5144,
      "erg": 5145,
      "es,": 5146,
      "report": 5147,
      "▁सभ्यता": 5148,
      "urity": 5149,
      "rov": 5150,
      "▁Rothermund": 5151,
      "103": 5152,
      "▁human": 5153,
      "_Ass": 5154,
      "aryana": 5155,
      "22-9": 5156,
      "▁name": 5157,
      "▁[Ministry": 5158,
      "▁\"British": 5159,
      "ंग्रेज": 5160,
      "hmed": 5161,
      "olitical_": 5162,
      "feb": 5163,
      "_and_depend": 5164,
      "▁produc": 5165,
      "▁sector": 5166,
      "official": 5167,
      "▁Plateau": 5168,
      "▁पार्टी": 5169,
      "▁Wikidata": 5170,
      ".](https://upload.wikimedia.org/wikipedia/commons/thumb/": 5171,
      ".\")\n\n": 5172,
      "09": 5173,
      "313": 5174,
      "4]](https://en.wikipedia.org/wiki/India#cite_note-FOOTNOTE": 5175,
      "5).": 5176,
      "577": 5177,
      "74": 5178,
      "8–": 5179,
      "MC": 5180,
      "MID": 5181,
      "_-": 5182,
      "_9": 5183,
      "aha": 5184,
      "ather": 5185,
      "ced": 5186,
      "cise": 5187,
      "code": 5188,
      "casting": 5189,
      "hal": 5190,
      "ham": 5191,
      "had": 5192,
      "ij": 5193,
      "ker": 5194,
      "ncient": 5195,
      "pture": 5196,
      "yy": 5197,
      "कणी": 5198,
      "रस": 5199,
      "ेक": 5200,
      "▁6.": 5201,
      "▁low": 5202,
      "▁[U": 5203,
      "▁[f": 5204,
      "th_BRICS_summit": 5205,
      "arlo": 5206,
      "araj": 5207,
      "aland": 5208,
      "alli": 5209,
      "anda": 5210,
      "outheast": 5211,
      "▁po": 5212,
      "▁caus": 5213,
      "▁Civil": 5214,
      "agari": 5215,
      "▁tree": 5216,
      "याधी": 5217,
      "loth": 5218,
      "▁man": 5219,
      "▁Punjab": 5220,
      "\"),[[": 5221,
      "_of_2011": 5222,
      "ोंकणी": 5223,
      "▁This": 5224,
      "▁Research": 5225,
      "emic": 5226,
      "emographic": 5227,
      "iger": 5228,
      "matic": 5229,
      "index": 5230,
      "▁hum": 5231,
      "oples": 5232,
      "▁report": 5233,
      "▁these": 5234,
      "](https://en.wikipedia.org/wiki/India#CITEREFM": 5235,
      "_Population": 5236,
      "_Paper": 5237,
      "_1_of_2011": 5238,
      "hatt": 5239,
      "▁[↑](https://en.wikipedia.org/wiki/India#cite_ref-FOOTNOTEB": 5240,
      "ligions": 5241,
      ")\n\nThe": 5242,
      "_Totals": 5243,
      "ociation": 5244,
      "ockey": 5245,
      "▁language\"),": 5246,
      "▁development": 5247,
      "_River": 5248,
      "▁Press](https://en.wikipedia.org/wiki/C": 5249,
      "ibcode": 5250,
      "ender": 5251,
      "ikhism": 5252,
      "▁[Dyson": 5253,
      "674": 5254,
      "do-European": 5255,
      "▁1994": 5256,
      "▁when": 5257,
      "▁languages\")": 5258,
      "▁addition": 5259,
      "न्तर": 5260,
      "_Lank": 5261,
      "o-operation": 5262,
      "म्बई": 5263,
      "श्मीरी": 5264,
      "▁Islands\")": 5265,
      "gypt": 5266,
      "phere": 5267,
      "uisine": 5268,
      "odiversity": 5269,
      "oastal": 5270,
      "ighth": 5271,
      "vanagari": 5272,
      "dependence": 5273,
      "णिपुरी": 5274,
      "struc": 5275,
      "arnatic": 5276,
      "olkata": 5277,
      "JPG": 5278,
      "लयालम": 5279,
      "ynasty": 5280,
      "roadcasting": 5281,
      "Provisional_Population": 5282,
      "याधीश": 5283,
      "_Paper_1_of_2011": 5284,
      "_Totals_Paper_1_of_2011": 5285,
      "Provisional_Population_Totals_Paper_1_of_2011": 5286,
      "Provisional_Population_Totals_Paper_1_of_2011_India": 5287,
      "-k": 5288,
      "219": 5289,
      "7.\n": 5290,
      "AG": 5291,
      "C-0": 5292,
      "EX": 5293,
      "\\*": 5294,
      "_श": 5295,
      "_धर्म": 5296,
      "_ప్రదేశ్": 5297,
      "ds": 5298,
      "ues": 5299,
      "ँची": 5300,
      "अंग्रेज़ी": 5301,
      "टना": 5302,
      "द्वार": 5303,
      "भग": 5304,
      "मरी": 5305,
      "यर": 5306,
      "स्व": 5307,
      "ी.": 5308,
      "ेड": 5309,
      "ेद": 5310,
      "ोला": 5311,
      "ం,": 5312,
      "ఉప": 5313,
      "కొ": 5314,
      "కేంద్రపాలిత": 5315,
      "జె": 5316,
      "ఢ్": 5317,
      "నాల": 5318,
      "లే": 5319,
      "ళు": 5320,
      "ౌద్ధ": 5321,
      "▁औ": 5322,
      "▁భా": 5323,
      "▁भाग": 5324,
      "▁[వి": 5325,
      "▁\"ग": 5326,
      "tis": 5327,
      "ars": 5328,
      "2025": 5329,
      "](https://hi.wikipedia.org/wiki/दक्षिण": 5330,
      "](https://hi.wikipedia.org/wiki/तमिल": 5331,
      "▁काल": 5332,
      "▁कॉंग्रेस": 5333,
      "rel": 5334,
      "्रय": 5335,
      "▁सित": 5336,
      "▁समाज": 5337,
      "▁(c": 5338,
      "▁मई": 5339,
      "▁मिल": 5340,
      "र्क": 5341,
      "ेंगल": 5342,
      "](https://hi.wikipedia.org/wiki/भारत_के_राज्य": 5343,
      "\\_स": 5344,
      "ాలీ": 5345,
      "▁अभ": 5346,
      "▁में,": 5347,
      "▁2012.": 5348,
      "▁des": 5349,
      "▁जब": 5350,
      "ర్చ": 5351,
      "भाई": 5352,
      "भाष": 5353,
      "_से": 5354,
      "28.": 5355,
      "ాలు?action=edit&redlink=1": 5356,
      "_Act": 5357,
      "▁religious": 5358,
      "akrishn": 5359,
      "▁गई": 5360,
      "▁Fund": 5361,
      "▁[मध्य": 5362,
      "▁शहर": 5363,
      "म्भ": 5364,
      "]](https://hi.wikipedia.org/wiki/भारत#cite_note-pib": 5365,
      "संधान": 5366,
      "166": 5367,
      "_के_अन": 5368,
      "–సా.శ.18": 5369,
      "▁అత్య": 5370,
      "▁लिये": 5371,
      "▁यूनिवर्सिट": 5372,
      "▁ఆధ": 5373,
      "మాఖ్య": 5374,
      "వాణా": 5375,
      "▁जनजाति": 5376,
      "ంటి": 5377,
      "content": 5378,
      "रुणा": 5379,
      "డ్డ": 5380,
      "▁జనాభా": 5381,
      "దక్షిణాసియా": 5382,
      "▁గల": 5383,
      "▁భారతదేశంలో": 5384,
      "ంగ్లీ": 5385,
      "ोर्ट": 5386,
      "యునై": 5387,
      "ష్ణ": 5388,
      "_చరిత్ర?action=edit&redlink=1": 5389,
      "वादी": 5390,
      "▁ప్రాంతాలు": 5391,
      "▁రాష్ట్రాలు,": 5392,
      "_మతము": 5393,
      "▁మొద": 5394,
      "adhya": 5395,
      "▁(2018),": 5396,
      "_देशों_की_सूची": 5397,
      "ताजमह": 5398,
      "क्षरता": 5399,
      "▁[पाकिस्तान](https://hi.wikipedia.org/wiki/पाकिस्तान": 5400,
      "kZVuDwAAQBAJ&pg=PA": 5401,
      "\\_articles\\_": 5402,
      "ेंगलुरु": 5403,
      "akrishnan": 5404,
      "_के_अनुसार": 5405,
      "▁यूनिवर्सिटी": 5406,
      "యునైటెడ్": 5407,
      "/hind": 5408,
      "66": 5409,
      "S.": 5410,
      "_एशिया": 5411,
      "day": 5412,
      "dust": 5413,
      "eth": 5414,
      "fob": 5415,
      "hut": 5416,
      "most": 5417,
      "ox": 5418,
      "ption": 5419,
      "s18": 5420,
      "tl": 5421,
      "▁z": 5422,
      "▁५": 5423,
      "▁ला": 5424,
      "▁36": 5425,
      "▁old": 5426,
      "▁[प्र": 5427,
      "▁[World": 5428,
      "▁[तमिल": 5429,
      "▁\"ड": 5430,
      "▁\"ह": 5431,
      "▁\"19": 5432,
      "▁कम": 5433,
      "▁सह": 5434,
      "▁prom": 5435,
      "र्श": 5436,
      "▁Central": 5437,
      "▁M.": 5438,
      "0000": 5439,
      "109": 5440,
      "_St": 5441,
      "▁व्यवस्था": 5442,
      "▁2001": 5443,
      "▁only": 5444,
      "▁[Singh": 5445,
      "▁near": 5446,
      "407": 5447,
      "27)": 5448,
      "160": 5449,
      "त्ति": 5450,
      "▁[British": 5451,
      "▁def": 5452,
      "▁\"Government": 5453,
      "article": 5454,
      "▁[Kulke": 5455,
      "overnment_of_India": 5456,
      "▁use": 5457,
      "▁composed": 5458,
      "कालीन": 5459,
      "▁wide": 5460,
      "▁along": 5461,
      "▁देख": 5462,
      "catal": 5463,
      "हित्य": 5464,
      "Hindustan": 5465,
      "प्राचीन": 5466,
      "▁\"पाकिस्तान\")": 5467,
      "arliest": 5468,
      "▁नेतृत्व": 5469,
      "-e": 5470,
      "-logo": 5471,
      ".uk": 5472,
      "1-4": 5473,
      "2%": 5474,
      "Con": 5475,
      "F)": 5476,
      "IF": 5477,
      "IUCN": 5478,
      "Taj": 5479,
      "_v": 5480,
      "_pe": 5481,
      "ax": 5482,
      "epend": 5483,
      "i.": 5484,
      "lue": 5485,
      "ren": 5486,
      "ute": 5487,
      "अरब": 5488,
      "इप्र": 5489,
      "जान": 5490,
      "ुम्बई": 5491,
      "–24": 5492,
      "▁United": 5493,
      "iary": 5494,
      "orn": 5495,
      "](Template:": 5496,
      "anat": 5497,
      "him": 5498,
      "hild": 5499,
      "erman": 5500,
      "aro": 5501,
      "ed,": 5502,
      "▁(199": 5503,
      "asi": 5504,
      "ashi": 5505,
      "▁India.[[": 5506,
      "▁India*.": 5507,
      "▁India](https://en.wikipedia.org/wiki/C": 5508,
      "raj": 5509,
      "rahm": 5510,
      "▁colle": 5511,
      "▁Cooperation": 5512,
      "▁fam": 5513,
      "adwe": 5514,
      "adras": 5515,
      "\n\n|": 5516,
      "vey": 5517,
      "loc": 5518,
      "▁maint": 5519,
      "▁Park": 5520,
      "comm": 5521,
      "_of_B": 5522,
      "]](https://en.wikipedia.org/wiki/India#cite_note-Combined": 5523,
      "▁Man": 5524,
      "▁att": 5525,
      "▁B.;": 5526,
      "ign_": 5527,
      "igarh": 5528,
      "▁प्रस": 5529,
      "irth": 5530,
      "pecially": 5531,
      "▁Games": 5532,
      "▁rema": 5533,
      "▁religion": 5534,
      "▁through": 5535,
      "ability": 5536,
      "AAJ": 5537,
      "▁growth": 5538,
      "eccan": 5539,
      "▁\"Mughal": 5540,
      ".gov.in": 5541,
      "](https://en.wikipedia.org/wiki/Mugh": 5542,
      "▁सागर": 5543,
      "▁within": 5544,
      ")\n\n-": 5545,
      "](https://en.wikipedia.org/wiki/British": 5546,
      "-107-0": 5547,
      "▁\"Template:": 5548,
      "▁exp": 5549,
      "issing": 5550,
      "\")\n\n##": 5551,
      "49-2": 5552,
      "contain": 5553,
      "िवस": 5554,
      "handigarh": 5555,
      "_Force": 5556,
      "AsherTalbot20": 5557,
      "india.gov.in/india-glance/": 5558,
      "ynth": 5559,
      "आईएस": 5560,
      "▁News": 5561,
      "▁ago": 5562,
      "attle": 5563,
      "ediff": 5564,
      "▁शासित": 5565,
      "Dyson2018),": 5566,
      "ographical": 5567,
      "mitt": 5568,
      "ote:": 5569,
      "ortal:": 5570,
      "लोकसभा": 5571,
      "▁especially": 5572,
      "▁Buddhist": 5573,
      "ृष्ठ": 5574,
      "▁increased": 5575,
      ")\n\n###": 5576,
      "ilgrim": 5577,
      ".htm)": 5578,
      ".php?": 5579,
      "akshadwe": 5580,
      "](https://en.wikipedia.org/wiki/South_Asian_": 5581,
      "culpture": 5582,
      "nergy": 5583,
      "▁2018](https://en.wikipedia.org/wiki/India#CITEREFDyson2018),": 5584,
      "हायता": 5585,
      "achine": 5586,
      "ological": 5587,
      "violence": 5588,
      "भाजपा": 5589,
      "▁Quote:": 5590,
      "hattis": 5591,
      "](https://en.wikipedia.org/wiki/Mughal_": 5592,
      "akshadweep": 5593,
      "-r": 5594,
      "-ex": 5595,
      "-शासित": 5596,
      "/).": 5597,
      "350": 5598,
      "52": 5599,
      "Alig": 5600,
      "CH": 5601,
      "PO": 5602,
      "Th": 5603,
      "_h": 5604,
      "_26": 5605,
      "mil": 5606,
      "vent": 5607,
      "ईस्ट": 5608,
      "ुक": 5609,
      "▁(b": 5610,
      "▁पै": 5611,
      "▁पश्चिम": 5612,
      "rest": 5613,
      ".jpe": 5614,
      "50th": 5615,
      "▁Incre": 5616,
      "dex": 5617,
      "rief": 5618,
      "709": 5619,
      "emplate_": 5620,
      "iance": 5621,
      "▁[978-0-521": 5622,
      "_population": 5623,
      "▁\"ब्रिटिश": 5624,
      "▁control": 5625,
      "on-Alig": 5626,
      "bi.n": 5627,
      ".nih": 5628,
      "lm.nih": 5629,
      "mritsar": 5630,
      "ncbi.n": 5631,
      "Pages\\_using\\_": 5632,
      "on-Aligned": 5633,
      "ncbi.nlm.nih": 5634,
      ",NGDP": 5635,
      ":EditPage/": 5636,
      ";[[": 5637,
      "_న": 5638,
      "ek": 5639,
      "ead": 5640,
      "ंतर": 5641,
      "ईल": 5642,
      "घर": 5643,
      "घालय": 5644,
      "चें": 5645,
      "तुल": 5646,
      "थियार": 5647,
      "रिया": 5648,
      "वेश": 5649,
      "वैद": 5650,
      "िबंध": 5651,
      "ृष": 5652,
      "ोट": 5653,
      "्लेट": 5654,
      "ఖండ": 5655,
      "టిక": 5656,
      "డే": 5657,
      "ద్య": 5658,
      "మార్": 5659,
      "మాలయ": 5660,
      "లలో": 5661,
      "లకు": 5662,
      "ళ్": 5663,
      "వ](https://te.wikipedia.org/wiki/": 5664,
      "ానికి": 5665,
      "ాళు": 5666,
      "ీర్": 5667,
      "▁,": 5668,
      "▁భ": 5669,
      "▁యు": 5670,
      "▁[गुजरात": 5671,
      "▁\"వి": 5672,
      "alt": 5673,
      "ारो": 5674,
      "ारम्भ": 5675,
      "](https://hi.wikipedia.org/wiki/ज": 5676,
      "](https://hi.wikipedia.org/wiki/द": 5677,
      "्रह": 5678,
      "thehind": 5679,
      "▁popul": 5680,
      "ets": 5681,
      "र्ट": 5682,
      "र्त": 5683,
      "ेंस": 5684,
      "ator": 5685,
      "▁Chand": 5686,
      "\\_क": 5687,
      "▁Society": 5688,
      "ాలో": 5689,
      "▁अमेर": 5690,
      "▁अलग": 5691,
      "▁अर्थव्यवस्था": 5692,
      "స్వ": 5693,
      "స్లా": 5694,
      "वियत": 5695,
      "ालैंड": 5696,
      "▁जिन": 5697,
      "▁పాల": 5698,
      "▁देव": 5699,
      "▁दोन": 5700,
      "న్\")": 5701,
      "भाजन": 5702,
      "▁बंगाल": 5703,
      "▁बड़े": 5704,
      "▁प्रधानमंत्री": 5705,
      "links": 5706,
      "267": 5707,
      "▁सेवा": 5708,
      "▁काम": 5709,
      "oung": 5710,
      "▁కార": 5711,
      "▁కలి": 5712,
      "▁आक": 5713,
      "_Affairs": 5714,
      "రిహ": 5715,
      "రికత": 5716,
      "క్నాల": 5717,
      "ంది": 5718,
      "నిమా": 5719,
      "▁సంగీతం": 5720,
      "▁परि": 5721,
      "▁संस्थान": 5722,
      "▁చి": 5723,
      "](https://hi.wikipedia.org/wiki/भारत#cite_ref-pib": 5724,
      "](https://hi.wikipedia.org/wiki/भारत#cite_ref-langoff_1": 5725,
      "]](https://hi.wikipedia.org/wiki/भारत#cite_note-langoff-1": 5726,
      "ियन": 5727,
      "संबर": 5728,
      "lative": 5729,
      "सां": 5730,
      "▁रक्षा": 5731,
      "ी](https://hi.wikipedia.org/wiki/म": 5732,
      "ndhra": 5733,
      "-7mar": 5734,
      "▁\"मध्य": 5735,
      "ులు\"),": 5736,
      "–సా.శ.13": 5737,
      "▁అయ": 5738,
      "▁ప్రధాన": 5739,
      "कारी": 5740,
      "हाँ": 5741,
      "ोली": 5742,
      "ప్రదాయ": 5743,
      "ప్రత్యేక": 5744,
      "ద్వీ": 5745,
      "▁ఉప": 5746,
      "ंधी": 5747,
      "](https://hi.wikipedia.org/wiki/मध्य": 5748,
      "aith": 5749,
      "▁రె": 5750,
      "issile": 5751,
      "_GDP": 5752,
      "న్నడ": 5753,
      "द्यालय": 5754,
      "ంటు": 5755,
      "Asher2006": 5756,
      "AsherAsher2006": 5757,
      "गुप्त": 5758,
      "▁దేశంలో": 5759,
      "ureau": 5760,
      "ాయి.": 5761,
      "onstitutional": 5762,
      "120]](https://hi.wikipedia.org/wiki/भारत#cite_note-langoff-1": 5763,
      "▁घाट": 5764,
      "కాశ్మీ": 5765,
      "](https://hi.wikipedia.org/wiki/पंजाब": 5766,
      "](https://hi.wikipedia.org/wiki/पश्चिम": 5767,
      "ంధు": 5768,
      "Stein1998),": 5769,
      "Singh2009),": 5770,
      "వర్గం:Harv": 5771,
      "ों_की_सूची?action=edit&redlink=1": 5772,
      "न्तु": 5773,
      "▁CITEREFStein1998": 5774,
      "▁CITEREFSingh2009": 5775,
      "▁अधिकार": 5776,
      "](https://hi.wikipedia.org/wiki/भारत#CITEREFStein1998),": 5777,
      "](https://hi.wikipedia.org/wiki/भारत#CITEREFSingh2009),": 5778,
      "ద్ధం": 5779,
      "ద్ధి": 5780,
      "ాల్దీవ": 5781,
      "చ్చే": 5782,
      "KulkeRothermund200": 5783,
      "దక్షిణ_": 5784,
      "वर्त": 5785,
      "▁थे": 5786,
      "▁पाकिस्तान": 5787,
      "▁కాంగ్రె": 5788,
      "धीरे": 5789,
      "▁मंदिर\")": 5790,
      "టెక్నాల": 5791,
      "नागालैंड": 5792,
      "హిమాలయ": 5793,
      "_अन": 5794,
      "रोहर": 5795,
      "▁2009](https://hi.wikipedia.org/wiki/भारत#CITEREFSingh2009),": 5796,
      "▁वर्षों": 5797,
      "View": 5798,
      "▁లే": 5799,
      "త్తరా": 5800,
      "ृष्ण": 5801,
      "నాగరికత": 5802,
      "_from": 5803,
      "క్కువ": 5804,
      "troduction": 5805,
      "▁दृश्य": 5806,
      "క్‌సభ": 5807,
      "▁శాస్త్ర": 5808,
      "▁सिनेमा\"),": 5809,
      "ెలుగు": 5810,
      "▁होती": 5811,
      "▁भूमिका": 5812,
      "▁1998](https://hi.wikipedia.org/wiki/भारत#CITEREFStein1998),": 5813,
      "bank.org/": 5814,
      "▁दिसंबर": 5815,
      "▁వచ్చింది.": 5816,
      "▁स्तर": 5817,
      "_ప్రాంత": 5818,
      "ouncil": 5819,
      "uthority": 5820,
      "ర్చ:": 5821,
      "रुणाचल": 5822,
      "dustrial": 5823,
      ":EditPage/మూస:": 5824,
      "चेंज": 5825,
      "वैदिक": 5826,
      "िबंधीय": 5827,
      "ాళుక్య": 5828,
      "](https://hi.wikipedia.org/wiki/भारत#cite_ref-langoff_128": 5829,
      "-7mar2011": 5830,
      "ప్రత్యేక:EditPage/మూస:": 5831,
      "_GDP_(": 5832,
      "120]](https://hi.wikipedia.org/wiki/भारत#cite_note-langoff-128)": 5833,
      "టెక్నాలజీ": 5834,
      "*](http://": 5835,
      "-an": 5836,
      "/b": 5837,
      "3).": 5838,
      "34)": 5839,
      "677": 5840,
      "7%": 5841,
      "7C": 5842,
      "7]](https://en.wikipedia.org/wiki/India#cite_note-": 5843,
      "9]](https://en.wikipedia.org/wiki/India#cite_note-": 5844,
      "9]](https://en.wikipedia.org/wiki/India#cite_note-FOOTNOTE": 5845,
      "Census": 5846,
      "Fr": 5847,
      "IB": 5848,
      "Language": 5849,
      "Petraglia": 5850,
      "_&": 5851,
      "_18": 5852,
      "_Union": 5853,
      "_2024": 5854,
      "ative": 5855,
      "baki": 5856,
      "dic": 5857,
      "ka": 5858,
      "khand": 5859,
      "rang": 5860,
      "subcontinent": 5861,
      "tain": 5862,
      "vil": 5863,
      "wana": 5864,
      "क_स": 5865,
      "थम": 5866,
      "हम": 5867,
      "िर्": 5868,
      "▁—": 5869,
      "▁ge": 5870,
      "▁eng": 5871,
      "▁histor": 5872,
      "orship": 5873,
      "▁[राज्य": 5874,
      "ences": 5875,
      "▁\"World": 5876,
      "ants": 5877,
      "](https://en.wikipedia.org/wiki/World": 5878,
      "erved": 5879,
      "artition": 5880,
      "alit": 5881,
      "ederal": 5882,
      "▁(ed.).": 5883,
      "ichell": 5884,
      "▁sur": 5885,
      "▁political": 5886,
      "ately": 5887,
      "uss": 5888,
      "atna": 5889,
      "▁Comp": 5890,
      "▁As": 5891,
      "ref-10": 5892,
      "note-10": 5893,
      "ango": 5894,
      "angam": 5895,
      "▁bu": 5896,
      "lite": 5897,
      "urry": 5898,
      "lock": 5899,
      "umar": 5900,
      "very": 5901,
      "stani": 5902,
      "iland": 5903,
      "▁work": 5904,
      "ourbaki": 5905,
      ".\n11": 5906,
      "oln": 5907,
      "▁Michael": 5908,
      "न्ध": 5909,
      "न्स": 5910,
      "identifiers": 5911,
      "▁Bi": 5912,
      "▁By": 5913,
      "india.com/": 5914,
      "▁आन्द": 5915,
      "115": 5916,
      "_Air": 5917,
      "-459": 5918,
      "-85": 5919,
      "▁गठ": 5920,
      "406]](https://en.wikipedia.org/wiki/India#cite_note-": 5921,
      "oss": 5922,
      "▁\"Cambridge": 5923,
      "hai": 5924,
      "harkhand": 5925,
      "▁gen": 5926,
      "_Comm": 5927,
      "▁[Cambridge": 5928,
      "▁[↑](https://en.wikipedia.org/wiki/India#cite_ref-FOOTNOTEStein2010": 5929,
      "▁before": 5930,
      "](https://mai.wikipedia.org/wiki/म": 5931,
      "arden": 5932,
      "▁range": 5933,
      "aking": 5934,
      "akistani": 5935,
      "vention": 5936,
      "▁चार": 5937,
      "class": 5938,
      "▁lite": 5939,
      "ahal": 5940,
      "ambridge_University_Press": 5941,
      "▁vill": 5942,
      "▁घाटी": 5943,
      "alayalam": 5944,
      "न्नड़": 5945,
      "erves": 5946,
      "aceu": 5947,
      "1971": 5948,
      "त्पत्ति": 5949,
      "ondon": 5950,
      "▁2019.\n": 5951,
      "ollingham": 5952,
      "cheduled": 5953,
      "_न्या": 5954,
      "▁People": 5955,
      "▁including": 5956,
      "ritsch": 5957,
      "▁Registrar": 5958,
      "▁[India](https://en.wikipedia.org/wiki/India": 5959,
      "▁(identifier)\"):[10.10": 5960,
      "4/4": 5961,
      "वार्ता:": 5962,
      "vatsyayan-lord-4": 5963,
      "vatsyayan-lord_43": 5964,
      "_of_South_Asia": 5965,
      "▁वार्ता:": 5966,
      "owever,": 5967,
      "harmaceu": 5968,
      "Articles\\_contain": 5969,
      "undamental": 5970,
      "olonial": 5971,
      "do-Pakistani": 5972,
      "Allchin": 5973,
      "▁Press](https://en.wikipedia.org/wiki/Cambridge_University_Press": 5974,
      "hutan": 5975,
      "PetragliaAllchin": 5976,
      "406]](https://en.wikipedia.org/wiki/India#cite_note-vatsyayan-lord-4": 5977,
      "/india": 5978,
      "03": 5979,
      "2-1": 5980,
      "226": 5981,
      "418": 5982,
      "M50th": 5983,
      "NCL": 5984,
      "_36": 5985,
      "equality": 5986,
      "kb": 5987,
      "m2": 5988,
      "p)": 5989,
      "round": 5990,
      "▁46": 5991,
      "▁(क": 5992,
      "▁pres": 5993,
      "▁Chinese": 5994,
      "agen": 5995,
      "\\_(": 5996,
      "istor": 5997,
      "ाल्": 5998,
      "▁Muslim": 5999,
      "10)": 6000,
      "▁Dictionary": 6001,
      "▁Health": 6002,
      "▁[\"P": 6003,
      "_महासागर": 6004,
      "जापान": 6005,
      "%20A": 6006,
      "%2C_India": 6007,
      "▁जनता": 6008,
      "html).": 6009,
      "▁(2014).": 6010,
      "▁[संयुक्त": 6011,
      "▁\"संस्कृत": 6012,
      "Report.pdf)": 6013,
      "nclm.nic.in/shared/linkimages/NCL": 6014,
      "M50thReport.pdf)": 6015,
      "nclm.nic.in/shared/linkimages/NCLM50thReport.pdf)": 6016,
      "-se": 6017,
      "-world": 6018,
      "2),": 6019,
      "32)": 6020,
      "9/": 6021,
      "C)": 6022,
      "Pakistan": 6023,
      "aul": 6024,
      "ece": 6025,
      "ns": 6026,
      "s:": 6027,
      "▁३": 6028,
      "▁[n": 6029,
      "▁[नेपाल": 6030,
      "▁\"U": 6031,
      "▁\"नेपाल": 6032,
      "of\\_": 6033,
      "id-": 6034,
      "राक": 6035,
      "र्भ": 6036,
      "atab": 6037,
      "▁Ad": 6038,
      "\\_with\\_": 6039,
      "\\_of\\_": 6040,
      "loped": 6041,
      "▁14.": 6042,
      "▁जय": 6043,
      "▁Minister": 6044,
      "▁top": 6045,
      "24.": 6046,
      "▁house": 6047,
      "upreme": 6048,
      "bert": 6049,
      "opland": 6050,
      "▁2007.": 6051,
      "▁1962": 6052,
      "ody": 6053,
      "_Data": 6054,
      "▁[New": 6055,
      "type": 6056,
      "onstitution_of_India": 6057,
      "▁contin": 6058,
      "रेन्द्र": 6059,
      "%E0%A4%A": 6060,
      "▁Programme": 6061,
      "िन्धु": 6062,
      "▁different": 6063,
      "tiger": 6064,
      "text": 6065,
      "▁estimate": 6066,
      "_of_Congress": 6067,
      "reedom": 6068,
      "hmedabad": 6069,
      "\"](http://": 6070,
      "%3": 6071,
      "-R": 6072,
      "-w": 6073,
      "-the": 6074,
      ".పూ.": 6075,
      "1]](https://en.wikipedia.org/wiki/India#cite_note-": 6076,
      "221": 6077,
      "4,": 6078,
      "5]](https://en.wikipedia.org/wiki/India#cite_note-": 6079,
      "8]](https://en.wikipedia.org/wiki/India#cite_note-FOOTNOTE": 6080,
      ":**": 6081,
      "=20": 6082,
      "Ch": 6083,
      "Collingham": 6084,
      "S$": 6085,
      "Tarlo": 6086,
      "_20": 6087,
      "_industry": 6088,
      "aos": 6089,
      "business": 6090,
      "business/": 6091,
      "eat": 6092,
      "eligious": 6093,
      "ject": 6094,
      "lar": 6095,
      "mill": 6096,
      "odia": 6097,
      "rune": 6098,
      "s_in_India": 6099,
      "search": 6100,
      "via": 6101,
      "yd": 6102,
      "yth": 6103,
      "ंश": 6104,
      "ईद": 6105,
      "ऍथ": 6106,
      "ऑक्सफोर्ड": 6107,
      "ख़": 6108,
      "गध": 6109,
      "जपुरी": 6110,
      "जिस्ट": 6111,
      "ताल": 6112,
      "थल": 6113,
      "दल": 6114,
      "दान": 6115,
      "नोल": 6116,
      "पीय": 6117,
      "फ्रां": 6118,
      "बू": 6119,
      "बार": 6120,
      "मत": 6121,
      "मृत": 6122,
      "यपुर": 6123,
      "ल्ल": 6124,
      "शत": 6125,
      "शोक": 6126,
      "हें": 6127,
      "ुरा": 6128,
      "ूबर": 6129,
      "ेघालय": 6130,
      "ॉग": 6131,
      "ोड": 6132,
      "ంతం": 6133,
      "ఆగ": 6134,
      "కళ": 6135,
      "ఖండ్": 6136,
      "గం": 6137,
      "గ్": 6138,
      "గిన": 6139,
      "గఢ్": 6140,
      "జో": 6141,
      "ట్ర": 6142,
      "తెలుగు": 6143,
      "ద్రా": 6144,
      "పద": 6145,
      "భి": 6146,
      "యో": 6147,
      "లక్ష": 6148,
      "వర": 6149,
      "శో": 6150,
      "షా": 6151,
      "హు": 6152,
      "హార్": 6153,
      "హాయ": 6154,
      "ాష్ట్ర": 6155,
      "ీక": 6156,
      "ీహార్": 6157,
      "ుల": 6158,
      "ుల్": 6159,
      "ోల్": 6160,
      "ోత్స": 6161,
      "ౌర్య": 6162,
      "–4": 6163,
      "▁रा": 6164,
      "▁ना": 6165,
      "▁kingdom": 6166,
      "▁[Y": 6167,
      "▁[श": 6168,
      "▁[హ": 6169,
      "ened": 6170,
      "▁\"హ": 6171,
      "▁\"साँच": 6172,
      "▁\"साँचा:": 6173,
      "▁\"ఢిల్లీ": 6174,
      "ino-": 6175,
      "inema": 6176,
      "tile": 6177,
      "hir": 6178,
      "arth": 6179,
      "ester": 6180,
      "es.[[": 6181,
      "](https://hi.wikipedia.org/wiki/ग": 6182,
      "](https://hi.wikipedia.org/wiki/हिन्द": 6183,
      "](https://hi.wikipedia.org/wiki/साँच": 6184,
      "](https://hi.wikipedia.org/wiki/साँचा:": 6185,
      "ofker": 6186,
      "्रार": 6187,
      "omo": 6188,
      "▁सूच": 6189,
      "▁सीमा": 6190,
      "itation": 6191,
      "▁(S": 6192,
      "asthan": 6193,
      "▁मन्दिर": 6194,
      "्यूरो": 6195,
      "్రూ": 6196,
      "idy": 6197,
      "ratic": 6198,
      "रात": 6199,
      "▁पड़": 6200,
      "▁प्लेट": 6201,
      "](https://te.wikipedia.org/wiki/సి": 6202,
      "entr": 6203,
      "▁school": 6204,
      "etry": 6205,
      "ानगर": 6206,
      "ries/": 6207,
      "riya": 6208,
      "ingap": 6209,
      "amy": 6210,
      "ating": 6211,
      "▁Asher": 6212,
      "▁हाला": 6213,
      "▁हथियार": 6214,
      "acmill": 6215,
      "▁Sabha": 6216,
      "▁four": 6217,
      "▁fol": 6218,
      "angered": 6219,
      "urk": 6220,
      "uran": 6221,
      "िकी": 6222,
      "ాలా": 6223,
      "ాలలో": 6224,
      "▁main": 6225,
      "well": 6226,
      "్యం": 6227,
      "fir": 6228,
      "▁would": 6229,
      "ालर": 6230,
      "▁ज़": 6231,
      "▁Temple": 6232,
      "▁Routledge": 6233,
      "ర్ణా": 6234,
      "ర్మే": 6235,
      "▁B.": 6236,
      "▁बार": 6237,
      "▁बने": 6238,
      "▁बड़ा": 6239,
      "igved": 6240,
      "igration": 6241,
      "23.": 6242,
      "तिब्बत": 6243,
      "▁नौसेना": 6244,
      "▁led": 6245,
      "▁\"Special:BookSources/978-81": 6246,
      "indhi": 6247,
      "्टॉक": 6248,
      "లు\")": 6249,
      "▁*India": 6250,
      "286": 6251,
      "లోక్‌సభ": 6252,
      "_in_New": 6253,
      "▁वृद्ध": 6254,
      "क्षण": 6255,
      "क्षद्वीप": 6256,
      "▁Greek": 6257,
      "▁N.": 6258,
      "▁Nicobar": 6259,
      "-345": 6260,
      "ాలు\n\n": 6261,
      "_A7C": 6262,
      "tudi": 6263,
      "▁వంశ": 6264,
      "▁third": 6265,
      "22.": 6266,
      "थाईल": 6267,
      "]](https://hi.wikipedia.org/wiki/भारत#cite_note-10": 6268,
      "ghts": 6269,
      "▁[\"G": 6270,
      "▁[महाराष्ट्र": 6271,
      "कांक": 6272,
      "osphere": 6273,
      "hap": 6274,
      "hailand": 6275,
      "ountain": 6276,
      "ountries/": 6277,
      "ండర్": 6278,
      "▁Languages": 6279,
      "▁विज्ञान": 6280,
      "▁Organization": 6281,
      "हिमालय": 6282,
      "aph": 6283,
      "](https://books.google.com/books?id=3TRtDwAAQBAJ&pg=PA": 6284,
      "ngineering": 6285,
      "▁[Central": 6286,
      "otal": 6287,
      "త్మా": 6288,
      "](Special:BookSources/978-81": 6289,
      "▁[↑](https://en.wikipedia.org/wiki/India#cite_ref-FOOTNOTEM": 6290,
      "▁\"महाराष्ट्र": 6291,
      "ंडमान": 6292,
      "▁అతి": 6293,
      "▁लिया": 6294,
      "ికి": 6295,
      "हाब": 6296,
      "ogri": 6297,
      "मीरात": 6298,
      "परेशन": 6299,
      "▁now": 6300,
      "▁करना": 6301,
      "▁करता": 6302,
      "ద్దు": 6303,
      "▁\"En": 6304,
      "](https://hi.wikipedia.org/wiki/महाराष्ट्र": 6305,
      "%2C5": 6306,
      "▁రహదార": 6307,
      "](https://en.wikipedia.org/wiki/En": 6308,
      "▁areas": 6309,
      "మాచల్": 6310,
      "▁సామ్రాజ్య": 6311,
      "_Bank": 6312,
      "రువా": 6313,
      "రుణా": 6314,
      "▁Ved": 6315,
      "న్నో": 6316,
      "33-7": 6317,
      "▁[2](https://hi.wikipedia.org/wiki/भारत#cite_ref-FOOTNOTE": 6318,
      "▁[![The": 6319,
      "▁[1](https://hi.wikipedia.org/wiki/भारत#cite_ref-FOOTNOTE": 6320,
      "ameez": 6321,
      "▁like": 6322,
      "మిజో": 6323,
      "राष्ट्रीय_स": 6324,
      "▁ఇది": 6325,
      "हारजिस्ट": 6326,
      "▁वर्षा": 6327,
      "egistrar": 6328,
      "ा_वार्ता:": 6329,
      "_भारतीय_": 6330,
      "▁भाषा\")[[": 6331,
      "do-G": 6332,
      "▁Urdu": 6333,
      "▁घरेलू": 6334,
      "DwAAQBAJ": 6335,
      "alaysia": 6336,
      "_during": 6337,
      "▁జరి": 6338,
      "▁విస్త": 6339,
      "समूह": 6340,
      "▁millen": 6341,
      "](https://hi.wikipedia.org/wiki/पूर्व": 6342,
      "▁निभाई": 6343,
      "▁State": 6344,
      "▁2007\n": 6345,
      "rates": 6346,
      "ukesh": 6347,
      "▁change": 6348,
      "▁శతాబ్ద": 6349,
      "▁river": 6350,
      "ట్టు": 6351,
      "दाख": 6352,
      "▁agriculture": 6353,
      "▁था,": 6354,
      "▁./श्रेणी:Harv\\_and\\_Sfn\\_no-target\\_errors\n8": 6355,
      "PPP": 6356,
      "రాష్ట్రాలు": 6357,
      "▁Pradesh\")": 6358,
      "athematics": 6359,
      "వేద": 6360,
      "▁[Archived](https://web.archive.org/web/20210": 6361,
      "▁రాజకీయ": 6362,
      "ंपन": 6363,
      "ंपरा": 6364,
      "▁[↑](https://hi.wikipedia.org/wiki/भारत#cite_ref-10": 6365,
      "▁These": 6366,
      "–123": 6367,
      "▁अपने": 6368,
      "pib.nic.in/": 6369,
      "▁subcontinent\")": 6370,
      "ार्कट": 6371,
      "ually": 6372,
      "ambodia": 6373,
      "హిమాచల్": 6374,
      "▁तटीय": 6375,
      "जयपुर": 6376,
      "जयनगर": 6377,
      "హాత్మా": 6378,
      "लिंग": 6379,
      "int:": 6380,
      "▁Force": 6381,
      "णिपुर": 6382,
      "िज़ोर": 6383,
      "▁species": 6384,
      "chedule": 6385,
      "emocratic": 6386,
      "▁ప్రదేశ్\")": 6387,
      "హారాష్ట్ర": 6388,
      "▁सुरक्षा": 6389,
      "्रांति": 6390,
      "▁rock": 6391,
      "ominion": 6392,
      "▁2025.": 6393,
      "శాస్త్ర": 6394,
      "ataraj": 6395,
      "రాజస్థాన్": 6396,
      "▁వాతావరణ": 6397,
      "पातकाल": 6398,
      "janta": 6399,
      "దినోత్స": 6400,
      "▁जलवायु": 6401,
      "బెంగాలీ": 6402,
      "▁सदस": 6403,
      "యన్మార్": 6404,
      "▁ముఖ్య": 6405,
      "▁[978-81": 6406,
      "▁emerg": 6407,
      "भोजपुरी": 6408,
      "▁majority": 6409,
      "arnataka": 6410,
      "Spear199024": 6411,
      "स्लाम": 6412,
      "▁occup": 6413,
      "Sharma2007": 6414,
      "▁राजनीतिक": 6415,
      "▁[पंजाब](https://hi.wikipedia.org/wiki/पंजाब": 6416,
      "▁appro": 6417,
      "▁Before": 6418,
      "elangana": 6419,
      "_राजवंश": 6420,
      "ంజాబ్": 6421,
      "▁వ్యాస": 6422,
      "▁शुरू": 6423,
      "▁लगभग": 6424,
      "lurton199": 6425,
      "ravidian": 6426,
      "▁employed": 6427,
      "फाएं": 6428,
      "खनऊ": 6429,
      "razil": 6430,
      "हरियाणा": 6431,
      "గుజరాత్": 6432,
      "ఆఫ్ఘనిస్తాన్": 6433,
      "న్‌ఫర్మే": 6434,
      "lothing": 6435,
      "IFT": 6436,
      "हायता:": 6437,
      "तुल्य": 6438,
      "ृषि": 6439,
      "వ](https://te.wikipedia.org/wiki/List_of_": 6440,
      "▁दोनों": 6441,
      "రిహద్దు": 6442,
      "చ్చేరి": 6443,
      "olnar": 6444,
      "_Commission": 6445,
      "Tarlo1996": 6446,
      "business-": 6447,
      "runei": 6448,
      "ऍथनोल": 6449,
      "▁\"साँचा": 6450,
      "](https://hi.wikipedia.org/wiki/साँचा_वार्ता:": 6451,
      "ingapore": 6452,
      "▁Asher,": 6453,
      "acmillan": 6454,
      "ర్ణాటక": 6455,
      "_in_New_Delhi": 6456,
      "▁वृद्धि": 6457,
      "tudies": 6458,
      "▁[महाराष्ट्र](https://hi.wikipedia.org/wiki/महाराष्ट्र": 6459,
      "▁\"महाराष्ट्र\")": 6460,
      "రుణాచల్": 6461,
      "हारजिस्ट्रार": 6462,
      "ार्कटिका": 6463,
      "న్‌ఫర్మేషన్": 6464,
      "ऍथनोलॉग": 6465,
      "-T": 6466,
      ".ed": 6467,
      "Jha": 6468,
      "TO": 6469,
      "ault": 6470,
      "c/c": 6471,
      "eu": 6472,
      "दर्श": 6473,
      "▁ऐ": 6474,
      "tter": 6475,
      "](https://id": 6476,
      "▁\"राष्ट्रीय": 6477,
      "onk": 6478,
      "tification": 6479,
      "भारत)\")": 6480,
      "▁(a)": 6481,
      "▁(भारत)\")": 6482,
      "asht": 6483,
      "▁पहु": 6484,
      "▁sq": 6485,
      "ager": 6486,
      "▁Policy": 6487,
      ".\n15": 6488,
      "▁दी": 6489,
      "▁Day": 6490,
      "न्दा": 6491,
      "म्प्र": 6492,
      "▁Asia:": 6493,
      "राष्ट्रीय_": 6494,
      "_proj": 6495,
      "1):": 6496,
      "▁घोष": 6497,
      "html)": 6498,
      "▁[उत्तर": 6499,
      "isease": 6500,
      "visions": 6501,
      "▁\"उत्तर": 6502,
      "िल्ली\")": 6503,
      "▁km2": 6504,
      "▁Short": 6505,
      "▁एशिया\")": 6506,
      "▁commun": 6507,
      "▁2020.": 6508,
      "▁उत्तर-प": 6509,
      "f/f": 6510,
      "Wikipedia\\_articles\\_": 6511,
      "...]": 6512,
      "itzel": 6513,
      "८५७": 6514,
      "▁Minorities,": 6515,
      "▁व्यापार": 6516,
      "▁(b)": 6517,
      "▁Increase": 6518,
      ".edu": 6519,
      ")\"),": 6520,
      ".co": 6521,
      "2nd": 6522,
      "3,": 6523,
      "A5%": 6524,
      "EN": 6525,
      "Home": 6526,
      "Official": 6527,
      "_त": 6528,
      "dis": 6529,
      "ethnologue": 6530,
      "g)": 6531,
      "gu": 6532,
      "here": 6533,
      "ott": 6534,
      "went": 6535,
      "पृष्ठ": 6536,
      "मक": 6537,
      "ुप": 6538,
      "४७": 6539,
      "५०": 6540,
      "▁web": 6541,
      "▁\"सा": 6542,
      "infob": 6543,
      "-138": 6544,
      "▁can": 6545,
      "\\_country": 6546,
      "▁fig": 6547,
      "78.": 6548,
      "▁men": 6549,
      "illi": 6550,
      "ilbert": 6551,
      "▁Mar": 6552,
      "▁Br": 6553,
      "▁\"St": 6554,
      "indic": 6555,
      "▁Economy": 6556,
      "ablish": 6557,
      "▁[SAARC": 6558,
      "▁ne": 6559,
      "▁Hindus": 6560,
      "_Gandhi": 6561,
      "_and_union_territ": 6562,
      "iteracy": 6563,
      "_Fund": 6564,
      "ctorate": 6565,
      "▁मानव": 6566,
      "countries_and_depend": 6567,
      "राष्ट्रपति\")": 6568,
      "encies_by": 6569,
      "▁दृष्ट": 6570,
      "▁Environmental": 6571,
      ".worldbank.org/": 6572,
      "aranth": 6573,
      "▁dependencies": 6574,
      "तन्त्रता": 6575,
      "cogni": 6576,
      "▁widely": 6577,
      "hattisgarh": 6578,
      "ethnologue.com/": 6579,
      "infobox": 6580,
      "_and_union_territories": 6581,
      "countries_and_dependencies_by": 6582,
      "*](https://": 6583,
      "220": 6584,
      "41": 6585,
      "5_": 6586,
      "5-3": 6587,
      "6_": 6588,
      "6.\n": 6589,
      "7-8": 6590,
      "Countries": 6591,
      "ES": 6592,
      "Ex": 6593,
      "Forest": 6594,
      "Wright": 6595,
      "_2011": 6596,
      "cu": 6597,
      "cod": 6598,
      "ctive": 6599,
      "caste": 6600,
      "even": 6601,
      "men": 6602,
      "mall": 6603,
      "ocal": 6604,
      "page": 6605,
      "put": 6606,
      "rup": 6607,
      "rban": 6608,
      "tou": 6609,
      "u,": 6610,
      "uries": 6611,
      "upee": 6612,
      "wat": 6613,
      "इव": 6614,
      "नत्व": 6615,
      "पदी": 6616,
      "ुवै": 6617,
      "ौपदी": 6618,
      "▁`": 6619,
      "iated": 6620,
      "org": 6621,
      "orpor": 6622,
      "tte": 6623,
      "pen": 6624,
      "](https://www": 6625,
      "▁[History": 6626,
      "enous": 6627,
      "\")\"": 6628,
      "an,": 6629,
      "anchi": 6630,
      "ties/": 6631,
      "er-": 6632,
      "alace": 6633,
      "alk:": 6634,
      "reen": 6635,
      "itar": 6636,
      "▁(19": 6637,
      "▁(2007": 6638,
      "▁(India)": 6639,
      "ick": 6640,
      "▁inter": 6641,
      "▁independence": 6642,
      "raw": 6643,
      "raman": 6644,
      "▁prac": 6645,
      "र्ग": 6646,
      "▁cre": 6647,
      "ation,": 6648,
      "▁Agency": 6649,
      "acred": 6650,
      "▁Sub": 6651,
      "▁talk:": 6652,
      "lima": 6653,
      "lose": 6654,
      "umeration": 6655,
      "▁Prin": 6656,
      "istent": 6657,
      "cha": 6658,
      "▁[↑](https://en.wikipedia.org/wiki/India#cite_": 6659,
      "rove": 6660,
      "rowing": 6661,
      "rocod": 6662,
      "ilk": 6663,
      "▁divis": 6664,
      "ourism": 6665,
      "](https://en.wikipedia.org/wiki/India#cite_ref-vatsyayan-lord_43": 6666,
      "▁Tim": 6667,
      "▁Trade": 6668,
      "s.\"\n": 6669,
      "igin": 6670,
      "igenous": 6671,
      "लाओ": 6672,
      "▁Dance": 6673,
      "▁Dyson": 6674,
      "▁last": 6675,
      "▁\"Special:EditPage/Template:": 6676,
      "2649": 6677,
      "269,": 6678,
      "ayana": 6679,
      "▁[↑](https://en.wikipedia.org/wiki/India#cite_ref-4": 6680,
      "lymp": 6681,
      "▁ele": 6682,
      "▁east": 6683,
      "▁Emer": 6684,
      "287,": 6685,
      "beral": 6686,
      "▁Ganges": 6687,
      "-349": 6688,
      "▁republic": 6689,
      "akers": 6690,
      "▁though": 6691,
      "▁International": 6692,
      "_and_C": 6693,
      "_and_N": 6694,
      "_and_Development": 6695,
      "40px-": 6696,
      "_16": 6697,
      "osa": 6698,
      "▁\"Central": 6699,
      "▁\"Climate": 6700,
      "_Cooperation": 6701,
      "▁[China": 6702,
      "](https://en.wikipedia.org/wiki/China": 6703,
      "17.": 6704,
      "▁\"Ministry": 6705,
      "](Special:EditPage/Template:": 6706,
      "▁become": 6707,
      "ajasthan": 6708,
      "](https://en.wikipedia.org/wiki/Ministry_of_": 6709,
      "undarb": 6710,
      "](https://mai.wikipedia.org/wiki/ब": 6711,
      "मन्त": 6712,
      "rchitecture": 6713,
      "lled": 6714,
      "हात्": 6715,
      "orea": 6716,
      "▁\"Template": 6717,
      "48)": 6718,
      "र्मू": 6719,
      "्राष्ट्र": 6720,
      "▁ancient": 6721,
      "_Re": 6722,
      "_Ram": 6723,
      "](https://en.wikipedia.org/wiki/Template_": 6724,
      "▁\"Delhi": 6725,
      "ically": 6726,
      "ोगरी": 6727,
      "](https://en.wikipedia.org/wiki/Delhi": 6728,
      "▁Vedic": 6729,
      "_Economic": 6730,
      "▁2011](https://en.wikipedia.org/wiki/India#CITEREF": 6731,
      "▁\"Routledge": 6732,
      "](https://en.wikipedia.org/wiki/Routledge": 6733,
      "▁[ब्रिटिश": 6734,
      "▁[Routledge": 6735,
      "▁[Tamil": 6736,
      "▁\"Special:BookSources/978-0-521": 6737,
      "](Special:BookSources/978-0-521": 6738,
      "angetic": 6739,
      "द्रौपदी": 6740,
      "▁2014](https://en.wikipedia.org/wiki/India#CITEREF": 6741,
      "▁centuries": 6742,
      "▁sever": 6743,
      "▁US$": 6744,
      "▁tea": 6745,
      "▁(2017).": 6746,
      "▁milk": 6747,
      "▁military": 6748,
      "मेन": 6749,
      "▁leg": 6750,
      "जराय": 6751,
      "▁2007](https://en.wikipedia.org/wiki/India#CITEREF": 6752,
      "▁[Fisher": 6753,
      "▁plain": 6754,
      "▁[t](https://en.wikipedia.org/wiki/Template_": 6755,
      "▁parliament": 6756,
      "▁known": 6757,
      "ronom": 6758,
      "talk:": 6759,
      "230-345": 6760,
      "▁numbers": 6761,
      "▁[e](Special:EditPage/Template:": 6762,
      "▁[v](Template:": 6763,
      "▁Talbot,": 6764,
      "Fisher2018),": 6765,
      "▁Buddha": 6766,
      "▁upper": 6767,
      "▁refor": 6768,
      "arliamentary": 6769,
      "Hindustani": 6770,
      "▁2018](https://en.wikipedia.org/wiki/India#CITEREFFisher2018),": 6771,
      "merican": 6772,
      "▁(1,269,": 6773,
      "▁3,287,": 6774,
      "](https://en.wikipedia.org/wiki/History_of_": 6775,
      "▁Conservation": 6776,
      "rotected": 6777,
      "▁Francis": 6778,
      "ibetan": 6779,
      "ield": 6780,
      "present": 6781,
      "ennai": 6782,
      "forcement": 6783,
      "▁India](https://en.wikipedia.org/wiki/Government_of_India": 6784,
      "▁direct": 6785,
      "▁mi)": 6786,
      "▁1994](https://en.wikipedia.org/wiki/India#CITEREF": 6787,
      "struction": 6788,
      "▁Games\")": 6789,
      "-107-02649": 6790,
      "Front": 6791,
      "▁engineering": 6792,
      "▁village": 6793,
      "first": 6794,
      "▁millennium": 6795,
      "Wright2010": 6796,
      "touch": 6797,
      "ुवैत": 6798,
      "▁(2007).": 6799,
      "limate_": 6800,
      "▁Dyson,": 6801,
      "▁[China](https://en.wikipedia.org/wiki/China": 6802,
      "undarbans": 6803,
      "हात्मा": 6804,
      "▁\"Routledge\").": 6805,
      "▁[Routledge](https://en.wikipedia.org/wiki/Routledge": 6806,
      "▁[t](https://en.wikipedia.org/wiki/Template_talk:": 6807,
      "230-34549-2": 6808,
      "▁3,287,26": 6809,
      "-107-02649-0": 6810,
      "\"](https://web.archive.org/web/20": 6811,
      "*](https://web.archive.org/web/201": 6812,
      "-24": 6813,
      "-गंगा": 6814,
      "/g": 6815,
      "/s": 6816,
      "1200": 6817,
      "3-1": 6818,
      "Bh": 6819,
      "B0%": 6820,
      "OLA": 6821,
      "egh": 6822,
      "gar": 6823,
      "hdr": 6824,
      "sources": 6825,
      "tation": 6826,
      "voy": 6827,
      "zer": 6828,
      "ँकि": 6829,
      "ंबर": 6830,
      "ऊर्जा": 6831,
      "ऋतु": 6832,
      "ऑपरेशन": 6833,
      "ख्य": 6834,
      "गाल": 6835,
      "त्या": 6836,
      "थी": 6837,
      "नत": 6838,
      "ल्त": 6839,
      "वत": 6840,
      "शील": 6841,
      "सत": 6842,
      "सैन": 6843,
      "ाय": 6844,
      "ीक": 6845,
      "ुस्तान": 6846,
      "ूस": 6847,
      "१८५७": 6848,
      "४.": 6849,
      "ంతి": 6850,
      "కాల": 6851,
      "కారం": 6852,
      "ఖ్": 6853,
      "గంగా": 6854,
      "టో": 6855,
      "డిన": 6856,
      "తీ": 6857,
      "ధి": 6858,
      "ధించ": 6859,
      "నల్": 6860,
      "మన": 6861,
      "మర": 6862,
      "ర్యా": 6863,
      "లం": 6864,
      "లతో": 6865,
      "లమె": 6866,
      "ీస్": 6867,
      "ూప": 6868,
      "ూరు": 6869,
      "ెనీ": 6870,
      "ౌక": 6871,
      "▁:": 6872,
      "▁ద": 6873,
      "▁ఫ": 6874,
      "▁దక్షిణ": 6875,
      "▁హిందూ": 6876,
      "▁గాంధీ": 6877,
      "▁[ए": 6878,
      "▁[భారతదేశం": 6879,
      "▁[ఢిల్లీ": 6880,
      "▁\"प्र": 6881,
      "▁\"गुजरात": 6882,
      "▁\"विशेष:EditPage/साँचा:": 6883,
      "arak": 6884,
      "](https://hi.wikipedia.org/wiki/य": 6885,
      "](https://hi.wikipedia.org/wiki/विशेष:EditPage/साँचा:": 6886,
      "▁कर्ज": 6887,
      "▁सूर": 6888,
      "asp?": 6889,
      "▁मील": 6890,
      "lease": 6891,
      "▁pri": 6892,
      "ారస": 6893,
      "▁capita": 6894,
      "\\_identifiers": 6895,
      "ume": 6896,
      "ాలను": 6897,
      "స్](https://te.wikipedia.org/wiki/": 6898,
      "विद्यालय": 6899,
      "▁పెద్ద": 6900,
      "00–సా.శ.పూ.": 6901,
      "▁Report": 6902,
      "ర్లు": 6903,
      "राजनी": 6904,
      "s.com": 6905,
      "▁बनी": 6906,
      "▁बड़ी": 6907,
      "लावा": 6908,
      "▁प्रण": 6909,
      "▁प्रभा": 6910,
      "▁प्रकार": 6911,
      "▁प्रारम्भ": 6912,
      "238": 6913,
      "▁निय": 6914,
      "▁नृत्य": 6915,
      "▁\"Sanskrit": 6916,
      "_सिनेमा": 6917,
      "स्ता": 6918,
      "ित्व": 6919,
      "▁आय": 6920,
      "-45": 6921,
      "▁వే": 6922,
      "री\")": 6923,
      "रीक्षण": 6924,
      "▁गए": 6925,
      "ादरा": 6926,
      "▁पर्यटन": 6927,
      "▁परमाणु": 6928,
      "▁परंपरा": 6929,
      "▁संख्या": 6930,
      "नेट": 6931,
      "▁विवाद": 6932,
      "▁विभाग": 6933,
      "ियर": 6934,
      "ियान": 6935,
      "_के_देश": 6936,
      "monsoon": 6937,
      "ी](https://hi.wikipedia.org/wiki/प": 6938,
      "ी](https://hi.wikipedia.org/wiki/स": 6939,
      "ज़ा": 6940,
      "త్తం": 6941,
      "▁भाषाएँ": 6942,
      "▁(సా.శ.15": 6943,
      "▁(సా.శ.13": 6944,
      "▁అనే": 6945,
      "▁ప్రజ": 6946,
      "తం\")": 6947,
      "ంచి": 6948,
      "▁ఆఫ్": 6949,
      "भिन्न": 6950,
      "▁సాం": 6951,
      "▁[भारत](https://hi.wikipedia.org/wiki/भारत": 6952,
      "ార్లమె": 6953,
      "▁Vol": 6954,
      "द्यान": 6955,
      "కిస్థాన్": 6956,
      "newsite": 6957,
      "▁నే": 6958,
      "▁నగర": 6959,
      "▁जाते": 6960,
      "general": 6961,
      "▁इसी": 6962,
      "▁దేశం": 6963,
      "िवेश": 6964,
      "ध्यम": 6965,
      "▁समूह": 6966,
      "-symbols": 6967,
      "టిబె": 6968,
      "్రీ.పూ.": 6969,
      "orthographic": 6970,
      "ండియా": 6971,
      "▁./श्रेणी:CS1\\_": 6972,
      "▁ఎక్కువ": 6973,
      "▁ఎన్నో": 6974,
      "vision": 6975,
      "▁जिसके": 6976,
      "▁१९९": 6977,
      "▁किन्तु": 6978,
      "▁सिंह": 6979,
      "▁./श्रेणी:Harv\\_and\\_Sfn\\_no-target\\_errors\n6": 6980,
      "](https://hi.wikipedia.org/wiki/उत्तर": 6981,
      "्यटन\")": 6982,
      "national-symbols": 6983,
      "▁./వర్గం:Wikipedia\\_articles\\_": 6984,
      "वर्ष": 6985,
      "_సం": 6986,
      "▁[t](https://hi.wikipedia.org/wiki/साँचा_वार्ता:": 6987,
      "▁disc": 6988,
      "▁अपनी": 6989,
      "టుంబ": 6990,
      "श्रीनगर": 6991,
      "▁భారత్": 6992,
      "▁[e](https://hi.wikipedia.org/wiki/विशेष:EditPage/साँचा:": 6993,
      "▁[v](https://hi.wikipedia.org/wiki/साँचा:": 6994,
      "2001),": 6995,
      "▁वायु": 6996,
      "▁रहे": 6997,
      "▁डॉल": 6998,
      "మెరి": 6999,
      "माजिक": 7000,
      "▁ऊर्जा": 7001,
      "ईसाई": 7002,
      "▁మొత్తం": 7003,
      "▁हुआ।": 7004,
      "బాద్": 7005,
      "](https://hi.wikipedia.org/wiki/संस्कृत": 7006,
      "ంపెనీ": 7007,
      "▁प्रतिशत": 7008,
      "▁2004](https://hi.wikipedia.org/wiki/भारत#CITEREF": 7009,
      "ूरोपीय": 7010,
      "_का_खाना": 7011,
      "హ్మ": 7012,
      "▁उद्यान": 7013,
      "▁उद्यान\")": 7014,
      "_उत्पाद": 7015,
      ".aspx?rel": 7016,
      "▁ఏర్": 7017,
      "-language\\_sources": 7018,
      "retary": 7019,
      "▁शक्तिपीठ": 7020,
      "్రిటిషు": 7021,
      "-22)": 7022,
      "▁राजवंश\")": 7023,
      "▁विदेशी": 7024,
      "ंडोनेशिया": 7025,
      "_और_संघ_क्षेत्र": 7026,
      "_राज्यक्षेत्र": 7027,
      "_Lanka": 7028,
      "AGE": 7029,
      "▁सितंबर": 7030,
      "▁जबकि": 7031,
      "▁అత్యధిక": 7032,
      "_के_अनुसार_देशों_की_सूची": 7033,
      "tlas": 7034,
      "▁सहयोग": 7035,
      "ీర్ణ": 7036,
      "దక్షిణ_ఆసియా": 7037,
      "▁गठबंधन": 7038,
      "pib.nic.in/newsite": 7039,
      "_projection": 7040,
      "ल्तनत": 7041,
      "सैनिक": 7042,
      "lease.aspx?rel": 7043,
      "orthographic_projection": 7044,
      "▁डॉलर": 7045,
      "-language\\_sources\\_(": 7046,
      "-asia": 7047,
      ".\"": 7048,
      "/e": 7049,
      "3–": 7050,
      "338": 7051,
      "4-3": 7052,
      "First": 7053,
      "Mumbai": 7054,
      "States": 7055,
      "_45": 7056,
      "gion": 7057,
      "wa": 7058,
      "ंस": 7059,
      "इटे": 7060,
      "ैली": 7061,
      "ोण": 7062,
      "▁Z": 7063,
      "▁40": 7064,
      "▁ob": 7065,
      "es.": 7066,
      "istered": 7067,
      "▁सम्प": 7068,
      "▁(2011": 7069,
      "2013": 7070,
      "2011.": 7071,
      "ices": 7072,
      "19)": 7073,
      "19.": 7074,
      "▁poll": 7075,
      "▁census": 7076,
      "atch": 7077,
      "▁based": 7078,
      "vert": 7079,
      "ily": 7080,
      "नाइटे": 7081,
      ".\n14": 7082,
      "▁Book": 7083,
      "▁ब्रिटिश": 7084,
      "_सागर": 7085,
      "▁वे": 7086,
      "▁Gujarat": 7087,
      "▁आर": 7088,
      "▁आधुनिक": 7089,
      "-39": 7090,
      "opal": 7091,
      "tud": 7092,
      "स्लि": 7093,
      "2221": 7094,
      "establish": 7095,
      "▁nation": 7096,
      "▁John": 7097,
      ".[[23": 7098,
      "270": 7099,
      "▁On": 7100,
      "▁West": 7101,
      "_Times": 7102,
      "489": 7103,
      "▁expectancy": 7104,
      "मान्य": 7105,
      "▁\"International": 7106,
      "857": 7107,
      "times.indiatimes.com/": 7108,
      "▁[Ludden": 7109,
      "▁adop": 7110,
      "prof": 7111,
      "/articles/": 7112,
      "तिहासिक": 7113,
      "▁[संस्कृत": 7114,
      "unjabi": 7115,
      "▁[*An": 7116,
      "place": 7117,
      "cms).": 7118,
      "KulkeRothermund2004),": 7119,
      "▁(2018).": 7120,
      "resident_of_India": 7121,
      "economictimes.indiatimes.com/": 7122,
      "d/d": 7123,
      "ksai": 7124,
      "▁(2006).": 7125,
      "Library_of_Congress": 7126,
      "▁zone": 7127,
      "onkani": 7128,
      "indicator": 7129,
      "नाइटेड": 7130,
      "स्लिम": 7131,
      "&ss": 7132,
      "-O": 7133,
      "-th": 7134,
      "-27": 7135,
      "2-0": 7136,
      "3-7": 7137,
      "8+": 7138,
      "9-6": 7139,
      "David": 7140,
      "Empire": 7141,
      "MAAJ": 7142,
      "SN": 7143,
      "South_Asia": 7144,
      "_50": 7145,
      "_World": 7146,
      "disha": 7147,
      "evanagari": 7148,
      "fun": 7149,
      "ji": 7150,
      "mand": 7151,
      "mas": 7152,
      "more": 7153,
      "oz": 7154,
      "rian": 7155,
      "ten": 7156,
      "top": 7157,
      "xim": 7158,
      "िप": 7159,
      "ुट": 7160,
      "२६": 7161,
      "▁९": 7162,
      "▁ve": 7163,
      "▁9.": 7164,
      "▁education": 7165,
      "en:": 7166,
      "ene": 7167,
      "enjo": 7168,
      "inan": 7169,
      "anada": 7170,
      "](https://en.wikipedia.org/wiki/U": 7171,
      "till": 7172,
      "India_": 7173,
      "eri": 7174,
      "arrow": 7175,
      "alla": 7176,
      "reater": 7177,
      "ising": 7178,
      "isted": 7179,
      "cid": 7180,
      "▁often": 7181,
      "ico": 7182,
      "▁India\"](https://web.archive.org/web/201": 7183,
      "lex": 7184,
      "leavy": 7185,
      "▁inte": 7186,
      "rak": 7187,
      "▁su": 7188,
      "▁set": 7189,
      "▁served": 7190,
      "▁pur": 7191,
      "ustice": 7192,
      "uscript": 7193,
      "▁Cather": 7194,
      "▁After": 7195,
      "\\_or": 7196,
      "\\_पृष्ठ": 7197,
      "▁festi": 7198,
      "ad-": 7199,
      "adakh": 7200,
      "▁trade": 7201,
      "▁middle": 7202,
      "▁market": 7203,
      "comp": 7204,
      "hek": 7205,
      "FOOTNOTENational_Informatics_Centre2005": 7206,
      "fied": 7207,
      "style": 7208,
      "una": 7209,
      "unleavy": 7210,
      "]](https://en.wikipedia.org/wiki/India#cite_note-1": 7211,
      "▁dist": 7212,
      "ourts": 7213,
      "21.": 7214,
      ".\n10": 7215,
      ".\n36": 7216,
      "00–": 7217,
      "emen": 7218,
      "107": 7219,
      "maint:": 7220,
      "▁India\").[[": 7221,
      "ayashi": 7222,
      "▁even": 7223,
      "▁early": 7224,
      "ldlife": 7225,
      "_in_the": 7226,
      "bercu": 7227,
      "▁Nuclear": 7228,
      "_Agency": 7229,
      "-405": 7230,
      "508": 7231,
      "▁religions": 7232,
      "ational_P": 7233,
      "abel": 7234,
      "astronom": 7235,
      "▁[St": 7236,
      "AAMAAJ": 7237,
      "▁\"Chin": 7238,
      "haw": 7239,
      "▁Indians": 7240,
      "▁Law": 7241,
      "ensive": 7242,
      "s/p": 7243,
      "lated": 7244,
      "▁Wiley": 7245,
      "▁[Craven": 7246,
      "-2\").": 7247,
      "dira": 7248,
      "▁ass": 7249,
      "_Modi": 7250,
      "alls": 7251,
      "_Tamil_Nadu": 7252,
      "ommaraj": 7253,
      "kee": 7254,
      "▁\"Tamil": 7255,
      "▁[Pakistan": 7256,
      "2011religion": 7257,
      "▁deve": 7258,
      "▁rise": 7259,
      "▁rural": 7260,
      "▁rupee": 7261,
      "issions": 7262,
      "ians": 7263,
      "▁\"Ge": 7264,
      "▁V.": 7265,
      "▁31": 7266,
      "▁[Delhi": 7267,
      "neworld": 7268,
      "▁\"Indus": 7269,
      "amily": 7270,
      "rupee": 7271,
      "2004).": 7272,
      "▁centre": 7273,
      "▁central": 7274,
      "](https://en.wikipedia.org/wiki/Indus": 7275,
      "-daro": 7276,
      "ohan": 7277,
      "ohenjo": 7278,
      "_dance": 7279,
      "_dynasty": 7280,
      "▁1997": 7281,
      "▁where": 7282,
      "▁whose": 7283,
      "atis": 7284,
      "न्नड": 7285,
      "-in-india": 7286,
      "2014-p": 7287,
      ".jpg/250px-S": 7288,
      "KulkeRothermund2016": 7289,
      "raditional": 7290,
      "एसिया": 7291,
      "क्षेत्रफल": 7292,
      "गुजराती": 7293,
      "oorkee": 7294,
      "son2014-p": 7295,
      "▁Shankar": 7296,
      "ropped": 7297,
      "▁न्यायाधीश": 7298,
      "▁See": 7299,
      "▁century,": 7300,
      "_War": 7301,
      "▁\"संयुक्त": 7302,
      "cott": 7303,
      "▁speakers": 7304,
      "▁include": 7305,
      "▁2025.\n": 7306,
      "_पार्ट": 7307,
      "राठी": 7308,
      "athakali": 7309,
      "sites/": 7310,
      "▁2008](https://en.wikipedia.org/wiki/India#CITEREF": 7311,
      "Environment": 7312,
      "▁mathematics": 7313,
      "Ludden2014": 7314,
      "riage": 7315,
      "-of-india-": 7316,
      "Wikipedia:": 7317,
      "▁Africa": 7318,
      "▁major": 7319,
      "union_territory": 7320,
      "▁cities": 7321,
      "lackb": 7322,
      "losis": 7323,
      "anorama": 7324,
      "arlung": 7325,
      "rigonom": 7326,
      "hristian": 7327,
      "ecutive": 7328,
      "awaharlal": 7329,
      "▁caused": 7330,
      "emographics": 7331,
      "▁oldest": 7332,
      "▁maint:": 7333,
      "](https://en.wikipedia.org/wiki/Mughal_Empire": 7334,
      "Census2011religion": 7335,
      "▁[India](https://en.wikipedia.org/wiki/India)": 7336,
      "harmaceutical": 7337,
      "entral_": 7338,
      "Tarlo1996-26": 7339,
      "Home_Affairs": 7340,
      "▁[↑](https://en.wikipedia.org/wiki/India#cite_ref-1": 7341,
      "beralisation": 7342,
      "Davidson2014-p": 7343,
      "inancial": 7344,
      "▁Catherine": 7345,
      "\\_पृष्ठसभ": 7346,
      "berculosis": 7347,
      "ohenjo-daro": 7348,
      "3_1": 7349,
      "5-0": 7350,
      "534": 7351,
      ";\n": 7352,
      "AQAAQBAJ&pg=PA": 7353,
      "St": 7354,
      "_10": 7355,
      "_per": 7356,
      "_history": 7357,
      "aci": 7358,
      "ogo": 7359,
      "po": 7360,
      "▁<": 7361,
      "▁7.": 7362,
      "an-": 7363,
      "International": 7364,
      "ed\\_": 7365,
      "▁(1):": 7366,
      "etwork": 7367,
      "▁Century": 7368,
      "\n\n\n": 7369,
      "▁अधिराज्य": 7370,
      "chol": 7371,
      "▁domestic": 7372,
      "▁Movement": 7373,
      "108": 7374,
      "Univers": 7375,
      "▁Ne": 7376,
      "▁1980": 7377,
      "▁[*M": 7378,
      "aving": 7379,
      "धानमन्त": 7380,
      "ukh": 7381,
      "▁मान्यता": 7382,
      "orities/": 7383,
      "▁consid": 7384,
      "/08/": 7385,
      "तुर्क": 7386,
      "-level": 7387,
      "a/a": 7388,
      "AsherTalbot2008),": 7389,
      "cms)": 7390,
      "▁|\n\nCategory:": 7391,
      "/authorities/": 7392,
      "lag_of_India": 7393,
      "▁Monetary": 7394,
      "न्तर्राष्ट्र": 7395,
      "eghalay": 7396,
      "-j": 7397,
      ".t": 7398,
      "/we": 7399,
      "2-5": 7400,
      "2-10": 7401,
      "2%29": 7402,
      "3-3": 7403,
      "425": 7404,
      "428": 7405,
      ":IN": 7406,
      "BRICS": 7407,
      "E﻿": 7408,
      "KI": 7409,
      "Pe": 7410,
      "Raj": 7411,
      "_st": 7412,
      "_28": 7413,
      "_30": 7414,
      "_39": 7415,
      "_यु": 7416,
      "_map": 7417,
      "_జాబితా": 7418,
      "aver": 7419,
      "a-b": 7420,
      "bu": 7421,
      "bhasha": 7422,
      "gration": 7423,
      "music": 7424,
      "uin": 7425,
      "ंजन": 7426,
      "एम": 7427,
      "चार": 7428,
      "जल": 7429,
      "तमान": 7430,
      "दु": 7431,
      "धर्": 7432,
      "मूल": 7433,
      "यपालिका": 7434,
      "ल्ड": 7435,
      "वली": 7436,
      "शक्ति": 7437,
      "हू": 7438,
      "िरा": 7439,
      "िंह": 7440,
      "ीकरण": 7441,
      "ूनाइटेड": 7442,
      "ेय": 7443,
      "ोत्तर": 7444,
      "ఆంధ": 7445,
      "కీ": 7446,
      "కాలు": 7447,
      "క్రమ": 7448,
      "గర్": 7449,
      "డో": 7450,
      "థి": 7451,
      "నె": 7452,
      "నాలు": 7453,
      "పించ": 7454,
      "బడ్డ": 7455,
      "భర": 7456,
      "మహ": 7457,
      "మై": 7458,
      "యన": 7459,
      "రంగ": 7460,
      "లయా": 7461,
      "వార": 7462,
      "శీ": 7463,
      "షనల్": 7464,
      "స్య": 7465,
      "ృద్ధి": 7466,
      "ెంగ": 7467,
      "ేర": 7468,
      "–17": 7469,
      "–120": 7470,
      "▁ता": 7471,
      "▁దా": 7472,
      "▁local": 7473,
      "▁धीरे": 7474,
      "▁నాగరికత": 7475,
      "▁టెక్నాలజీ": 7476,
      "▁establish": 7477,
      "win": 7478,
      "tten": 7479,
      "](https://catal": 7480,
      "▁[ख": 7481,
      "▁[राष्ट्रीय": 7482,
      "▁[भू": 7483,
      "▁[राजस्थान": 7484,
      "▁\"श": 7485,
      "▁\"वि": 7486,
      "▁\"पु": 7487,
      "▁\"का": 7488,
      "▁\"विश्व": 7489,
      "▁\"राजस्थान": 7490,
      "\")1": 7491,
      "tives": 7492,
      "](https://hi.wikipedia.org/wiki/ड": 7493,
      "](https://hi.wikipedia.org/wiki/वि": 7494,
      "](https://hi.wikipedia.org/wiki/प्र": 7495,
      "](https://hi.wikipedia.org/wiki/गुजरात": 7496,
      "](https://hi.wikipedia.org/wiki/राजस्थान": 7497,
      "▁कह": 7498,
      "▁सश": 7499,
      "▁समा": 7500,
      "▁समान": 7501,
      "▁सल्तनत": 7502,
      "▁मंत्र": 7503,
      "्यु": 7504,
      "्यपालिका": 7505,
      "let": 7506,
      "్రై": 7507,
      "్రప్రదేశ్": 7508,
      "rame": 7509,
      "▁पहा": 7510,
      "](https://te.wikipedia.org/wiki/ఢిల్లీ": 7511,
      "▁sim": 7512,
      "20085": 7513,
      "▁policy": 7514,
      "ानून": 7515,
      "ritten": 7516,
      "ing,": 7517,
      "](https://hi.wikipedia.org/wiki/भारत_स": 7518,
      "▁हिल": 7519,
      "▁Summit": 7520,
      "िकता": 7521,
      "िकेट": 7522,
      "▁अभी": 7523,
      "stre": 7524,
      "unknown": 7525,
      "దేశం": 7526,
      "దేశాల": 7527,
      "దేశాలు": 7528,
      "ilar": 7529,
      "▁do": 7530,
      "्षिक": 7531,
      "▁जै": 7532,
      "▁जिन्": 7533,
      "▁Te": 7534,
      ".\n9": 7535,
      "olia": 7536,
      "▁Modi": 7537,
      "▁Machine": 7538,
      "▁Ram": 7539,
      "_केंद्र": 7540,
      "ेशिया\")": 7541,
      "ర్‌": 7542,
      "▁air": 7543,
      "s.jpg": 7544,
      "▁बल": 7545,
      "▁बौद्ध": 7546,
      "▁बैंक": 7547,
      "ंगड": 7548,
      "ंगल": 7549,
      "ंगीत": 7550,
      "▁नगर": 7551,
      "▁से](https://": 7552,
      "_सु": 7553,
      "_स्": 7554,
      "లు?action=edit&redlink=1": 7555,
      "రాఠ": 7556,
      "1991": 7557,
      "▁*A": 7558,
      "▁Home": 7559,
      "▁కి": 7560,
      "▁కో": 7561,
      "▁आंद": 7562,
      "116": 7563,
      "elated": 7564,
      "క్టో": 7565,
      "▁ती": 7566,
      "▁तो": 7567,
      "▁तुल": 7568,
      "▁तीस": 7569,
      "నియా": 7570,
      "▁వర్": 7571,
      "▁వారస": 7572,
      "स्चेंज": 7573,
      "abin": 7574,
      "geoh": 7575,
      "ల్వే": 7576,
      "▁गति": 7577,
      "1857": 7578,
      "ड़िशा": 7579,
      "▁సరిహద్దు": 7580,
      "▁उस": 7581,
      "▁उद्योग": 7582,
      "▁మన": 7583,
      "▁మూ": 7584,
      "▁Informatics": 7585,
      "_and_T": 7586,
      "▁संस्कृत": 7587,
      "▁around": 7588,
      "ండమా": 7589,
      "▁చిన్న": 7590,
      "]](https://hi.wikipedia.org/wiki/भारत#cite_note-Combined": 7591,
      "्याचल": 7592,
      "తాన": 7593,
      "ముఖ": 7594,
      "170": 7595,
      ".jpg)\n\n[": 7596,
      "ी](https://hi.wikipedia.org/wiki/न": 7597,
      "त्ता": 7598,
      "uccess": 7599,
      "త్వం": 7600,
      "▁being": 7601,
      "▁भाषाएं": 7602,
      "▁(సా.శ.14": 7603,
      "▁\"मुंबई": 7604,
      "ंडल": 7605,
      "ులు,": 7606,
      "–సా.శ.15": 7607,
      "–సా.శ.17": 7608,
      "dire": 7609,
      ")[[3": 7610,
      "पांड": 7611,
      "_Mon": 7612,
      "▁ప్రతి": 7613,
      "▁ప్రస్తు": 7614,
      "▁ప్రకారం": 7615,
      "▁ప్రముఖ": 7616,
      "कार्यपालिका": 7617,
      "ంచిన": 7618,
      "కుడు": 7619,
      "▁[↑](https://hi.wikipedia.org/wiki/भारत#cite_ref-Combined": 7620,
      "నుమ": 7621,
      "irectorate": 7622,
      "द्वित": 7623,
      "्राम": 7624,
      "वाँ": 7625,
      "▁any": 7626,
      "▁deb": 7627,
      "▁రో": 7628,
      "▁రంగ": 7629,
      "▁రవాణా": 7630,
      "▁సాధించ": 7631,
      "▁पुलिस": 7632,
      "ష్టు": 7633,
      "ंदर": 7634,
      "▁प्रदेश](https://hi.wikipedia.org/wiki/मध्य": 7635,
      "▁[GDP": 7636,
      "त्न": 7637,
      "ంతో": 7638,
      "▁తరువా": 7639,
      ",_కేంద్రపాలిత": 7640,
      "పాలన": 7641,
      "▁वर्ण": 7642,
      "▁वर्तमान": 7643,
      "िवास": 7644,
      "ం](https://te.wikipedia.org/wiki/భారతీయ": 7645,
      "फ़िल": 7646,
      "](https://hi.wikipedia.org/wiki/ब्रिटिश": 7647,
      "▁हिमालय": 7648,
      "గుర్": 7649,
      "నేషనల్": 7650,
      "▁uni": 7651,
      "▁regional": 7652,
      "गणतंत्र": 7653,
      "▁ప్రాంతం": 7654,
      "వందే": 7655,
      "मेव": 7656,
      "▁किया।": 7657,
      "▁రాజ్యం](https://te.wikipedia.org/wiki/": 7658,
      "▁[International": 7659,
      "AsherTalbot20085": 7660,
      "anced": 7661,
      "▁[उर्दू": 7662,
      "▁బా": 7663,
      "▁బహు": 7664,
      "▁బెంగ": 7665,
      "▁गया।[[": 7666,
      "▁CITEREFKulkeRothermund2004": 7667,
      "स्थाप": 7668,
      "data.worldbank.org/": 7669,
      "▁\"उर्दू": 7670,
      "684": 7671,
      "▁१९८": 7672,
      "आई.": 7673,
      "ాల్లో": 7674,
      "▁./श्रेणी:Harv\\_and\\_Sfn\\_no-target\\_errors\n7": 7675,
      "िल्ली](https://hi.wikipedia.org/wiki/द": 7676,
      "](https://hi.wikipedia.org/wiki/उर्दू": 7677,
      "▁notation": 7678,
      "वर्ल्ड": 7679,
      "శ్వా": 7680,
      "ूचना-विज्ञान": 7681,
      "▁Thomas": 7682,
      "ారిటీ": 7683,
      "▁पूर्वी": 7684,
      "▁अपना": 7685,
      "▁[↑](https://hi.wikipedia.org/wiki/भारत#cite_ref-FOOTNOTEStein1998": 7686,
      "-report": 7687,
      "▁\"Official": 7688,
      "గోళ": 7689,
      "▁across": 7690,
      "▁\"दिल्ली\")": 7691,
      "ड़ीसा": 7692,
      "▁माध्यम": 7693,
      "బడిన": 7694,
      "▁बहुमत": 7695,
      "त्यमेव": 7696,
      "▁Art": 7697,
      "తున్న": 7698,
      "న్నిక": 7699,
      "▁స్వాతంత్ర్య": 7700,
      "▁కాలంలో": 7701,
      "ministered": 7702,
      "कल_घ": 7703,
      "▁सुधार": 7704,
      ".net": 7705,
      "cat.org/": 7706,
      "▁थी।": 7707,
      "▁धरोहर": 7708,
      "▁इतिहास\")": 7709,
      "ంపి": 7710,
      "▁संगीत": 7711,
      "బెంగాల్": 7712,
      "▁शांति": 7713,
      "▁According": 7714,
      "हायक": 7715,
      "_एवं": 7716,
      "कटिबंधीय": 7717,
      "ెలవు": 7718,
      "▁नीति": 7719,
      "](https://te.wikipedia.org/wiki/భారతదేశంలో_": 7720,
      "ीपी)": 7721,
      "▁वार्षिक": 7722,
      "▁ऑफ": 7723,
      "रेलू_उत्पाद": 7724,
      "-India.pdf)": 7725,
      "▁अनुसंधान": 7726,
      "britannica.com/place": 7727,
      "▁सूचना-विज्ञान": 7728,
      "▁అధికారిక": 7729,
      "▁लेकर": 7730,
      "MetcalfMetcalf2012-26": 7731,
      "ఆర్ధిక": 7732,
      "▁मौसम": 7733,
      "▁పట్టణ": 7734,
      "▁विस्तृत": 7735,
      "ष्णकटिबंधीय": 7736,
      "▁కాశ్మీరు": 7737,
      "_सेना": 7738,
      "ంగ్లీషు": 7739,
      "▁लाख": 7740,
      "rajbhasha": 7741,
      "thehindu": 7742,
      "\\_कड़ियाँ": 7743,
      "▁अमेरिका": 7744,
      "▁అయిన": 7745,
      "▁రెండు": 7746,
      "ాల్దీవులు": 7747,
      "िन्धु-गंगा": 7748,
      "ట్రో": 7749,
      "ుల్తాన": 7750,
      "▁हालाँकि": 7751,
      "రాష్ట్రాలు,_కేంద్రపాలిత": 7752,
      "దినోత్సవం": 7753,
      "▁వ్యాసం:": 7754,
      "▁पहुँच": 7755,
      "_and_union_territories_of_India": 7756,
      "▁[भारत](https://hi.wikipedia.org/wiki/भारत)": 7757,
      "ార్లమెంట": 7758,
      "▁./వర్గం:Wikipedia\\_articles\\_with\\_": 7759,
      "▁2004](https://hi.wikipedia.org/wiki/भारत#CITEREFKulkeRothermund2004),": 7760,
      "▁ఏర్ప": 7761,
      "-language\\_sources\\_(en": 7762,
      "Mumbai_": 7763,
      "_map_en": 7764,
      "मूल्य": 7765,
      "ఆంధ్రప్రదేశ్": 7766,
      "లయాళ": 7767,
      "▁[राजस्थान](https://hi.wikipedia.org/wiki/राजस्थान": 7768,
      "▁\"राजस्थान\")": 7769,
      "▁similar": 7770,
      "▁हिल्स": 7771,
      "▁तुलना": 7772,
      "geohack": 7773,
      "▁प्रदेश](https://hi.wikipedia.org/wiki/मध्य_प्रदेश": 7774,
      "▁[उर्दू](https://hi.wikipedia.org/wiki/उर्दू": 7775,
      "data.worldbank.org/indicator": 7776,
      "िल्ली](https://hi.wikipedia.org/wiki/दिल्ली": 7777,
      "कल_घरेलू_उत्पाद": 7778,
      "రాష్ట్రాలు,_కేంద్రపాలిత_ప్రాంత": 7779,
      "*](https://www.": 7780,
      "*](https://web.archive.org/web/200": 7781,
      ",_India": 7782,
      "-II": 7783,
      "/)": 7784,
      "/M": 7785,
      "/news/": 7786,
      "0-0)": 7787,
      "223": 7788,
      "4_": 7789,
      "4-0": 7790,
      "8%": 7791,
      "8]](https://en.wikipedia.org/wiki/India#cite_note-": 7792,
      "AL": 7793,
      "BI": 7794,
      "Constituent": 7795,
      "K:": 7796,
      "Navy": 7797,
      "OV": 7798,
      "PT": 7799,
      "Zor": 7800,
      "_ci": 7801,
      "_21": 7802,
      "_con": 7803,
      "_2008": 7804,
      "aury": 7805,
      "audi": 7806,
      "bird": 7807,
      "cutt": 7808,
      "dministrative": 7809,
      "digenous": 7810,
      "ealand": 7811,
      "ful": 7812,
      "jha": 7813,
      "jayan": 7814,
      "lé": 7815,
      "mon": 7816,
      "pi": 7817,
      "pub": 7818,
      "sc": 7819,
      "s](https://en.wikipedia.org/wiki/": 7820,
      "sol": 7821,
      "spect": 7822,
      "water": 7823,
      "ypr": 7824,
      "आर": 7825,
      "क\")": 7826,
      "छि": 7827,
      "द्रा": 7828,
      "पूर्ण": 7829,
      "विक": 7830,
      "शी": 7831,
      "सर": 7832,
      "२.": 7833,
      "–11": 7834,
      "–Pakistan": 7835,
      "▁X": 7836,
      "▁७": 7837,
      "▁35": 7838,
      "▁times": 7839,
      "ora": 7840,
      "oram": 7841,
      "orary": 7842,
      "orse": 7843,
      "orne": 7844,
      ".wikidata": 7845,
      ".org/wiki/Q": 7846,
      "▁[Harle": 7847,
      "▁[लोक": 7848,
      "teri": 7849,
      "▁\"ची": 7850,
      "ining": 7851,
      "in-O": 7852,
      "anch": 7853,
      "though": 7854,
      "hili": 7855,
      "ers,": 7856,
      "ergy": 7857,
      "ardian": 7858,
      "alakrishnan": 7859,
      "alcutt": 7860,
      "ार्व": 7861,
      "isa": 7862,
      "ison": 7863,
      "istic": 7864,
      "isak": 7865,
      "tion,": 7866,
      "anding": 7867,
      "ito": 7868,
      "itor": 7869,
      "itchi": 7870,
      "▁(in": 7871,
      "▁(union": 7872,
      "▁(nominal)": 7873,
      "ought": 7874,
      "asar": 7875,
      "ases": 7876,
      "asian": 7877,
      "▁महा": 7878,
      "▁मिला": 7879,
      "▁India](https://en.wikipedia.org/wiki/P": 7880,
      "1967": 7881,
      "▁ins": 7882,
      "▁so": 7883,
      "▁sultanate": 7884,
      "▁small": 7885,
      "▁plate": 7886,
      "▁prin": 7887,
      "etnam": 7888,
      "ानी": 7889,
      "▁char": 7890,
      "▁cap": 7891,
      "aten": 7892,
      "▁Cynth": 7893,
      "▁Am": 7894,
      "agara": 7895,
      "▁Singh": 7896,
      "▁Schwartzberg": 7897,
      "▁Schedule": 7898,
      "▁trib": 7899,
      "▁band": 7900,
      "urg": 7901,
      "urasia": 7902,
      "urasian": 7903,
      "▁mark": 7904,
      "▁अछि": 7905,
      "heet": 7906,
      "_of_N": 7907,
      "ially": 7908,
      "cely": 7909,
      "▁2016.": 7910,
      "ilt": 7911,
      ".\n23": 7912,
      ".\n38": 7913,
      "ola": 7914,
      "olice": 7915,
      "▁दिल्ली": 7916,
      "emi": 7917,
      "emor": 7918,
      "▁Bharat": 7919,
      "mentin-O": 7920,
      "nific": 7921,
      "ignific": 7922,
      "ला\")": 7923,
      "▁प्रशास": 7924,
      "_(union_territory": 7925,
      "▁Desert": 7926,
      "▁\"Special:BookSources/978": 7927,
      "24_A7C": 7928,
      "▁[↑](https://en.wikipedia.org/wiki/India#cite_ref-3": 7929,
      "▁[↑](https://en.wikipedia.org/wiki/India#cite_ref-Combined": 7930,
      "▁eaten": 7931,
      "▁E.": 7932,
      "1999": 7933,
      "_in_T": 7934,
      "forest": 7935,
      "_Ag": 7936,
      "elug": 7937,
      "पुत्र": 7938,
      "aks": 7939,
      "▁three": 7940,
      "abour": 7941,
      "](https://en.wikipedia.org/wiki/India#CITEREFCraven1997": 7942,
      "▁198": 7943,
      "▁1970": 7944,
      "▁1971": 7945,
      "▁[Sri": 7946,
      "29)": 7947,
      "▁Journal": 7948,
      "ained": 7949,
      "▁[\"M": 7950,
      "epali": 7951,
      "40.": 7952,
      "27.": 7953,
      "▁संयुक्त": 7954,
      "▁\"Ch": 7955,
      "conomist": 7956,
      "▁L.": 7957,
      "▁London": 7958,
      "ected": 7959,
      "▁Organisation": 7960,
      "▁Olymp": 7961,
      "ension": 7962,
      "-981": 7963,
      "16]](https://en.wikipedia.org/wiki/India#cite_note-": 7964,
      "](https://en.wikipedia.org/wiki/Ch": 7965,
      "](https://en.wikipedia.org/wiki/Climate_": 7966,
      "laci": 7967,
      "dog": 7968,
      "Harvard": 7969,
      ".gov.": 7970,
      "](Special:BookSources/": 7971,
      "](Special:BookSources/978": 7972,
      "▁[↑](https://en.wikipedia.org/wiki/India#cite_ref-FOOTNOTECraven1997": 7973,
      "-2](Special:BookSources/978-1": 7974,
      "▁[Mughal": 7975,
      "ysis": 7976,
      "](https://mai.wikipedia.org/wiki/क": 7977,
      "artial": 7978,
      "_Mahal": 7979,
      "alled": 7980,
      "▁original](http://www.": 7981,
      ")\n\nA": 7982,
      ")\n\nIndia": 7983,
      "2006),": 7984,
      "temporary": 7985,
      "मी2": 7986,
      "39-4": 7987,
      "▁*[B": 7988,
      "sey": 7989,
      "▁\"East": 7990,
      "▁\"Economic": 7991,
      "▁१५": 7992,
      "_Nations": 7993,
      "_National_P": 7994,
      "](https://en.wikipedia.org/wiki/Economic": 7995,
      "_Games": 7996,
      "ible": 7997,
      "▁[978-0-19-9": 7998,
      "▁[978-0-521-80904-7": 7999,
      "ultures": 8000,
      "▁\"Russia": 8001,
      "](https://en.wikipedia.org/wiki/Russia": 8002,
      "▁[Russia": 8003,
      "▁\"Special:BookSources/978-0-19-9": 8004,
      "](Special:BookSources/978-0-19-9": 8005,
      "▁\"पूर्वी": 8006,
      "egional": 8007,
      "▁हिस्": 8008,
      "](https://en.wikipedia.org/wiki/International": 8009,
      "▁(2016).": 8010,
      "▁subject": 8011,
      "ervice": 8012,
      "58)": 8013,
      "▁rights": 8014,
      "_Indian_subcontinent": 8015,
      "्वरूप": 8016,
      "▁./Category:Articles\\_contain": 8017,
      "_relations": 8018,
      "▁2023.": 8019,
      "▁2023](https://en.wikipedia.org/wiki/India#CITEREF": 8020,
      "ppines": 8021,
      "ortality": 8022,
      "crimin": 8023,
      "oastrian": 8024,
      "ample": 8025,
      "▁music\")": 8026,
      "ujarati": 8027,
      "▁about": 8028,
      "▁common": 8029,
      "▁diversity": 8030,
      "ID-19": 8031,
      "▁election\"),": 8032,
      "_of_the_": 8033,
      "Vijayan": 8034,
      "Vietnam": 8035,
      "▁traditional": 8036,
      "▁well": 8037,
      "aharasht": 8038,
      "▁mathematic": 8039,
      "Harle1994),": 8040,
      "IAF": 8041,
      "_Shankar": 8042,
      "rmy": 8043,
      "▁longer": 8044,
      "▁highest": 8045,
      "भरत": 8046,
      ".svg/40px-": 8047,
      "▁player": 8048,
      "Robb2011": 8049,
      "hanghai": 8050,
      "ilies": 8051,
      "lectri": 8052,
      "olden_Temple": 8053,
      "-language\\_text": 8054,
      "default": 8055,
      "anoram": 8056,
      "otsp": 8057,
      "▁Publishing\").": 8058,
      "aurya": 8059,
      ".svg.png)](File:": 8060,
      "izoram": 8061,
      "▁Europe*](https://books.google.com/books?id=": 8062,
      "▁२०११": 8063,
      "▁contribu": 8064,
      "▁colleges": 8065,
      "▁popular": 8066,
      "67733-7": 8067,
      "ichell2000": 8068,
      "_Air_Force": 8069,
      "406]](https://en.wikipedia.org/wiki/India#cite_note-vatsyayan-lord-432)": 8070,
      "kbar": 8071,
      "▁kingdoms": 8072,
      "▁following": 8073,
      "do-Gangetic": 8074,
      "ataraja": 8075,
      "▁emerged": 8076,
      "▁approxim": 8077,
      "IFTY": 8078,
      "▁दृष्टि": 8079,
      "](https://www.wikidata": 8080,
      "▁divisions": 8081,
      "▁legis": 8082,
      "▁1994](https://en.wikipedia.org/wiki/India#CITEREFHarle1994),": 8083,
      "touchability": 8084,
      "wait": 8085,
      "8+5": 8086,
      "▁festival": 8087,
      "▁\"China\")": 8088,
      "▁developed": 8089,
      "▁1997](https://en.wikipedia.org/wiki/India#CITEREFCraven1997": 8090,
      "hristianity": 8091,
      "OVID-19": 8092,
      "Zoroastrian": 8093,
      "lémentin-O": 8094,
      "yprus": 8095,
      "hilippines": 8096,
      "alcutta": 8097,
      "itchison": 8098,
      "▁Cynthia": 8099,
      "_(union_territory)": 8100,
      "_National_Park": 8101,
      "Vijayanagara": 8102,
      "aharashtra": 8103,
      "](https://www.wikidata.org/wiki/Q": 8104,
      "▁1997](https://en.wikipedia.org/wiki/India#CITEREFCraven1997),": 8105,
      "lémentin-Ojha": 8106,
      "#P": 8107,
      "-H": 8108,
      "-for": 8109,
      "-24)": 8110,
      "/india/": 8111,
      "1%20": 8112,
      "520": 8113,
      "528": 8114,
      "613": 8115,
      "96": 8116,
      "CCN": 8117,
      "DR": 8118,
      "Flag_of_India": 8119,
      "RA": 8120,
      "Sanskrit": 8121,
      "Web": 8122,
      "_he": 8123,
      "_ex": 8124,
      "bd": 8125,
      "culture": 8126,
      "gi": 8127,
      "p.org/": 8128,
      "post": 8129,
      "y=": 8130,
      "}}": 8131,
      "नि": 8132,
      "ोडिया": 8133,
      "▁ईस्ट": 8134,
      "g/250px-": 8135,
      "▁[28": 8136,
      "▁[चीन": 8137,
      "arv": 8138,
      "2020": 8139,
      "▁क्रम": 8140,
      "ispu": 8141,
      "▁(J": 8142,
      "ica": 8143,
      "▁India\"](https://": 8144,
      "रान": 8145,
      "ations/": 8146,
      "▁Chin": 8147,
      "\\_template": 8148,
      "urmu": 8149,
      "▁Portal": 8150,
      "▁12.": 8151,
      "roduct": 8152,
      "▁Mana": 8153,
      "▁Mani": 8154,
      "▁Britannica": 8155,
      "▁Barb": 8156,
      "▁Bengali": 8157,
      "▁बि": 8158,
      "240": 8159,
      "▁Gana": 8160,
      "113": 8161,
      "▁2002": 8162,
      "स्‍": 8163,
      "▁Ludden": 8164,
      "135": 8165,
      "laim": 8166,
      "ordin": 8167,
      "%2C_A": 8168,
      "%2C_M": 8169,
      "▁History*](https://books.google.com/books?id=": 8170,
      "IND": 8171,
      "roupadi": 8172,
      "puri": 8173,
      "%E0%A5%": 8174,
      "/countries/": 8175,
      "34238": 8176,
      "68–": 8177,
      "▁Present": 8178,
      "▁28.": 8179,
      "aedia": 8180,
      "ause": 8181,
      "11934238": 8182,
      "url=": 8183,
      "वासी": 8184,
      "arathi": 8185,
      "▁dispute": 8186,
      "cyclopaedia": 8187,
      "_तथा": 8188,
      "s.com/": 8189,
      "_पार्टी": 8190,
      "▁Ludden,": 8191,
      "%,": 8192,
      "-hind": 8193,
      "0/": 8194,
      "2-7": 8195,
      "623": 8196,
      "6-9": 8197,
      "CA": 8198,
      "G20": 8199,
      "Republic": 8200,
      "b/b": 8201,
      "ize": 8202,
      "lc": 8203,
      "rance": 8204,
      "vanced": 8205,
      "फगान": 8206,
      "बन": 8207,
      "मस": 8208,
      "मिर": 8209,
      "रिया\")": 8210,
      "–29": 8211,
      "▁ter": 8212,
      "▁70": 8213,
      "people": 8214,
      "onal": 8215,
      "thme": 8216,
      "Indian_": 8217,
      "्रु": 8218,
      "्रिस": 8219,
      "भारत\nCategory:": 8220,
      "▁India](https://en.wikipedia.org/wiki/D": 8221,
      "▁inequality": 8222,
      "▁sec": 8223,
      "▁size": 8224,
      "ation)": 8225,
      "▁Council": 8226,
      "▁Ag": 8227,
      "▁Age": 8228,
      "▁Ste": 8229,
      "▁Sikh": 8230,
      "▁ful": 8231,
      "\n\n**": 8232,
      "ficient": 8233,
      "▁2015.": 8234,
      "▁India\")*.": 8235,
      "▁2000": 8236,
      "▁2009.": 8237,
      "_President_of_India": 8238,
      "▁[Ar": 8239,
      "▁Library": 8240,
      "ummary": 8241,
      ")[[13": 8242,
      "▁[BRICS": 8243,
      "▁\"BRICS": 8244,
      "_Mar": 8245,
      "▁II": 8246,
      "7080": 8247,
      "▁\"Th": 8248,
      "39)": 8249,
      "▁\"New": 8250,
      "333": 8251,
      "▁provid": 8252,
      "iterature": 8253,
      "\"](https://web.archive.org/web/20140": 8254,
      "▁(2019).": 8255,
      "efence": 8256,
      "data.bnf.fr/ark:/12148/cb": 8257,
      "atter": 8258,
      "edicine": 8259,
      "▁above": 8260,
      "ustralian": 8261,
      "▁निर्भर": 8262,
      "िस्तान\")": 8263,
      "▁2022.\n": 8264,
      ".php": 8265,
      "Ludden200": 8266,
      ".com/news/world": 8267,
      "▁Himalayas": 8268,
      "ogue.bnf.fr/ark:/12148/cb": 8269,
      "istorical": 8270,
      "atabase": 8271,
      "▁continu": 8272,
      "](https://id.": 8273,
      ".edu/": 8274,
      "▁`|": 8275,
      "▁adopted": 8276,
      "profile": 8277,
      "thmetic": 8278,
      "्रिसमस": 8279,
      "#S": 8280,
      "-Y": 8281,
      "-v": 8282,
      "-ve": 8283,
      ".1.": 8284,
      ".JPG": 8285,
      "0/0": 8286,
      "0&s": 8287,
      "2-9": 8288,
      "3%": 8289,
      "310": 8290,
      "314": 8291,
      "478": 8292,
      "5.pdf)": 8293,
      "728": 8294,
      "7)[[": 8295,
      "748": 8296,
      "Curry": 8297,
      "Copland": 8298,
      "DS": 8299,
      "Ge": 8300,
      "Gum": 8301,
      "Garg": 8302,
      "HQ": 8303,
      "Kumar": 8304,
      "L.": 8305,
      "R_": 8306,
      "SE": 8307,
      "Special:": 8308,
      "Search": 8309,
      "Template": 8310,
      "Tritsch": 8311,
      "US": 8312,
      "YS": 8313,
      "Yum": 8314,
      "Young": 8315,
      "[https": 8316,
      "_Z": 8317,
      "_te": 8318,
      "_वि": 8319,
      "_sh": 8320,
      "_di": 8321,
      "_art": 8322,
      "_se": 8323,
      "_వి": 8324,
      "_2009": 8325,
      "_2004": 8326,
      "_2007": 8327,
      "_val": 8328,
      "_కాశ్మీ": 8329,
      "_monsoon": 8330,
      "a](https://en.wikipedia.org/wiki/A": 8331,
      "aze": 8332,
      "aidy": 8333,
      "cia": 8334,
      "dhy": 8335,
      "d=20": 8336,
      "fos": 8337,
      "ggle": 8338,
      "gions": 8339,
      "hak": 8340,
      "io": 8341,
      "iosphere": 8342,
      "jol": 8343,
      "k-e": 8344,
      "lla": 8345,
      "mc": 8346,
      "mt": 8347,
      "nus": 8348,
      "nins": 8349,
      "oin": 8350,
      "oal": 8351,
      "ochi": 8352,
      "oint": 8353,
      "ride": 8354,
      "tripura": 8355,
      "uff": 8356,
      "vin": 8357,
      "vara": 8358,
      "yr": 8359,
      "zard": 8360,
      "ædia": 8361,
      "ंज़": 8362,
      "ंमार": 8363,
      "अतुल्य": 8364,
      "इतिहास": 8365,
      "उद्यान": 8366,
      "ऋग्व": 8367,
      "ओआई": 8368,
      "कु": 8369,
      "क्रम": 8370,
      "कृष्ण": 8371,
      "क\\_पृष्ठसभ": 8372,
      "घा": 8373,
      "घाट": 8374,
      "जवा": 8375,
      "टन": 8376,
      "टा": 8377,
      "ठा": 8378,
      "ठार": 8379,
      "णे": 8380,
      "तः": 8381,
      "थुरा": 8382,
      "दून": 8383,
      "दयपुर": 8384,
      "धता": 8385,
      "धोला": 8386,
      "नै": 8387,
      "नजं": 8388,
      "निवेश": 8389,
      "पीप": 8390,
      "बौ": 8391,
      "मोर": 8392,
      "यण": 8393,
      "रत": 8394,
      "ल-": 8395,
      "लेशिया": 8396,
      "वर": 8397,
      "व\")": 8398,
      "वरा": 8399,
      "वरण": 8400,
      "शहरा": 8401,
      "सित": 8402,
      "़तर": 8403,
      "ाई": 8404,
      "ाग": 8405,
      "ेख": 8406,
      "ेज": 8407,
      "ेहरा": 8408,
      "ैम्ब": 8409,
      "ोढ़": 8410,
      "ोसी": 8411,
      "ोटे": 8412,
      "ोवियत": 8413,
      "ोबार": 8414,
      "्मार": 8415,
      "२०१": 8416,
      "४०": 8417,
      "ంస్కృ": 8418,
      "ఉత్తరా": 8419,
      "ఖో": 8420,
      "ఘాలయ": 8421,
      "చ్": 8422,
      "టై": 8423,
      "టర్": 8424,
      "డమ్": 8425,
      "డఖ్": 8426,
      "ణే": 8427,
      "ణంగా": 8428,
      "తే": 8429,
      "తెల": 8430,
      "దరంగ": 8431,
      "నో": 8432,
      "నంద": 8433,
      "బర్": 8434,
      "బార్": 8435,
      "యె": 8436,
      "రె": 8437,
      "లడఖ్": 8438,
      "ళా": 8439,
      "ళి": 8440,
      "శు": 8441,
      "హించ": 8442,
      "ుకు": 8443,
      "ెన్న": 8444,
      "ెట్రో": 8445,
      "ేతి": 8446,
      "ేఘాలయ": 8447,
      "ైనిక": 8448,
      "ొగలు": 8449,
      "ోళ": 8450,
      "‌కా": 8451,
      "‌మహ": 8452,
      "▁x": 8453,
      "▁y": 8454,
      "▁ढ": 8455,
      "▁६": 8456,
      "▁८": 8457,
      "▁ఐ": 8458,
      "▁ఖ": 8459,
      "▁er": 8460,
      "▁enti": 8461,
      "▁go": 8462,
      "▁op": 8463,
      "▁rit": 8464,
      "▁–సా.శ.": 8465,
      "▁భారతీయ": 8466,
      "▁भाजपा": 8467,
      "▁very": 8468,
      "kid=20": 8469,
      "orbe": 8470,
      "ttac": 8471,
      "▁[ना": 8472,
      "▁[का": 8473,
      "▁[धर्म": 8474,
      "▁[రాష్ట్ర": 8475,
      "▁[జన": 8476,
      "▁[గో": 8477,
      "▁[विश्व": 8478,
      "▁[...]": 8479,
      "enced": 8480,
      "▁\"Y": 8481,
      "▁\"ख": 8482,
      "▁\"పా": 8483,
      "▁\"జన": 8484,
      "▁\"గో": 8485,
      "▁\"మూస:": 8486,
      "▁\"Hinduism": 8487,
      "▁\"हैदराबाद": 8488,
      "▁\"ISO": 8489,
      "anal": 8490,
      "Infos": 8491,
      "thang": 8492,
      "thura": 8493,
      "th_East_Asia_Summit": 8494,
      "til": 8495,
      "hic": 8496,
      "hip": 8497,
      "hiv": 8498,
      "erce": 8499,
      "arc": 8500,
      "arayan": 8501,
      "algh": 8502,
      "ारा": 8503,
      "](https://hi.wikipedia.org/wiki/श": 8504,
      "](https://hi.wikipedia.org/wiki/पु": 8505,
      "](https://hi.wikipedia.org/wiki/सा": 8506,
      "](https://hi.wikipedia.org/wiki/चीन": 8507,
      "](https://hi.wikipedia.org/wiki/विश्व": 8508,
      "](https://hi.wikipedia.org/wiki/राष्ट्रीय_स": 8509,
      "▁कंपन": 8510,
      "▁क्रांति": 8511,
      "्रिज": 8512,
      "भारत_के_राज्य": 8513,
      "andoor": 8514,
      "andemic": 8515,
      "oms": 8516,
      "omic": 8517,
      "edary": 8518,
      "▁सर्वोच्च": 8519,
      "▁सहायक": 8520,
      "ital": 8521,
      "▁(2010": 8522,
      "▁(2003": 8523,
      "▁(अभिज्ञापक": 8524,
      "asu": 8525,
      "▁माना": 8526,
      "▁मशीन": 8527,
      "▁महारजिस्ट्रार": 8528,
      "▁India](https://en.wikipedia.org/wiki/E": 8529,
      "▁India\".": 8530,
      "19-1": 8531,
      "ooking": 8532,
      "▁institu": 8533,
      "nold": 8534,
      "रामा": 8535,
      "▁पी": 8536,
      "▁पू": 8537,
      "▁पत्र": 8538,
      "▁पब्ल": 8539,
      "▁परीक्षण": 8540,
      "](https://te.wikipedia.org/wiki/భారతదేశ": 8541,
      "](https://te.wikipedia.org/wiki/గో": 8542,
      "](https://te.wikipedia.org/wiki/మూస:": 8543,
      "entin": 8544,
      "▁shar": 8545,
      "▁science": 8546,
      "▁series": 8547,
      "▁signific": 8548,
      "▁pred": 8549,
      "▁poli": 8550,
      "atel": 8551,
      "ateway": 8552,
      "ानक": 8553,
      "ారస్వ": 8554,
      "ing)": 8555,
      "ingle": 8556,
      "am/": 8557,
      "amaj": 8558,
      "▁constitution": 8559,
      "▁coast": 8560,
      "▁cricket": 8561,
      "▁coral": 8562,
      "▁cultural": 8563,
      "ush": 8564,
      "usion": 8565,
      "atpura": 8566,
      "▁Cup": 8567,
      "▁Caves": 8568,
      "▁Amb": 8569,
      "ago": 8570,
      "agle": 8571,
      "agran": 8572,
      "agogue": 8573,
      "agwat": 8574,
      "▁हर": 8575,
      "▁हव": 8576,
      "\\_मा": 8577,
      "acter": 8578,
      "▁Some": 8579,
      "▁SCO": 8580,
      "▁Studies": 8581,
      "▁fl": 8582,
      "▁flow": 8583,
      "▁feat": 8584,
      "angra": 8585,
      "angla": 8586,
      "angrove": 8587,
      "ads": 8588,
      "adav": 8589,
      "78)": 8590,
      "\n\nభారతదేశం": 8591,
      "▁bas": 8592,
      "▁bread": 8593,
      "▁border": 8594,
      "▁birth": 8595,
      "यास": 8596,
      "urther": 8597,
      "urned": 8598,
      "urvey": 8599,
      "िकेश": 8600,
      "िकास": 8601,
      "िकोबार": 8602,
      "ాలె": 8603,
      "▁met": 8604,
      "▁may": 8605,
      "▁Puran": 8606,
      "istence": 8607,
      "▁अब": 8608,
      "▁अमीरात": 8609,
      "▁अलावा": 8610,
      "▁में).": 8611,
      "_of_P": 8612,
      "chae": 8613,
      "roti": 8614,
      "roban": 8615,
      "ों_और": 8616,
      "▁2013.": 8617,
      "uns": 8618,
      "unbird": 8619,
      "స్ట": 8620,
      "స్\")": 8621,
      "స్వాతంత్ర్య": 8622,
      "▁won": 8623,
      "▁dances": 8624,
      "▁dynast": 8625,
      "]](https://en.wikipedia.org/wiki/India#cite_note-Dyson2018": 8626,
      "ाली\")": 8627,
      "▁जाना": 8628,
      "▁जहाँ": 8629,
      "▁పర": 8630,
      "▁పండు": 8631,
      "lines": 8632,
      "linkid=20": 8633,
      ".\n17": 8634,
      "▁Mughal": 8635,
      "▁दर्": 8636,
      "tices": 8637,
      "▁today": 8638,
      "rested": 8639,
      "▁Bangladesh": 8640,
      "ni_M": 8641,
      "▁बह": 8642,
      "▁ब्यूरो": 8643,
      "25.": 8644,
      "ंगोल": 8645,
      "▁प्रत्य": 8646,
      "▁प्रयास": 8647,
      "_(अभिज्ञापक": 8648,
      "तिरु": 8649,
      "▁की।": 8650,
      "iris": 8651,
      "▁Des": 8652,
      "▁निर": 8653,
      "▁\"Sri": 8654,
      "indoor": 8655,
      "independ": 8656,
      "ताम": 8657,
      "▁[↑](https://en.wikipedia.org/wiki/India#cite_ref-35": 8658,
      "లు](https://te.wikipedia.org/wiki/": 8659,
      "▁epic": 8660,
      "▁earliest": 8661,
      "రాన్": 8662,
      "రాస్య": 8663,
      "▁Emi": 8664,
      "_SCO": 8665,
      "_School": 8666,
      "_Sindoor": 8667,
      "स्तिकता": 8668,
      "▁\"भारतक": 8669,
      "▁however,": 8670,
      "_in_M": 8671,
      "▁वीं": 8672,
      "▁वाला": 8673,
      "romedary": 8674,
      "▁కే": 8675,
      "▁కోర్": 8676,
      "▁आप": 8677,
      "▁आया": 8678,
      "▁आयुक्त": 8679,
      "▁आदि": 8680,
      "ास्": 8681,
      "త్రిక": 8682,
      "_Arab": 8683,
      "ell": 8684,
      "elta": 8685,
      "ellion": 8686,
      "rynus": 8687,
      "క్స్": 8688,
      "క్కి": 8689,
      "▁तीन": 8690,
      "▁వె": 8691,
      "▁వంట": 8692,
      "akar": 8693,
      "ables": 8694,
      "abhad": 8695,
      "ishes": 8696,
      "माख्या": 8697,
      "est_B": 8698,
      "▁nuclear": 8699,
      "oder": 8700,
      "oday": 8701,
      "ంగో": 8702,
      "▁Food": 8703,
      "▁సముద్ర": 8704,
      "▁సూచ": 8705,
      "▁సౌక": 8706,
      ".[[4": 8707,
      ".[[28": 8708,
      "▁उन्": 8709,
      "▁उच्च": 8710,
      "_Per": 8711,
      "_Publishing": 8712,
      "▁पर्यटन\")": 8713,
      "్రామ": 8714,
      "im_C": 8715,
      "▁Intelligence": 8716,
      "▁[मराठ": 8717,
      "AAAAMAAJ": 8718,
      "_1.1.": 8719,
      "os/": 8720,
      "▁\"Chola": 8721,
      "▁[Andaman": 8722,
      "▁growing": 8723,
      "_केन्द्र": 8724,
      "](https://en.wikipedia.org/wiki/Sri": 8725,
      "](https://en.wikipedia.org/wiki/Sanskrit": 8726,
      "िलों": 8727,
      "ండా": 8728,
      "ండీ": 8729,
      "ండ్య": 8730,
      "▁विषय": 8731,
      "▁विभाजन": 8732,
      "▁विभिन्न": 8733,
      "म्न": 8734,
      "_Cons": 8735,
      "_Co-operation": 8736,
      "-9](Special:BookSources/978-0-": 8737,
      "15)": 8738,
      "्यांमार": 8739,
      "api": 8740,
      "aproban": 8741,
      "▁Kum": 8742,
      "ियम": 8743,
      "](https://books.google.com/books?id=ZvaGuaJIJgoC&pg=PA": 8744,
      "](https://books.google.com/books?id=kZVuDwAAQBAJ&pg=PA": 8745,
      "▁[Ch": 8746,
      "తాజ్": 8747,
      "నాథ": 8748,
      "ot:": 8749,
      "uck": 8750,
      "సింది.": 8751,
      "త్వా": 8752,
      "▁[↑](https://en.wikipedia.org/wiki/India#cite_ref-FOOTNOTEDikshitSchwartzberg2023": 8753,
      "-2](Special:BookSources/978-0-": 8754,
      "ajya": 8755,
      "▁(సా.శ.16": 8756,
      "▁(సా.శ.17": 8757,
      "िसी": 8758,
      "ysHQ": 8759,
      "▁साक्षरता": 8760,
      "ులు?action=edit&redlink=1": 8761,
      "-526": 8762,
      "](https://mai.wikipedia.org/wiki/अ": 8763,
      "](https://mai.wikipedia.org/wiki/स": 8764,
      "▁అభి": 8765,
      "▁[Bangladesh": 8766,
      "पावा": 8767,
      "पाषाण": 8768,
      "1.asp?": 8769,
      "मनिरपेक्ष": 8770,
      "▁ప్రజా": 8771,
      "earning": 8772,
      "allalli": 8773,
      "తం?action=edit&redlink=1": 8774,
      "384": 8775,
      "▁\"Andaman": 8776,
      "▁\"Pakistan": 8777,
      "ी\")\n-": 8778,
      "anathan": 8779,
      "lands": 8780,
      "हाई": 8781,
      "हाजन": 8782,
      ")\n\n[": 8783,
      "oreign_": 8784,
      "▁[↑](https://hi.wikipedia.org/wiki/भारत#cite_ref-5": 8785,
      "](https://en.wikipedia.org/wiki/Pakistan": 8786,
      "मीन": 8787,
      "పూర్": 8788,
      "▁करते": 8789,
      "anies": 8790,
      "ప్రిల్": 8791,
      "irelease.aspx?rel": 8792,
      "द्दाख": 8793,
      "ociated": 8794,
      "▁ఉంట": 8795,
      "▁ఉత్తర": 8796,
      "▁\"Ethnic": 8797,
      "erala\")": 8798,
      "%2C_S": 8799,
      "▁१३": 8800,
      "▁anim": 8801,
      "▁defe": 8802,
      "](https://en.wikipedia.org/wiki/Ethnic": 8803,
      "▁సామా": 8804,
      "వాద": 8805,
      "▁rul": 8806,
      "▁\"सिक्किम": 8807,
      "విధ": 8808,
      "ార్ఖండ్": 8809,
      "▁Hindust": 8810,
      "ंदिरा": 8811,
      "ंत्रिक": 8812,
      "క్షరాస్య": 8813,
      "▁[सिक्किम": 8814,
      "_Goa": 8815,
      "enguin": 8816,
      "MetcalfMetcalf201": 8817,
      "stan\")": 8818,
      "जनगणना": 8819,
      "नीताल": 8820,
      "▁खास": 8821,
      "द्यनाथ": 8822,
      "▁\"बांग्ला": 8823,
      "▁[Dikshit": 8824,
      "nathura": 8825,
      "ports/": 8826,
      "त्स": 8827,
      "▁चल": 8828,
      "▁[En": 8829,
      "▁[East": 8830,
      "▁[European": 8831,
      "▁[बांग्ला": 8832,
      "तीस": 8833,
      "పుర": 8834,
      "▁నడి": 8835,
      "▁[Robb": 8836,
      "acher": 8837,
      "▁ఇండియా": 8838,
      "_and_Kashmir": 8839,
      "](https://hi.wikipedia.org/wiki/सिक्किम": 8840,
      "athura": 8841,
      "▁इसकी": 8842,
      "िवार": 8843,
      "र्थन": 8844,
      "▁[Kerala": 8845,
      "▁समर्थन": 8846,
      "▁peoples": 8847,
      "▁penins": 8848,
      "ruggle": 8849,
      "फ़्रीका": 8850,
      "](https://hi.wikipedia.org/wiki/बांग्ला": 8851,
      "मिलन": 8852,
[...]
