{
  "version": "1.0",
  "truncation": null,
  "padding": null,
  "added_tokens": [
    {
      "id": 0,
      "content": "[UNK]",
      "single_word": false,
      "lstrip": false,
      "rstrip": false,
      "normalized": false,
      "special": true
    }
  ],
  "normalizer": {
    "type": "NFKC"
  },
  "pre_tokenizer": {
    "type": "Metaspace",
    "replacement": "▁",
    "prepend_scheme": "never",
    "split": true
  },
  "post_processor": null,
  "decoder": {
    "type": "Metaspace",
    "replacement": "▁",
    "prepend_scheme": "never",
    "split": true
  },
  "model": {
    "type": "BPE",
    "dropout": null,
    "unk_token": "[UNK]",
    "continuing_subword_prefix": null,
    "end_of_word_suffix": null,
    "fuse_unk": false,
    "byte_fallback": false,
    "ignore_merges": false,
    "vocab": {
      "[UNK]": 0,
      "\n": 1,
      "!": 2,
      "\"": 3,
      "#": 4,
      "$": 5,
      "%": 6,
      "&": 7,
      "'": 8,
      "(": 9,
      ")": 10,
      "*": 11,
      "+": 12,
      ",": 13,
      "-": 14,
      ".": 15,
      "/": 16,
      "0": 17,
      "1": 18,
      "2": 19,
      "3": 20,
      "4": 21,
      "5": 22,
      "6": 23,
      "7": 24,
      "8": 25,
      "9": 26,
      ":": 27,
      ";": 28,
      "<": 29,
      "=": 30,
      ">": 31,
      "?": 32,
      "A": 33,
      "B": 34,
      "C": 35,
      "D": 36,
      "E": 37,
      "F": 38,
      "G": 39,
      "H": 40,
      "I": 41,
      "J": 42,
      "K": 43,
      "L": 44,
      "M": 45,
      "N": 46,
      "O": 47,
      "P": 48,
      "Q": 49,
      "R": 50,
      "S": 51,
      "T": 52,
      "U": 53,
      "V": 54,
      "W": 55,
      "X": 56,
      "Y": 57,
      "Z": 58,
      "[": 59,
      "\\": 60,
      "]": 61,
      "^": 62,
      "_": 63,
      "`": 64,
      "a": 65,
      "b": 66,
      "c": 67,
      "d": 68,
      "e": 69,
      "f": 70,
      "g": 71,
      "h": 72,
      "i": 73,
      "j": 74,
      "k": 75,
      "l": 76,
      "m": 77,
      "n": 78,
      "o": 79,
      "p": 80,
      "q": 81,
      "r": 82,
      "s": 83,
      "t": 84,
      "u": 85,
      "v": 86,
      "w": 87,
      "x": 88,
      "y": 89,
      "z": 90,
      "{": 91,
      "|": 92,
      "}": 93,
      "~": 94,
      "°": 95,
      "·": 96,
      "Ö": 97,
      "á": 98,
      "â": 99,
      "æ": 100,
      "ç": 101,
      "è": 102,
      "é": 103,
      "í": 104,
      "ñ": 105,
      "ö": 106,
      "ü": 107,
      "ā": 108,
      "ī": 109,
      "İ": 110,
      "Ś": 111,
      "ś": 112,
      "ū": 113,
      "ș": 114,
      "ə": 115,
      "ɦ": 116,
      "ɪ": 117,
      "ɾ": 118,
      "ʊ": 119,
      "ʼ": 120,
      "ˈ": 121,
      "ː": 122,
      "ί": 123,
      "α": 124,
      "δ": 125,
      "θ": 126,
      "ν": 127,
      "π": 128,
      "ς": 129,
      "ό": 130,
      "ँ": 131,
      "ं": 132,
      "ः": 133,
      "अ": 134,
      "आ": 135,
      "इ": 136,
      "ई": 137,
      "उ": 138,
      "ऊ": 139,
      "ऋ": 140,
      "ऍ": 141,
      "ए": 142,
      "ऐ": 143,
      "ऑ": 144,
      "ओ": 145,
      "औ": 146,
      "क": 147,
      "ख": 148,
      "ग": 149,
      "घ": 150,
      "ङ": 151,
      "च": 152,
      "छ": 153,
      "ज": 154,
      "झ": 155,
      "ञ": 156,
      "ट": 157,
      "ठ": 158,
      "ड": 159,
      "ढ": 160,
      "ण": 161,
      "त": 162,
      "थ": 163,
      "द": 164,
      "ध": 165,
      "न": 166,
      "ऩ": 167,
      "प": 168,
      "फ": 169,
      "ब": 170,
      "भ": 171,
      "म": 172,
      "य": 173,
      "र": 174,
      "ल": 175,
      "ळ": 176,
      "व": 177,
      "श": 178,
      "ष": 179,
      "स": 180,
      "ह": 181,
      "ऻ": 182,
      "़": 183,
      "ऽ": 184,
      "ा": 185,
      "ि": 186,
      "ी": 187,
      "ु": 188,
      "ू": 189,
      "ृ": 190,
      "े": 191,
      "ै": 192,
      "ॉ": 193,
      "ॊ": 194,
      "ो": 195,
      "ौ": 196,
      "्": 197,
      "॔": 198,
      "।": 199,
      "०": 200,
      "१": 201,
      "२": 202,
      "३": 203,
      "४": 204,
      "५": 205,
      "६": 206,
      "७": 207,
      "८": 208,
      "९": 209,
      "॰": 210,
      "ం": 211,
      "ః": 212,
      "అ": 213,
      "ఆ": 214,
      "ఇ": 215,
      "ఈ": 216,
      "ఉ": 217,
      "ఋ": 218,
      "ఎ": 219,
      "ఏ": 220,
      "ఐ": 221,
      "ఒ": 222,
      "ఓ": 223,
      "ఔ": 224,
      "క": 225,
      "ఖ": 226,
      "గ": 227,
      "ఘ": 228,
      "చ": 229,
      "ఛ": 230,
      "జ": 231,
      "ఞ": 232,
      "ట": 233,
      "ఠ": 234,
      "డ": 235,
      "ఢ": 236,
      "ణ": 237,
      "త": 238,
      "థ": 239,
      "ద": 240,
      "ధ": 241,
      "న": 242,
      "ప": 243,
      "ఫ": 244,
      "బ": 245,
      "భ": 246,
      "మ": 247,
      "య": 248,
      "ర": 249,
      "ల": 250,
      "ళ": 251,
      "వ": 252,
      "శ": 253,
      "ష": 254,
      "స": 255,
      "హ": 256,
      "ా": 257,
      "ి": 258,
      "ీ": 259,
      "ు": 260,
      "ూ": 261,
      "ృ": 262,
      "ె": 263,
      "ే": 264,
      "ై": 265,
      "ొ": 266,
      "ో": 267,
      "ౌ": 268,
      "్": 269,
      "ṅ": 270,
      "ṇ": 271,
      "Ṛ": 272,
      "ṣ": 273,
      "ṭ": 274,
      "Ἰ": 275,
      "‌": 276,
      "‍": 277,
      "‎": 278,
      "–": 279,
      "—": 280,
      "‘": 281,
      "’": 282,
      "“": 283,
      "”": 284,
      "†": 285,
      "•": 286,
      "′": 287,
      "‹": 288,
      "›": 289,
      "⁡": 290,
      "₹": 291,
      "↑": 292,
      "−": 293,
      "▁": 294,
      "﻿": 295,
      "wi": 296,
      "ki": 297,
      "wiki": 298,
      "ia": 299,
      "dia": 300,
      "or": 301,
      "tt": 302,
      "](": 303,
      ":/": 304,
      "htt": 305,
      "http": 306,
      "pe": 307,
      "://": 308,
      "https": 309,
      "https://": 310,
      "](https://": 311,
      "g/": 312,
      ".or": 313,
      ".org/": 314,
      "pedia": 315,
      ".wiki": 316,
      ".org/wiki": 317,
      ".org/wiki/": 318,
      ".wikipedia": 319,
      ".wikipedia.org/wiki/": 320,
      "▁[": 321,
      "en": 322,
      "te": 323,
      "▁\"": 324,
      "\")": 325,
      "in": 326,
      "an": 327,
      "on": 328,
      "In": 329,
      "th": 330,
      "](https://en": 331,
      "ti": 332,
      "](https://en.wikipedia.org/wiki/": 333,
      "hi": 334,
      "India": 335,
      "er": 336,
      "ar": 337,
      "20": 338,
      "al": 339,
      "es": 340,
      "ार": 341,
      "▁क": 342,
      "](https://hi": 343,
      "](https://hi.wikipedia.org/wiki/": 344,
      "▁|": 345,
      "re": 346,
      "्र": 347,
      "of": 348,
      "is": 349,
      "भार": 350,
      "भारत": 351,
      "the": 352,
      "ci": 353,
      "tion": 354,
      "and": 355,
      "ed": 356,
      "om": 357,
      "▁-": 358,
      "▁स": 359,
      "te_": 360,
      "▁the": 361,
      "▁of": 362,
      "it": 363,
      "#ci": 364,
      "#cite_": 365,
      "▁(": 366,
      "ou": 367,
      "as": 368,
      "](https://en.wikipedia.org/wiki/India": 369,
      "201": 370,
      "्य": 371,
      "▁म": 372,
      "ic": 373,
      "▁India": 374,
      "le": 375,
      "OT": 376,
      "19": 377,
      "oo": 378,
      "▁in": 379,
      "no": 380,
      "रा": 381,
      "్ర": 382,
      "id": 383,
      "▁प": 384,
      "ra": 385,
      "](https://te": 386,
      "](https://te.wikipedia.org/wiki/": 387,
      "ent": 388,
      "▁s": 389,
      "](https://en.wikipedia.org/wiki/India#cite_": 390,
      "ान": 391,
      "▁and": 392,
      "200": 393,
      "-0": 394,
      "▁p": 395,
      "ate": 396,
      "**": 397,
      "et": 398,
      "र्": 399,
      "ri": 400,
      "ార": 401,
      "ing": 402,
      "-1": 403,
      "्त": 404,
      "am": 405,
      "ें": 406,
      "▁c": 407,
      "ation": 408,
      "us": 409,
      "at": 410,
      "▁C": 411,
      "▁A": 412,
      "\\_": 413,
      "ref": 414,
      "ac": 415,
      "▁के": 416,
      "ag": 417,
      "](https://hi.wikipedia.org/wiki/भारत": 418,
      "▁ह": 419,
      "note": 420,
      ").": 421,
      "▁S": 422,
      "ook": 423,
      "या": 424,
      "▁f": 425,
      "[[": 426,
      "ang": 427,
      "ref-": 428,
      "note-": 429,
      "ad": 430,
      "\n\n": 431,
      "▁t": 432,
      "78": 433,
      "▁b": 434,
      "ve": 435,
      "li": 436,
      "िक": 437,
      "ur": 438,
      "lo": 439,
      "ीय": 440,
      "ma": 441,
      "▁अ": 442,
      "ాల": 443,
      "um": 444,
      "▁P": 445,
      "ver": 446,
      "ist": 447,
      "IS": 448,
      "we": 449,
      "com": 450,
      "▁में": 451,
      "he": 452,
      "ul": 453,
      "FO": 454,
      "\"),": 455,
      "NOT": 456,
      "OTNOT": 457,
      "FOOTNOT": 458,
      "FOOTNOTE": 459,
      "▁1": 460,
      "్య": 461,
      "of_": 462,
      "978": 463,
      "_of_": 464,
      "BN": 465,
      "ISBN": 466,
      "ww": 467,
      "ch": 468,
      "ial": 469,
      "▁[↑": 470,
      "ro": 471,
      "fi": 472,
      "ce": 473,
      "st": 474,
      "▁m": 475,
      "భార": 476,
      "భారత": 477,
      "ory": 478,
      "िया": 479,
      "దే": 480,
      "न्": 481,
      "ाल": 482,
      "ों": 483,
      "lin": 484,
      "्ष": 485,
      "▁201": 486,
      "वि": 487,
      "un": 488,
      "▁w": 489,
      "దేశ": 490,
      "స్": 491,
      "il": 492,
      "▁d": 493,
      "]](https://en.wikipedia.org/wiki/India#cite_": 494,
      "▁ज": 495,
      "ना": 496,
      "enti": 497,
      "our": 498,
      "ter": 499,
      "ेश": 500,
      "](https://en.wikipedia.org/wiki/India#cite_ref-": 501,
      "]](https://en.wikipedia.org/wiki/India#cite_note-": 502,
      "21": 503,
      "▁द": 504,
      "▁ప": 505,
      "▁T": 506,
      "ons": 507,
      ".\n": 508,
      "ol": 509,
      "▁M": 510,
      "red": 511,
      "identi": 512,
      "_क": 513,
      "00": 514,
      "fier": 515,
      "identifier": 516,
      "▁R": 517,
      "त्र": 518,
      "भा": 519,
      "tic": 520,
      "సా": 521,
      "राज": 522,
      "identifier)": 523,
      "▁है": 524,
      "ర్": 525,
      "-0)": 526,
      "web": 527,
      "▁|\n": 528,
      "▁to": 529,
      "](https://hi.wikipedia.org/wiki/भारत#cite_": 530,
      "▁|\n|": 531,
      "chi": 532,
      "▁**": 533,
      "న్": 534,
      "book": 535,
      "ment": 536,
      "link": 537,
      "=1": 538,
      "res": 539,
      "्व": 540,
      "▁a": 541,
      "edit": 542,
      "▁B": 543,
      "action": 544,
      "),": 545,
      "ला": 546,
      "es/": 547,
      "▁प्र": 548,
      "age": 549,
      "action=": 550,
      "▁ब": 551,
      "▁भारत": 552,
      "s.": 553,
      "action=edit": 554,
      "ंग": 555,
      "&red": 556,
      "?action=edit": 557,
      "cial": 558,
      "link=1": 559,
      "&redlink=1": 560,
      "?action=edit&redlink=1": 561,
      "ति": 562,
      "ni": 563,
      "mp": 564,
      "और": 565,
      "25": 566,
      "ig": 567,
      "ता": 568,
      "_(": 569,
      "▁e": 570,
      "pg": 571,
      "23": 572,
      "्ट": 573,
      "10": 574,
      "▁न": 575,
      "▁की": 576,
      "IT": 577,
      "_स": 578,
      "ir": 579,
      "▁D": 580,
      "▁l": 581,
      "▁\"S": 582,
      "ind": 583,
      "26": 584,
      "▁से": 585,
      "ity": 586,
      "angu": 587,
      "sia": 588,
      "्रे": 589,
      "▁India\")": 590,
      "ER": 591,
      "24": 592,
      "EF": 593,
      ".com": 594,
      "ITER": 595,
      "ITEREF": 596,
      ".j": 597,
      "▁और": 598,
      "▁[↑](https://en.wikipedia.org/wiki/India#cite_ref-": 599,
      "ay": 600,
      "లు": 601,
      "ly": 602,
      ".com/": 603,
      "pecial": 604,
      "▁E": 605,
      "▁का": 606,
      "षा": 607,
      "రా": 608,
      "▁•": 609,
      "स्त": 610,
      "india": 611,
      "ourc": 612,
      "me": 613,
      "199": 614,
      "con": 615,
      "·**": 616,
      "▁**·**": 617,
      "ion": 618,
      "_India": 619,
      "▁*": 620,
      "▁\"भारत": 621,
      "pecial:": 622,
      "न्द": 623,
      "ित": 624,
      "భారతదేశ": 625,
      "\").": 626,
      "28": 627,
      "ld": 628,
      "_S": 629,
      "▁आ": 630,
      "राज्य": 631,
      "▁व": 632,
      "#C": 633,
      ".శ": 634,
      ".శ.": 635,
      "go": 636,
      "ct": 637,
      "లో": 638,
      "Uni": 639,
      "cal": 640,
      "भाषा": 641,
      "क्ष": 642,
      "#CITEREF": 643,
      "▁h": 644,
      "సా.శ.": 645,
      "ved": 646,
      "ources/": 647,
      "ास": 648,
      "978-0": 649,
      "Book": 650,
      "▁H": 651,
      "outh": 652,
      "up": 653,
      "_in": 654,
      "Sources/": 655,
      "pecial:Book": 656,
      "pecial:BookSources/": 657,
      "ber": 658,
      "rom": 659,
      "oun": 660,
      "mai": 661,
      "](https://mai": 662,
      "▁క": 663,
      "978-0-": 664,
      "](https://mai.wikipedia.org/wiki/": 665,
      "▁G": 666,
      "▁N": 667,
      "gory": 668,
      "ategory": 669,
      "11": 670,
      "sh": 671,
      "for": 672,
      "www": 673,
      "ategory:": 674,
      "-3": 675,
      "త్ర": 676,
      "देश": 677,
      "op": 678,
      "ాలు": 679,
      "पु": 680,
      "el": 681,
      "▁200": 682,
      "▁त": 683,
      "_A": 684,
      "రి": 685,
      "ry": 686,
      "-4": 687,
      "www.": 688,
      "archi": 689,
      "క్": 690,
      "स्": 691,
      "▁on": 692,
      "ంద": 693,
      "ew": 694,
      "tu": 695,
      "calf": 696,
      "vers": 697,
      "anguage": 698,
      "50": 699,
      "▁20": 700,
      "ని": 701,
      "ational": 702,
      "▁వ": 703,
      "▁re": 704,
      "etcalf": 705,
      "▁th": 706,
      "मा": 707,
      "ary": 708,
      "ub": 709,
      "री": 710,
      "](https://en.wikipedia.org/wiki/India#CITEREF": 711,
      "-8": 712,
      "ची": 713,
      "ab": 714,
      "archive": 715,
      "▁ग": 716,
      "err": 717,
      "ak": 718,
      "णी": 719,
      "ast": 720,
      "ge": 721,
      "22": 722,
      "n_": 723,
      "ish": 724,
      "था": 725,
      "ड़": 726,
      "30": 727,
      "▁19": 728,
      "The": 729,
      "ष्ट": 730,
      "ల్": 731,
      "est": 732,
      "▁[S": 733,
      ".in": 734,
      "▁n": 735,
      "--": 736,
      "భారతదేశం": 737,
      "od": 738,
      "▁or": 739,
      "▁को": 740,
      "▁---": 741,
      "ress": 742,
      "▁(identifier)": 743,
      "_(identifier)": 744,
      "▁(identifier)\")": 745,
      "_of_India": 746,
      "ted": 747,
      "18": 748,
      "▁उ": 749,
      "▁from": 750,
      "]](https://en.wikipedia.org/wiki/India#cite_note-FOOTNOTE": 751,
      "29": 752,
      "ంగ": 753,
      "▁F": 754,
      "em": 755,
      "ाद": 756,
      "▁ए": 757,
      "archive.org/": 758,
      "▁J": 759,
      "rit": 760,
      "gh": 761,
      "▁స": 762,
      "ष्ट्र": 763,
      "▁.": 764,
      "\n-": 765,
      "http://": 766,
      "error": 767,
      "]](https://hi.wikipedia.org/wiki/भारत#cite_": 768,
      ".[[": 769,
      "▁[\"": 770,
      "Har": 771,
      "का": 772,
      ".jpg": 773,
      "Metcalf": 774,
      "▁మ": 775,
      "▁[म": 776,
      "श्रे": 777,
      "orld": 778,
      "ud": 779,
      "▁p.": 780,
      "श्रेणी": 781,
      "ep": 782,
      "▁सं": 783,
      "▁for": 784,
      "▁पर": 785,
      "_P": 786,
      "goo": 787,
      "web.": 788,
      "ust": 789,
      "ने": 790,
      "हि": 791,
      "](https://web.": 792,
      "▁by": 793,
      "श्रेणी:": 794,
      "web/": 795,
      "archive.org/web/": 796,
      "](https://web.archive.org/web/": 797,
      "प्र": 798,
      "▁In": 799,
      "िल": 800,
      "ेत्र": 801,
      "్రా": 802,
      "books": 803,
      "List": 804,
      "im": 805,
      "_म": 806,
      "gle": 807,
      "_and": 808,
      "40": 809,
      "AA": 810,
      "versity": 811,
      "▁श": 812,
      "_1": 813,
      "▁है।": 814,
      "ha": 815,
      "os": 816,
      "म्": 817,
      "id=": 818,
      "▁g": 819,
      "27": 820,
      "▁\"C": 821,
      "▁is": 822,
      "▁[A": 823,
      "har": 824,
      "ले": 825,
      "ీయ": 826,
      "▁ar": 827,
      "la": 828,
      "with": 829,
      "_के": 830,
      "ount": 831,
      "▁वि": 832,
      "](https://en.wikipedia.org/wiki/S": 833,
      "▁./": 834,
      "google": 835,
      "ort": 836,
      "conom": 837,
      "ండ": 838,
      "▁Indian": 839,
      "978-1": 840,
      "ec": 841,
      "▁L": 842,
      "्या": 843,
      "?id=": 844,
      "सं": 845,
      "\"))": 846,
      "books.": 847,
      ".com/books": 848,
      "google.com/books": 849,
      "books.google.com/books": 850,
      "▁O": 851,
      "books.google.com/books?id=": 852,
      "_C": 853,
      "िय": 854,
      "▁इ": 855,
      "▁[ISBN": 856,
      "ens": 857,
      "umb": 858,
      "▁\"ISBN": 859,
      "ISBN_(identifier)": 860,
      "▁([": 861,
      "_in_India": 862,
      "జ్య": 863,
      "s/": 864,
      "-9": 865,
      "'s": 866,
      "15": 867,
      "▁र": 868,
      "▁చ": 869,
      "late": 870,
      "](https://hi.wikipedia.org/wiki/भारत#cite_ref-": 871,
      "]](https://hi.wikipedia.org/wiki/भारत#cite_note-": 872,
      "▁Asia": 873,
      "सा": 874,
      "▁K": 875,
      "▁W": 876,
      "*.": 877,
      "##": 878,
      "▁[*": 879,
      "13": 880,
      "](https://books.google.com/books?id=": 881,
      "ther": 882,
      "ng": 883,
      "▁[C": 884,
      "ap": 885,
      "16": 886,
      "తా": 887,
      "gov": 888,
      "ము": 889,
      "ి.": 890,
      "त्त": 891,
      "ut": 892,
      "](https://en.wikipedia.org/wiki/C": 893,
      "నా": 894,
      "17": 895,
      "inal": 896,
      "్ట": 897,
      "▁भाषा": 898,
      ".jpg)": 899,
      "_के_": 900,
      "arg": 901,
      "ain": 902,
      "राष्ट्र": 903,
      "University": 904,
      "తి": 905,
      "px": 906,
      "p.": 907,
      "र्व": 908,
      "mons": 909,
      "do": 910,
      "▁The": 911,
      "ी](https://hi.wikipedia.org/wiki/": 912,
      "▁\"M": 913,
      "ot": 914,
      "uc": 915,
      "media": 916,
      "ज़": 917,
      "సి": 918,
      "nd": 919,
      "errors": 920,
      "త్": 921,
      "Harv": 922,
      "्षेत्र": 923,
      "▁\"म": 924,
      "▁pp.": 925,
      ".gov": 926,
      "s,": 927,
      "ff": 928,
      "▁सा": 929,
      "](S": 930,
      ".in/": 931,
      "av": 932,
      "de": 933,
      "ong": 934,
      "▁[↑](https://en.wikipedia.org/wiki/India#cite_ref-FOOTNOTE": 935,
      "per": 936,
      "▁be": 937,
      "14": 938,
      "िस": 939,
      "pecial:BookSources/978-0-": 940,
      "-7": 941,
      "ी_": 942,
      "umm": 943,
      "-2": 944,
      "PA": 945,
      "▁[M": 946,
      "fn": 947,
      "over": 948,
      "](https://en.wikipedia.org/wiki/M": 949,
      "load": 950,
      "▁(సా.శ.": 951,
      ".wikimedia": 952,
      "commons": 953,
      "und": 954,
      "upload": 955,
      "ence": 956,
      "tein": 957,
      "ys": 958,
      "जा": 959,
      "ance": 960,
      "br": 961,
      "पा": 962,
      "యా": 963,
      "35": 964,
      "![": 965,
      "ंड": 966,
      "ूची": 967,
      "ులు": 968,
      "▁రా": 969,
      "al_": 970,
      "pedia/": 971,
      ".org/wikipedia/": 972,
      "thumb": 973,
      ".wikimedia.org/wikipedia/": 974,
      "upload.wikimedia.org/wikipedia/": 975,
      "Category:": 976,
      "](https://upload.wikimedia.org/wikipedia/": 977,
      "मन": 978,
      "–సా.శ.": 979,
      "▁ल": 980,
      "](https://en.wikipedia.org/wiki/ISBN_(identifier)": 981,
      "▁[ISBN](https://en.wikipedia.org/wiki/ISBN_(identifier)": 982,
      "/thumb": 983,
      "/thumb/": 984,
      "-5": 985,
      "di": 986,
      "rie": 987,
      "cy": 988,
      "ी\")": 989,
      "▁అ": 990,
      ")[[": 991,
      "art": 992,
      "कार": 993,
      "](https://upload.wikimedia.org/wikipedia/commons": 994,
      "▁राज्य": 995,
      "%2": 996,
      "चि": 997,
      "▁[B": 998,
      "&pg": 999,
      "&pg=": 1000,
      "1.": 1001,
      "ans": 1002,
      "](https://upload.wikimedia.org/wikipedia/commons/thumb/": 1003,
      "गर": 1004,
      "px-": 1005,
      "47": 1006,
      "▁\"B": 1007,
      "iginal": 1008,
      "ow": 1009,
      "▁as": 1010,
      "▁st": 1011,
      "_M": 1012,
      "▁ప్ర": 1013,
      "हा": 1014,
      "हिन्द": 1015,
      "36": 1016,
      "_D": 1017,
      "यु": 1018,
      "ిక": 1019,
      "ear": 1020,
      "कि": 1021,
      "▁भ": 1022,
      "lig": 1023,
      "ages": 1024,
      "all": 1025,
      "▁I": 1026,
      "विश": 1027,
      "tern": 1028,
      "తం": 1029,
      "स्तान": 1030,
      "log": 1031,
      "38": 1032,
      "2.": 1033,
      "▁original": 1034,
      "श्रेणी:Harv": 1035,
      "▁\"A": 1036,
      ".p": 1037,
      "▁with": 1038,
      "&pg=PA": 1039,
      "▁\"P": 1040,
      "ht": 1041,
      "aj": 1042,
      "](https://web.archive.org/web/201": 1043,
      "rchi": 1044,
      "क्त": 1045,
      "ana": 1046,
      "▁Ret": 1047,
      "ిన": 1048,
      "▁हैं": 1049,
      "జ్యం": 1050,
      "land": 1051,
      "70": 1052,
      "rieved": 1053,
      "▁Retrieved": 1054,
      "ll": 1055,
      "ंग्रे": 1056,
      "ोल": 1057,
      "ere": 1058,
      "esh": 1059,
      ")\n\n": 1060,
      "_T": 1061,
      "జా": 1062,
      "2006": 1063,
      "temp": 1064,
      "मी": 1065,
      "ेल": 1066,
      "](https://en.wikipedia.org/wiki/B": 1067,
      "▁क्षेत्र": 1068,
      "opul": 1069,
      "2018": 1070,
      "ంచ": 1071,
      "కు": 1072,
      "Indian": 1073,
      "ore": 1074,
      "og": 1075,
      "ss": 1076,
      "omm": 1077,
      "ensus": 1078,
      "ummit": 1079,
      "धान": 1080,
      "पर": 1081,
      "-10": 1082,
      "](https://te.wikipedia.org/wiki/భారతదేశం": 1083,
      "▁[↑](https://hi.wikipedia.org/wiki/भारत#cite_ref-": 1084,
      "ke": 1085,
      "nic": 1086,
      "ीप": 1087,
      "](https://en.wikipedia.org/wiki/P": 1088,
      "द्": 1089,
      "ine": 1090,
      "▁University": 1091,
      "ates": 1092,
      "ेला": 1093,
      "ను": 1094,
      "పూ": 1095,
      "▁no": 1096,
      "्रा": 1097,
      "ृत": 1098,
      "ass": 1099,
      "र्म": 1100,
      ".\n-": 1101,
      "ile": 1102,
      "ata": 1103,
      "*](https://books.google.com/books?id=": 1104,
      "%20": 1105,
      "िर": 1106,
      "titu": 1107,
      "▁\"T": 1108,
      "ism": 1109,
      "ेष": 1110,
      "భా": 1111,
      "▁&": 1112,
      "ric": 1113,
      "▁[P": 1114,
      "▁कर": 1115,
      "▁अन": 1116,
      "istory": 1117,
      "-6": 1118,
      "39": 1119,
      "nment": 1120,
      "िण": 1121,
      "](http://": 1122,
      "ani": 1123,
      "श्": 1124,
      "ప్ర": 1125,
      "48": 1126,
      "2011": 1127,
      "rchived": 1128,
      "वा": 1129,
      "▁[अ": 1130,
      "ire": 1131,
      "ank": 1132,
      "ద్": 1133,
      "ింద": 1134,
      ".jp": 1135,
      "oc": 1136,
      "से": 1137,
      "▁१": 1138,
      "▁*[": 1139,
      "se": 1140,
      "▁\"अ": 1141,
      "▁Category:": 1142,
      "▁was": 1143,
      "opulation": 1144,
      "/https://": 1145,
      "60": 1146,
      "▁ఉ": 1147,
      "Stein": 1148,
      "▁\"E": 1149,
      "90": 1150,
      "ts": 1151,
      "ंध": 1152,
      "ం:": 1153,
      "ard": 1154,
      "](https://hi.wikipedia.org/wiki/म": 1155,
      "Hind": 1156,
      "ue": 1157,
      "▁[भारत": 1158,
      "▁\"स": 1159,
      "ाना": 1160,
      "क्षिण": 1161,
      "ubl": 1162,
      "sher": 1163,
      "धार": 1164,
      "ord": 1165,
      "eral": 1166,
      "▁ఆ": 1167,
      "ीय_": 1168,
      "▁ex": 1169,
      "ai": 1170,
      "to": 1171,
      "ोत": 1172,
      "▁\"क": 1173,
      "%2C": 1174,
      ".jpg/": 1175,
      "7.": 1176,
      "](https://www.": 1177,
      "ries": 1178,
      "▁language": 1179,
      "▁an": 1180,
      "▁de": 1181,
      "▁ने": 1182,
      "▁एक": 1183,
      "arget": 1184,
      "language": 1185,
      "](https://en.wikipedia.org/wiki/A": 1186,
      "भि": 1187,
      "▁ర": 1188,
      "▁[स": 1189,
      "_N": 1190,
      "anguages": 1191,
      "ture": 1192,
      "CS": 1193,
      "0%": 1194,
      "emp": 1195,
      "ies": 1196,
      "](https://en.wikipedia.org/wiki/E": 1197,
      "_R": 1198,
      "9.": 1199,
      "_b": 1200,
      "▁are": 1201,
      "hin": 1202,
      "మా": 1203,
      "▁సా": 1204,
      "భారతీయ": 1205,
      "45": 1206,
      "ont": 1207,
      "ूल": 1208,
      "_B": 1209,
      "other": 1210,
      "ोग": 1211,
      "వా": 1212,
      "▁r": 1213,
      "▁ति": 1214,
      "\")\n-": 1215,
      "](https://en.wikipedia.org/wiki/T": 1216,
      "▁पु": 1217,
      "tics": 1218,
      "विशेष": 1219,
      "46": 1220,
      "▁Press": 1221,
      "రు": 1222,
      "▁\"D": 1223,
      "als": 1224,
      "लेख": 1225,
      "AJ": 1226,
      "4.": 1227,
      "43": 1228,
      "▁[क": 1229,
      "iss": 1230,
      "ical": 1231,
      "BAJ": 1232,
      "QBAJ": 1233,
      "▁प्रदेश": 1234,
      "2010": 1235,
      "ingh": 1236,
      "mber": 1237,
      "ations": 1238,
      "_s": 1239,
      "వి": 1240,
      "ష్ట": 1241,
      "▁it": 1242,
      "ian": 1243,
      "ార్": 1244,
      "పూ.": 1245,
      "▁\"ब": 1246,
      "▁Hind": 1247,
      "_Asia": 1248,
      "ंद": 1249,
      "ंत्र": 1250,
      "▁\"G": 1251,
      "▁\"List": 1252,
      "\")\n\n": 1253,
      "క్ష": 1254,
      "udd": 1255,
      "ex": 1256,
      "▁य": 1257,
      "▁\"भारतीय": 1258,
      "ford": 1259,
      "_G": 1260,
      "](https://en.wikipedia.org/wiki/D": 1261,
      "ib": 1262,
      "जन": 1263,
      "▁V": 1264,
      "స్థ": 1265,
      "onstitu": 1266,
      "రిత్ర": 1267,
      "विशेष:": 1268,
      "les": 1269,
      "थि": 1270,
      "▁[978-0-": 1271,
      "▁whi": 1272,
      "aki": 1273,
      "iv": 1274,
      "धिक": 1275,
      "AAQBAJ": 1276,
      "df": 1277,
      "ern": 1278,
      "/http://": 1279,
      "xford": 1280,
      "▁[G": 1281,
      "्री": 1282,
      "▁जन": 1283,
      "htm": 1284,
      "दी": 1285,
      "eng": 1286,
      "ess": 1287,
      "▁देश": 1288,
      "న్న": 1289,
      "ountries": 1290,
      "conomic": 1291,
      "ers": 1292,
      "omp": 1293,
      "hm": 1294,
      "49": 1295,
      "▁[ब": 1296,
      "▁\"N": 1297,
      "List_of_": 1298,
      "ूर्व": 1299,
      "्स": 1300,
      "end": 1301,
      "MetcalfMetcalf": 1302,
      "tive": 1303,
      "ach": 1304,
      "a\")": 1305,
      "नी": 1306,
      "](https://hi.wikipedia.org/wiki/क": 1307,
      "stan": 1308,
      "ction": 1309,
      "ral": 1310,
      "_p": 1311,
      "ik": 1312,
      "िट": 1313,
      "▁ख": 1314,
      "▁(P": 1315,
      "▁तथा": 1316,
      "33": 1317,
      "6.": 1318,
      "_E": 1319,
      "pecial:BookSources/978-1": 1320,
      "RI": 1321,
      "oli": 1322,
      "vi": 1323,
      "▁भारतीय": 1324,
      "▁तिथि": 1325,
      "ven": 1326,
      "गमन": 1327,
      "artic": 1328,
      "ult": 1329,
      "tim": 1330,
      "▁3": 1331,
      "▁2011": 1332,
      "-p": 1333,
      "ions": 1334,
      "द्य": 1335,
      "ी_स": 1336,
      "▁च": 1337,
      "conomy": 1338,
      "](https://te.wikipedia.org/wiki/భారతదేశం#cite_": 1339,
      "▁[2": 1340,
      "▁[N": 1341,
      "1)": 1342,
      "77": 1343,
      "▁[D": 1344,
      "na": 1345,
      "ँच": 1346,
      "ज्": 1347,
      "ढ़": 1348,
      "ून": 1349,
      "గా": 1350,
      "▁\"R": 1351,
      "2009": 1352,
      "▁भाषा\")": 1353,
      "1998": 1354,
      "5.": 1355,
      "मान": 1356,
      "▁ध": 1357,
      "ark": 1358,
      "स्क": 1359,
      "](https://en.wikipedia.org/wiki/G": 1360,
      "](https://en.wikipedia.org/wiki/R": 1361,
      "-1)": 1362,
      "हास": 1363,
      "िश": 1364,
      "ంట": 1365,
      "కి": 1366,
      "▁तिथि:": 1367,
      "port": 1368,
      "्ल": 1369,
      "bot": 1370,
      "rou": 1371,
      "▁which": 1372,
      "మ్రా": 1373,
      "lop": 1374,
      "cont": 1375,
      "ష్ట్ర": 1376,
      "cl": 1377,
      "▁[![": 1378,
      "वं": 1379,
      "▁[1": 1380,
      "▁[E": 1381,
      "ties": 1382,
      "म्ब": 1383,
      "icial": 1384,
      "ope": 1385,
      "गु": 1386,
      "ती": 1387,
      "ంత": 1388,
      "](https://en.wikipedia.org/wiki/N": 1389,
      "his": 1390,
      "▁अभि": 1391,
      "250": 1392,
      "▁अभिगमन": 1393,
      "au": 1394,
      "df)": 1395,
      "4%": 1396,
      "द्ध": 1397,
      "DF": 1398,
      "albot": 1399,
      "fe": 1400,
      "▁राज": 1401,
      "्रोत": 1402,
      "▁South": 1403,
      ")\")": 1404,
      "new": 1405,
      "रकार": 1406,
      "हर": 1407,
      "india.gov": 1408,
      "पुर": 1409,
      "▁ma": 1410,
      "out": 1411,
      "riti": 1412,
      "\n\n##": 1413,
      "E0%": 1414,
      "त्": 1415,
      "పు": 1416,
      "▁हैं।": 1417,
      "▁[T": 1418,
      "](https://en.wikipedia.org/wiki/List_of_": 1419,
      "▁li": 1420,
      "ame": 1421,
      ").\n": 1422,
      "्वीप": 1423,
      "8.": 1424,
      "Asher": 1425,
      "्ड": 1426,
      "▁న": 1427,
      "▁[R": 1428,
      "▁स्": 1429,
      "▁(PDF": 1430,
      "न\")": 1431,
      "▁India's": 1432,
      "िका": 1433,
      "▁जा": 1434,
      "राष्ट्रीय": 1435,
      "▁has": 1436,
      "▁that": 1437,
      "3.": 1438,
      "मे": 1439,
      "మి": 1440,
      "ాన": 1441,
      "ree": 1442,
      "ration": 1443,
      "स्तक": 1444,
      "पुस्तक": 1445,
      "ublic": 1446,
      "विशेष:पुस्तक": 1447,
      "्रोत/": 1448,
      "ta": 1449,
      "territ": 1450,
      "gen": 1451,
      "पाल": 1452,
      "सभ": 1453,
      "▁\"Special:BookSources/978-0-": 1454,
      "](Special:BookSources/978-0-": 1455,
      "sv": 1456,
      "ob": 1457,
      "ुख": 1458,
      "ुस": 1459,
      "పా": 1460,
      "▁ఇ": 1461,
      "▁త": 1462,
      "ange": 1463,
      "▁[Archived": 1464,
      "భాష": 1465,
      "AAQBAJ&pg=PA": 1466,
      "80": 1467,
      "ोक": 1468,
      "▁वर्": 1469,
      "_and_": 1470,
      "▁5": 1471,
      "ous": 1472,
      "mpire": 1473,
      ".pdf)": 1474,
      "रब": 1475,
      "हार": 1476,
      "ali": 1477,
      "](https://hi.wikipedia.org/wiki/स": 1478,
      "United": 1479,
      "RICS": 1480,
      "4)": 1481,
      "2)": 1482,
      "ty": 1483,
      "▁\"प": 1484,
      "किस्तान": 1485,
      ",_": 1486,
      "िव": 1487,
      "పాల": 1488,
      "లీ": 1489,
      "▁pro": 1490,
      "▁इस": 1491,
      "logy": 1492,
      "ile:": 1493,
      "sland": 1494,
      "3)": 1495,
      "idge": 1496,
      "द्र": 1497,
      "▁దేశ": 1498,
      "▁मेला": 1499,
      "rad": 1500,
      "र्थ": 1501,
      "స్తా": 1502,
      "▁De": 1503,
      "▁–": 1504,
      "ath": 1505,
      "56": 1506,
      "eg": 1507,
      "ya": 1508,
      "File:": 1509,
      "ure": 1510,
      "शिया": 1511,
      "వర్": 1512,
      "ాయ": 1513,
      "pend": 1514,
      "aste": 1515,
      "रालेख": 1516,
      "mer": 1517,
      "ost": 1518,
      "्च": 1519,
      "▁\"In": 1520,
      "▁सम": 1521,
      "▁सूची": 1522,
      "inist": 1523,
      "hist": 1524,
      "_भारत": 1525,
      "दक्षिण": 1526,
      "ष्": 1527,
      "ा_": 1528,
      "▁हु": 1529,
      "_की_स": 1530,
      "10.": 1531,
      "_में": 1532,
      "त्तर": 1533,
      "E0%A": 1534,
      "DP": 1535,
      "iki": 1536,
      "MetcalfMetcalf2006": 1537,
      "](https://hi.wikipedia.org/wiki/अ": 1538,
      "rap": 1539,
      "000": 1540,
      "ंग्रेज़": 1541,
      "మ్రాజ్యం": 1542,
      "रालेखित": 1543,
      "man": 1544,
      "▁[K": 1545,
      "ritish": 1546,
      "ove": 1547,
      "85": 1548,
      "](File:": 1549,
      "amil": 1550,
      "దేశ్": 1551,
      "▁भी": 1552,
      "onstitution": 1553,
      "37": 1554,
      "ah": 1555,
      "मिल": 1556,
      "▁pe": 1557,
      "▁at": 1558,
      "-b": 1559,
      "-s": 1560,
      "▁cent": 1561,
      "elhi": 1562,
      "ते": 1563,
      "थान": 1564,
      "ध्य": 1565,
      "ం](https://te.wikipedia.org/wiki/": 1566,
      "ated": 1567,
      "▁2014": 1568,
      "bridge": 1569,
      "चित्र": 1570,
      "ru": 1571,
      "ite": 1572,
      "के": 1573,
      "न्त": 1574,
      "](https://en.wikipedia.org/wiki/India#cite_ref-FOOTNOTE": 1575,
      "..": 1576,
      "2004": 1577,
      "2007": 1578,
      "ambridge": 1579,
      "गण": 1580,
      "ण्ड": 1581,
      "फ़": 1582,
      "ంబ": 1583,
      "టి": 1584,
      "](https://hi.wikipedia.org/wiki/ब": 1585,
      ".nic": 1586,
      "hand": 1587,
      "ese": 1588,
      "outh_Asia": 1589,
      "67": 1590,
      "_प्र": 1591,
      "▁[प": 1592,
      "▁सरकार": 1593,
      "▁हि": 1594,
      "velop": 1595,
      "ज्ञ": 1596,
      "▁v": 1597,
      "late_": 1598,
      "do-": 1599,
      "ంలో": 1600,
      "](https://hi.wikipedia.org/wiki/भारत_में": 1601,
      "नाम": 1602,
      "స్తాన్": 1603,
      "\"\n": 1604,
      "\"](https://web.archive.org/web/201": 1605,
      "s\")": 1606,
      "▁\"K": 1607,
      "hel": 1608,
      "ूप": 1609,
      "▁7": 1610,
      "▁घ": 1611,
      "्रिट": 1612,
      "usic": 1613,
      "times": 1614,
      "▁te": 1615,
      "](https://en.wikipedia.org/wiki/In": 1616,
      "yson": 1617,
      "-d": 1618,
      "duc": 1619,
      "lia": 1620,
      "గు": 1621,
      "డు": 1622,
      "నే": 1623,
      "్చ": 1624,
      "ack": 1625,
      "ाली": 1626,
      "ountry": 1627,
      "oh": 1628,
      "▁\"Indian": 1629,
      "gover": 1630,
      "ansk": 1631,
      "%E0%A": 1632,
      "-t": 1633,
      "120": 1634,
      "रु": 1635,
      "▁U": 1636,
      "▁\"The": 1637,
      "▁se": 1638,
      "qu": 1639,
      "world": 1640,
      "हु": 1641,
      "ा:": 1642,
      "మూ": 1643,
      "▁२": 1644,
      "▁[978-1": 1645,
      "isation": 1646,
      "్రీ": 1647,
      "▁History": 1648,
      "జాత": 1649,
      "▁its": 1650,
      "12": 1651,
      "521": 1652,
      "RC": 1653,
      "▁un": 1654,
      "inent": 1655,
      "lection": 1656,
      "जी": 1657,
      "श्चि": 1658,
      "\nCategory:": 1659,
      "anskrit": 1660,
      "IN": 1661,
      "Oxford": 1662,
      "dit": 1663,
      "ूच": 1664,
      "ूर": 1665,
      "లా": 1666,
      "ase": 1667,
      "ulture": 1668,
      "ign": 1669,
      "▁reg": 1670,
      "ంగా": 1671,
      "html": 1672,
      "ashm": 1673,
      "\\_S": 1674,
      "row": 1675,
      "velopment": 1676,
      "Dw": 1677,
      "कर": 1678,
      "ख्या": 1679,
      "orth": 1680,
      "▁(201": 1681,
      "ater": 1682,
      "न्न": 1683,
      "▁./श्रेणी:": 1684,
      "akistan": 1685,
      "alay": 1686,
      "\n\n[": 1687,
      "uring": 1688,
      "template": 1689,
      "_d": 1690,
      "డ్": 1691,
      "ిల్": 1692,
      "▁జ": 1693,
      "▁199": 1694,
      "alth": 1695,
      "न्द्र": 1696,
      "dition": 1697,
      "emplate": 1698,
      ".nic.in/": 1699,
      "World": 1700,
      "lish": 1701,
      "▁4": 1702,
      "mund": 1703,
      "/https://www.": 1704,
      "othermund": 1705,
      "_language": 1706,
      "census": 1707,
      "ैद": 1708,
      "లి": 1709,
      "lion": 1710,
      "స్త్ర": 1711,
      "▁तक": 1712,
      "चीन": 1713,
      "\"))\n": 1714,
      "साँच": 1715,
      "roup": 1716,
      "led": 1717,
      "pu": 1718,
      "](https://en.wikipedia.org/wiki/K": 1719,
      "ome": 1720,
      "urope": 1721,
      "▁wh": 1722,
      "irst": 1723,
      "ave": 1724,
      "▁[उ": 1725,
      "\").\n-": 1726,
      "any": 1727,
      "ulke": 1728,
      "62": 1729,
      "ef": 1730,
      "▁cont": 1731,
      "radesh": 1732,
      "59": 1733,
      "जरा": 1734,
      "కా": 1735,
      "ణా": 1736,
      "దక్ష": 1737,
      "ధిక": 1738,
      "](https://hi.wikipedia.org/wiki/भारतीय_": 1739,
      "▁ప్రా": 1740,
      "▁వి": 1741,
      "సియా": 1742,
      "overnment": 1743,
      "జాతీయ": 1744,
      "_F": 1745,
      "▁languages": 1746,
      "ograp": 1747,
      "05": 1748,
      "_भाषा": 1749,
      "▁[L": 1750,
      "▁sub": 1751,
      "▁हो": 1752,
      "▁18": 1753,
      "odern": 1754,
      "AARC": 1755,
      "जाब": 1756,
      "Singh": 1757,
      "ati": 1758,
      "▁ad": 1759,
      "ined": 1760,
      "▁mil": 1761,
      "ligion": 1762,
      "वी": 1763,
      "सम": 1764,
      "ोर": 1765,
      "వం": 1766,
      "ury": 1767,
      "ों_की_स": 1768,
      "▁नि": 1769,
      "▁సం": 1770,
      "▁చరిత్ర": 1771,
      "ुसार": 1772,
      "▁were": 1773,
      "government": 1774,
      ".;": 1775,
      ".sv": 1776,
      "ound": 1777,
      "युक्त": 1778,
      "Stein2010": 1779,
      "6)": 1780,
      "65": 1781,
      "▁le": 1782,
      "2005": 1783,
      "tical": 1784,
      "doi": 1785,
      "ंब": 1786,
      "ओं": 1787,
      "డి": 1788,
      "▁[the": 1789,
      "](https://hi.wikipedia.org/wiki/प": 1790,
      "]](https://hi.wikipedia.org/wiki/भारत#cite_note-FOOTNOTE": 1791,
      "ింది.": 1792,
      "2003": 1793,
      "ril": 1794,
      "matics": 1795,
      "![](https://upload.wikimedia.org/wikipedia/commons/thumb/": 1796,
      "continent": 1797,
      "250px-": 1798,
      "\"](https://www.": 1799,
      "-m": 1800,
      "-india": 1801,
      "tem": 1802,
      "\")*": 1803,
      "erv": 1804,
      "▁विश": 1805,
      "7)": 1806,
      "_by": 1807,
      "/c": 1808,
      "ुल": 1809,
      "ంధ": 1810,
      "▁किया": 1811,
      "▁मान": 1812,
      "స్త": 1813,
      "_and_S": 1814,
      "_के_राज्य": 1815,
      "पाकिस्तान": 1816,
      "▁రాజ్యం": 1817,
      "Stein1998": 1818,
      "▁సామ్రాజ్యం": 1819,
      "ंदिर": 1820,
      "వర్గ": 1821,
      "्रिटिश": 1822,
      "దక్షి": 1823,
      "Singh2009": 1824,
      "usin": 1825,
      "\\_and": 1826,
      "\\_errors": 1827,
      "help": 1828,
      "oi": 1829,
      "ब्": 1830,
      "ames": 1831,
      "▁Hindu": 1832,
      "स्कृत": 1833,
      "%E0%A4%": 1834,
      "val": 1835,
      "ght": 1836,
      "_the": 1837,
      "प्त": 1838,
      "దీ": 1839,
      "▁[In": 1840,
      "▁\"L": 1841,
      "▁\"उ": 1842,
      "ice": 1843,
      "ండి": 1844,
      "వర్గం:": 1845,
      "History": 1846,
      "Talbot": 1847,
      "mb": 1848,
      "▁2": 1849,
      "▁errors": 1850,
      "2008": 1851,
      "▁St": 1852,
      "▁2021": 1853,
      "▁([help": 1854,
      "AsherTalbot": 1855,
      "▁errors\"))\n": 1856,
      "एस": 1857,
      "anc": 1858,
      "old": 1859,
      "age/": 1860,
      ".jpg)](File:": 1861,
      "omb": 1862,
      "▁2007": 1863,
      "69": 1864,
      "gan": 1865,
      "ंजाब": 1866,
      "वन": 1867,
      "తర": 1868,
      "▁బ": 1869,
      "िया\")": 1870,
      "ालय": 1871,
      "ission": 1872,
      "▁खाना": 1873,
      "▁सूची\")": 1874,
      "ों_की_सूची": 1875,
      "▁8": 1876,
      "rate": 1877,
      "\").[[": 1878,
      "चल": 1879,
      "▁सब": 1880,
      "▁2010": 1881,
      "▁प्रा": 1882,
      "▁[मूल": 1883,
      "-in": 1884,
      "hy": 1885,
      "ms": 1886,
      "ug": 1887,
      "une": 1888,
      "ystem": 1889,
      "1_": 1890,
      "ैन": 1891,
      "ట్": 1892,
      "ది": 1893,
      "ిత": 1894,
      "ant": 1895,
      "](https://en.wikipedia.org/wiki/Indian_": 1896,
      "ेंद्र": 1897,
      "](https://hi.wikipedia.org/wiki/भारत_क": 1898,
      "▁गया": 1899,
      "▁उप": 1900,
      "▁Asian": 1901,
      "▁राज्यों": 1902,
      "धिकार": 1903,
      "5)": 1904,
      "58": 1905,
      "fn_": 1906,
      "uary": 1907,
      "▁error": 1908,
      "▁template": 1909,
      "no-t": 1910,
      "\\_no-t": 1911,
      "▁Sfn": 1912,
      "▁target": 1913,
      "](https://web.archive.org/web/20": 1914,
      "fn\\_no-t": 1915,
      "template_": 1916,
      "arget\\_errors": 1917,
      "\\_Sfn\\_no-t": 1918,
      "_and_Sfn_": 1919,
      "\\_and\\_Sfn\\_no-t": 1920,
      "▁error:": 1921,
      "▁target:": 1922,
      "template_errors": 1923,
      "arget\\_errors\n": 1924,
      "_and_Sfn_template_errors": 1925,
      "\\_and\\_Sfn\\_no-target\\_errors\n": 1926,
      "ise": 1927,
      "▁Comm": 1928,
      "स्था": 1929,
      "▁१९": 1930,
      "_c": 1931,
      "ail": 1932,
      "data": 1933,
      "▁26": 1934,
      "on-": 1935,
      "_చ": 1936,
      "uk": 1937,
      "शास": 1938,
      "ం\")": 1939,
      "▁\"మ": 1940,
      "ctor": 1941,
      "34": 1942,
      "C&pg=PA": 1943,
      "_L": 1944,
      "▁CITEREF": 1945,
      "ace": 1946,
      "aw": 1947,
      "eneral": 1948,
      "](https://en.wikipedia.org/wiki/L": 1949,
      "▁Ap": 1950,
      "याल": 1951,
      "51": 1952,
      "ज्य": 1953,
      "म्रा": 1954,
      "▁ఎ": 1955,
      "▁[మ": 1956,
      "▁\"F": 1957,
      "ari": 1958,
      "uly": 1959,
      "ियों": 1960,
      "▁(సా.శ.పూ.": 1961,
      "▁पुरालेखित": 1962,
      "चित्र:": 1963,
      "▁सबसे": 1964,
      "▁पुरालेखित।": 1965,
      "-g": 1966,
      "hind": 1967,
      "vis": 1968,
      "▁25": 1969,
      "▁sfn": 1970,
      "isher": 1971,
      "Edit": 1972,
      "Page/": 1973,
      "o-": 1974,
      "ागर": 1975,
      "्ला": 1976,
      "ternational": 1977,
      "श्मी": 1978,
      "▁[भारतीय": 1979,
      "inistry": 1980,
      "EditPage/": 1981,
      "shi": 1982,
      "ister": 1983,
      "india.gov.in/": 1984,
      "68": 1985,
      "fter": 1986,
      "lass": 1987,
      "pr": 1988,
      "year": 1989,
      "आई": 1990,
      "ధ్య": 1991,
      "▁గ": 1992,
      "▁శ": 1993,
      "▁territ": 1994,
      "ork": 1995,
      "ories": 1996,
      "▁कि": 1997,
      "](https://hi.wikipedia.org/wiki/चित्र:": 1998,
      "off": 1999,
      "ियाँ": 2000,
      "ంద్ర": 2001,
      "ustry": 2002,
      "क्ति": 2003,
      "म्राज्य": 2004,
      "/artic": 2005,
      "cies": 2006,
      "rib": 2007,
      "ashmir": 2008,
      "-l": 2009,
      "a_": 2010,
      "yn": 2011,
      "टी": 2012,
      "तमिल": 2013,
      "दा": 2014,
      "वरी": 2015,
      "▁ri": 2016,
      "aman": 2017,
      "तिहास": 2018,
      "ood": 2019,
      "▁ch": 2020,
      "earch": 2021,
      "की": 2022,
      "ोर्": 2023,
      "।[[": 2024,
      "ైన": 2025,
      "](https://en.wikipedia.org/wiki/F": 2026,
      "](https://te.wikipedia.org/wiki/మ": 2027,
      "▁जिस": 2028,
      "▁పే": 2029,
      "स्थान": 2030,
      "ంది.": 2031,
      "माण": 2032,
      "Wiki": 2033,
      "air": 2034,
      "2014": 2035,
      "ats": 2036,
      "_Indian_": 2037,
      "Union": 2038,
      "रे": 2039,
      "्वर": 2040,
      "▁बाद": 2041,
      "▁आधार": 2042,
      "▁संघ": 2043,
      "िल्ल": 2044,
      "▁धर्म": 2045,
      "DwAAQBAJ&pg=PA": 2046,
      "▁[F": 2047,
      "int": 2048,
      "Rothermund": 2049,
      "च्च": 2050,
      "बंध": 2051,
      "ట్ట": 2052,
      "హింద": 2053,
      "▁భారతదేశం": 2054,
      "▁India,": 2055,
      "](https://hi.wikipedia.org/wiki/भारत#CITEREF": 2056,
      "ంగ్": 2057,
      "▁साथ": 2058,
      "ద్ధ": 2059,
      "](https://hi.wikipedia.org/wiki/भारत_में_": 2060,
      "330": 2061,
      "mar": 2062,
      "uj": 2063,
      "uch": 2064,
      "ugh": 2065,
      "▁An": 2066,
      "umber": 2067,
      "▁10": 2068,
      "▁[सं": 2069,
      "197": 2070,
      "▁17": 2071,
      "▁**[": 2072,
      "ople": 2073,
      "▁this": 2074,
      "nglish": 2075,
      "▁विश्व": 2076,
      "Kulke": 2077,
      "ori": 2078,
      "low": 2079,
      "▁New": 2080,
      "मुख": 2081,
      "ించ": 2082,
      "▁ఒ": 2083,
      "▁ag": 2084,
      "▁था": 2085,
      "▁భాష": 2086,
      "▁[క": 2087,
      "▁\"श्रेणी:Harv": 2088,
      "](https://hi.wikipedia.org/wiki/श्रेणी:Harv": 2089,
      "▁सि": 2090,
      "ley": 2091,
      "ాల్": 2092,
      "्वत": 2093,
      "_सं": 2094,
      "▁\"Special:BookSources/978-1": 2095,
      "▁./Category:": 2096,
      "▁./श्रेणी:Harv": 2097,
      "](Special:BookSources/978-1": 2098,
      "▁Island": 2099,
      "](http://www.": 2100,
      "▁([help](https://hi.wikipedia.org/wiki/श्रेणी:Harv": 2101,
      "_and_Sfn_template_errors?action=edit&redlink=1": 2102,
      "▁./श्रेणी:Harv\\_and\\_Sfn\\_no-target\\_errors\n": 2103,
      "▁([help](https://hi.wikipedia.org/wiki/श्रेणी:Harv_and_Sfn_template_errors?action=edit&redlink=1": 2104,
      "ed.": 2105,
      "▁Pres": 2106,
      "ongress": 2107,
      "ombined": 2108,
      "1,": 2109,
      "100": 2110,
      "PP": 2111,
      "aper": 2112,
      "les/": 2113,
      "नि": 2114,
      "▁Empire": 2115,
      "▁World": 2116,
      "ी_भाषा": 2117,
      "श्चिम": 2118,
      "emplate:": 2119,
      "8/": 2120,
      "▁Asia\")": 2121,
      "ower": 2122,
      "Hindi": 2123,
      "]](https://te.wikipedia.org/wiki/భారతదేశం#cite_": 2124,
      "णा": 2125,
      "ीन": 2126,
      "చ్చ": 2127,
      "జీ": 2128,
      "ేంద్ర": 2129,
      "ority": 2130,
      "▁\"క": 2131,
      "](https://hi.wikipedia.org/wiki/उ": 2132,
      "edi": 2133,
      "्यट": 2134,
      "क्षेत्र": 2135,
      "▁शास": 2136,
      "ledge": 2137,
      "1/": 2138,
      "9)": 2139,
      "lim": 2140,
      "iron": 2141,
      ".jpg/250px-": 2142,
      "KulkeRothermund": 2143,
      "57": 2144,
      "att": 2145,
      "king": 2146,
      "गुजरा": 2147,
      "_प्रदेश": 2148,
      "gy": 2149,
      "arch": 2150,
      "▁July": 2151,
      "▁April": 2152,
      "national": 2153,
      "गढ़": 2154,
      "मह": 2155,
      "वे": 2156,
      "ांग": 2157,
      "త్య": 2158,
      "బ్": 2159,
      "మీ": 2160,
      "▁थ": 2161,
      "radition": 2162,
      "](https://te.wikipedia.org/wiki/ద": 2163,
      "్యా": 2164,
      "రాష్ట్ర": 2165,
      "▁./వర్గం:": 2166,
      "Hindu": 2167,
      "news/": 2168,
      "▁हिन्द": 2169,
      "-c": 2170,
      "Dyson": 2171,
      "dom": 2172,
      "lear": 2173,
      "act": 2174,
      "▁\"South": 2175,
      "ummit\")": 2176,
      "/http://www.": 2177,
      "7-1": 2178,
      "Combined": 2179,
      "ober": 2180,
      "ution": 2181,
      "वर्": 2182,
      "▁[W": 2183,
      "▁कार": 2184,
      "121": 2185,
      "du": 2186,
      "ph": 2187,
      "viron": 2188,
      "▁government": 2189,
      "entral": 2190,
      "uman": 2191,
      "hina": 2192,
      "vironment": 2193,
      "ves": 2194,
      "दे": 2195,
      "में": 2196,
      "ही": 2197,
      "००": 2198,
      "ంక": 2199,
      "ప్": 2200,
      "యు": 2201,
      "▁9": 2202,
      "▁[J": 2203,
      "tember": 2204,
      "▁\"J": 2205,
      "rab": 2206,
      "entre": 2207,
      "▁cons": 2208,
      "line": 2209,
      "्वार": 2210,
      "eptember": 2211,
      "▁रूप": 2212,
      "తంత్ర": 2213,
      "▁not": 2214,
      "engal": 2215,
      "](https://te.wikipedia.org/wiki/భారతదేశం#cite_ref-": 2216,
      "దక్షిణ": 2217,
      "]](https://te.wikipedia.org/wiki/భారతదేశం#cite_note-": 2218,
      "_at": 2219,
      "07": 2220,
      "_In": 2221,
      "pt": 2222,
      "पति": 2223,
      "सद": 2224,
      "▁us": 2225,
      "▁मे": 2226,
      "ide": 2227,
      "▁Pradesh": 2228,
      "▁दे": 2229,
      "ional": 2230,
      "▁गण": 2231,
      "also": 2232,
      "National": 2233,
      "cre": 2234,
      "▁24": 2235,
      "▁year": 2236,
      "](https://en.wikipedia.org/wiki/J": 2237,
      "cient": 2238,
      "▁into": 2239,
      "▁system": 2240,
      "map": 2241,
      "emb": 2242,
      "_Press": 2243,
      "uclear": 2244,
      "uropean": 2245,
      "_స": 2246,
      "_और": 2247,
      "एं": 2248,
      "स्ट": 2249,
      "िन्": 2250,
      "తము": 2251,
      "వే": 2252,
      "ష్": 2253,
      "ాన్": 2254,
      "స్క": 2255,
      "▁En": 2256,
      "▁have": 2257,
      "ड़ा": 2258,
      "imes": 2259,
      "fficial": 2260,
      "▁यह": 2261,
      "ज्ञान": 2262,
      "ిల్లీ": 2263,
      "ographi": 2264,
      "▁[t": 2265,
      "▁off": 2266,
      "▁15": 2267,
      "\"](https://": 2268,
      "0.": 2269,
      "2-0)": 2270,
      "_m": 2271,
      "_re": 2272,
      "ocial": 2273,
      "ङ्": 2274,
      "तेल": 2275,
      "▁नाम": 2276,
      "▁[हिन्द": 2277,
      "▁\"इ": 2278,
      "\")**": 2279,
      "now": 2280,
      "anges": 2281,
      "▁during": 2282,
      "s.[[": 2283,
      "नेपाल": 2284,
      "_summit": 2285,
      "त्प": 2286,
      "Dyson2018": 2287,
      ",000": 2288,
      "uis": 2289,
      "argest": 2290,
      "▁[Archived](https://web.archive.org/web/20": 2291,
      "dus": 2292,
      "तर": 2293,
      "भी": 2294,
      "జి": 2295,
      "ధాన": 2296,
      "బె": 2297,
      "▁\"विशेष:पुस्तक": 2298,
      "inister": 2299,
      "](https://hi.wikipedia.org/wiki/ISBN_(identifier)": 2300,
      "](https://hi.wikipedia.org/wiki/विशेष:पुस्तक": 2301,
      "▁स्रोत/": 2302,
      "▁their": 2303,
      "▁पा": 2304,
      "ారు": 2305,
      "▁comp": 2306,
      "](https://hi.wikipedia.org/wiki/भारत_के_": 2307,
      "▁दक्षिण": 2308,
      "लाई": 2309,
      "_स्रोत/": 2310,
      "▁కా": 2311,
      "▁[ISBN](https://hi.wikipedia.org/wiki/ISBN_(identifier)": 2312,
      "_के_आ": 2313,
      "▁రాజ": 2314,
      "▁लि": 2315,
      "▁language\")": 2316,
      "▁(PDF)": 2317,
      "साँचा:": 2318,
      "ांग्ला": 2319,
      "](https://hi.wikipedia.org/wiki/विशेष:पुस्तक_स्रोत/": 2320,
      "jab": 2321,
      "mi": 2322,
      "oor": 2323,
      "\")*.": 2324,
      "ince": 2325,
      "idd": 2326,
      "ram": 2327,
      "▁Archived": 2328,
      "▁first": 2329,
      "▁Pro": 2330,
      "ill": 2331,
      "ayan": 2332,
      "odi": 2333,
      "▁Press\").": 2334,
      "outledge": 2335,
      "%28": 2336,
      "44": 2337,
      "_K": 2338,
      "ote": 2339,
      "सी": 2340,
      "annic": 2341,
      "India)": 2342,
      "्यव": 2343,
      "▁countries": 2344,
      "ref-1": 2345,
      "note-1": 2346,
      "ctober": 2347,
      "ritannic": 2348,
      "▁October": 2349,
      ".\"\n": 2350,
      "fl": 2351,
      "son": 2352,
      "▁also": 2353,
      "▁par": 2354,
      "▁16": 2355,
      "▁2023": 2356,
      "\n\n###": 2357,
      ".svg": 2358,
      "_अ": 2359,
      "ंप": 2360,
      "क्स": 2361,
      "खा": 2362,
      "बर": 2363,
      "ली": 2364,
      "िन": 2365,
      "దు": 2366,
      "మ్": 2367,
      "శ్": 2368,
      "▁राष्ट्रीय": 2369,
      "2023": 2370,
      "ार्ट": 2371,
      "▁मु": 2372,
      "▁पूर्व": 2373,
      "](https://te.wikipedia.org/wiki/క": 2374,
      "▁part": 2375,
      "▁अप": 2376,
      "్యవ": 2377,
      "▁[↑](https://hi.wikipedia.org/wiki/भारत#cite_": 2378,
      "विधान": 2379,
      "▁जु": 2380,
      "ेश्वर": 2381,
      "▁है,": 2382,
      "▁विक": 2383,
      "](https://mai.wikipedia.org/wiki/भारत": 2384,
      "history": 2385,
      "liament": 2386,
      "ूचना": 2387,
      "_చరిత్ర": 2388,
      "330px-": 2389,
      "/0": 2390,
      "31": 2391,
      "hr": 2392,
      "ive": 2393,
      "▁k": 2394,
      "▁21": 2395,
      "cience": 2396,
      "▁Sh": 2397,
      "▁dis": 2398,
      "brary": 2399,
      "usiness": 2400,
      "एशिया": 2401,
      "जय": 2402,
      "▁यु": 2403,
      "▁con": 2404,
      "▁Th": 2405,
      "india/": 2406,
      "▁2024": 2407,
      "-80": 2408,
      "▁अनुसार": 2409,
      "udden": 2410,
      "_University": 2411,
      "ban": 2412,
      "ne": 2413,
      "▁[I": 2414,
      "ond": 2415,
      "hism": 2416,
      "/p": 2417,
      "_पर": 2418,
      "धर्म": 2419,
      "बाद": 2420,
      "रक्ष": 2421,
      "ाष्ट्र": 2422,
      "िम": 2423,
      "ेर": 2424,
      "ఢిల్లీ": 2425,
      "పంచ": 2426,
      "–1": 2427,
      "time": 2428,
      "ार्": 2429,
      "▁India:": 2430,
      "etwe": 2431,
      "ారి": 2432,
      "िक्ष": 2433,
      "chno": 2434,
      "▁world": 2435,
      "▁न्या": 2436,
      "नेमा": 2437,
      "_मेला": 2438,
      "धार_पर": 2439,
      "द्योग": 2440,
      "हाराष्ट्र": 2441,
      "మూస": 2442,
      "_के_आधार_पर": 2443,
      "etween": 2444,
      "_के_आधार_पर_भारत": 2445,
      "/A": 2446,
      "ology": 2447,
      "er,": 2448,
      "estern": 2449,
      "19-8": 2450,
      "racy": 2451,
      "▁Aug": 2452,
      "▁September": 2453,
      "ishing": 2454,
      "▁form": 2455,
      "▁(PDF).": 2456,
      "▁Commission": 2457,
      "▁August": 2458,
      "%29": 2459,
      "-19": 2460,
      "ck": 2461,
      "rans": 2462,
      "▁[इ": 2463,
      "▁\"हिन्द": 2464,
      "▁class": 2465,
      "ural": 2466,
      "rop": 2467,
      "unjab": 2468,
      "1994": 2469,
      "pecial:BookSources/978": 2470,
      "▁समय": 2471,
      "\".": 2472,
      "_H": 2473,
      "▁22": 2474,
      "▁2019": 2475,
      "-26": 2476,
      "pib": 2477,
      "वाद": 2478,
      "వు": 2479,
      "▁wi": 2480,
      "▁[न": 2481,
      "▁\"భారతీయ": 2482,
      "thno": 2483,
      "▁मंदिर": 2484,
      "adu": 2485,
      "urr": 2486,
      "▁Metcalf": 2487,
      "▁Re": 2488,
      "ंगा": 2489,
      "राष्ट्रपति": 2490,
      "हासागर": 2491,
      "▁[Archived](https://web.archive.org/web/201": 2492,
      "ंग्रेज़ी": 2493,
      "▁subcontinent": 2494,
      "▁पुरालेखित।.": 2495,
      "▁जुलाई": 2496,
      "_के_आधार_पर_भारत_के_राज्य": 2497,
      "2_": 2498,
      "3-0)": 2499,
      "iver": 2500,
      "wing": 2501,
      "ool": 2502,
      "_University_Press": 2503,
      "टे": 2504,
      "त्य": 2505,
      "धी": 2506,
      "लोक": 2507,
      "श्री": 2508,
      "ोन": 2509,
      "▁\"सं": 2510,
      "्यता": 2511,
      "▁2018": 2512,
      "210": 2513,
      "_क्षेत्र": 2514,
      "▁2006": 2515,
      "▁एशिया": 2516,
      "शासित": 2517,
      "्यवस्था": 2518,
      "fr": 2519,
      "ual": 2520,
      "one": 2521,
      "▁Act": 2522,
      "oll": 2523,
      "CE": 2524,
      "a,": 2525,
      "hol": 2526,
      "pp": 2527,
      "ृष्": 2528,
      "జన": 2529,
      "టు": 2530,
      "టె": 2531,
      "▁[H": 2532,
      "omen": 2533,
      "raven": 2534,
      "amb": 2535,
      "नाग": 2536,
      "▁చె": 2537,
      "నాయ": 2538,
      "aint": 2539,
      "–సా.శ.పూ.": 2540,
      "▁[↑](https://hi.wikipedia.org/wiki/भारत#cite_ref-FOOTNOTE": 2541,
      "▁ఆర్": 2542,
      "▁देशों": 2543,
      "gency": 2544,
      "పాలిత": 2545,
      "స్త్రం:": 2546,
      "▁ప్రాంత": 2547,
      "ేంద్రపాలిత": 2548,
      "](https://te.wikipedia.org/wiki/దస్త్రం:": 2549,
      "-20": 2550,
      "87": 2551,
      "_%28": 2552,
      "▁6": 2553,
      "▁\"H": 2554,
      "-re": 2555,
      "4-0)": 2556,
      "tal": 2557,
      "डिया": 2558,
      "ल\")": 2559,
      "▁res": 2560,
      "▁\"O": 2561,
      "▁India\"),": 2562,
      "ान\")": 2563,
      "र्द": 2564,
      "▁Ass": 2565,
      "▁Se": 2566,
      "▁अधिक": 2567,
      "ember": 2568,
      "▁June": 2569,
      "ortal": 2570,
      "▁साम्राज्य": 2571,
      "▁been": 2572,
      "▁प्रदेश\")": 2573,
      "chnology": 2574,
      "_I": 2575,
      "▁per": 2576,
      "eser": 2577,
      "rade": 2578,
      "▁but": 2579,
      "▁[*A": 2580,
      "iddle": 2581,
      "cri": 2582,
      "ok": 2583,
      "ंक": 2584,
      "धु": 2585,
      "ఖ్య": 2586,
      "గో": 2587,
      "తో": 2588,
      "బి": 2589,
      "హి": 2590,
      "ara": 2591,
      "▁मा": 2592,
      "▁population": 2593,
      "▁Cambridge": 2594,
      "▁between": 2595,
      "ंगाल": 2596,
      "▁तट": 2597,
      "▁एवं": 2598,
      "ffair": 2599,
      "श्मीर": 2600,
      "्वतंत्र": 2601,
      "స్కృ": 2602,
      "ritannica": 2603,
      "-language": 2604,
      "countries": 2605,
      "oast": 2606,
      "andhi": 2607,
      "edic": 2608,
      "-17": 2609,
      "able": 2610,
      ".jpg/330px-": 2611,
      ".html": 2612,
      "_3": 2613,
      "ft": 2614,
      "fric": 2615,
      "lad": 2616,
      "ran": 2617,
      "ron": 2618,
      "ule": 2619,
      "va": 2620,
      "दिल्ल": 2621,
      "वै": 2622,
      "ृति": 2623,
      "arh": 2624,
      "1947": 2625,
      "▁more": 2626,
      "▁2016": 2627,
      "ड़ी": 2628,
      "ाद्वीप": 2629,
      "Harle": 2630,
      "harma": 2631,
      "गुजरात": 2632,
      "embly": 2633,
      "rish": 2634,
      "▁al": 2635,
      "▁ac": 2636,
      "ped": 2637,
      "are": 2638,
      "ident": 2639,
      "amp": 2640,
      "ument": 2641,
      "▁Population": 2642,
      "avid": 2643,
      "%2F": 2644,
      "904": 2645,
      "india.gov.in": 2646,
      "\n\n[![](https://upload.wikimedia.org/wikipedia/commons/thumb/": 2647,
      "Template:": 2648,
      "_ప": 2649,
      "ीस": 2650,
      "ेट": 2651,
      "ैक": 2652,
      "హా": 2653,
      "▁Y": 2654,
      "▁all": 2655,
      "▁ను": 2656,
      "▁జాతీయ": 2657,
      "ering": 2658,
      "▁केंद्र": 2659,
      "भाग": 2660,
      "संख्या": 2661,
      "%20%20": 2662,
      "view": 2663,
      "▁स्थ": 2664,
      "▁वर्ष": 2665,
      "▁2014.\n": 2666,
      "్యవస్థ": 2667,
      "8)": 2668,
      "mu": 2669,
      "oon": 2670,
      "▁[[": 2671,
      "▁[Indian": 2672,
      "▁bec": 2673,
      "▁music": 2674,
      "igh": 2675,
      "berg": 2676,
      "formatics": 2677,
      "ligi": 2678,
      "logue": 2679,
      "▁century": 2680,
      ":[": 2681,
      "_W": 2682,
      "pl": 2683,
      "van": 2684,
      ".org/10.": 2685,
      "▁\"W": 2686,
      "2024": 2687,
      "र्भ": 2688,
      "\n\n-": 2689,
      "म्प": 2690,
      "depend": 2691,
      "-2)": 2692,
      "doi.org/10.": 2693,
      "ures": 2694,
      "istan": 2695,
      "epublic": 2696,
      "umbai": 2697,
      "▁state": 2698,
      "81": 2699,
      "fic": 2700,
      "ibrary": 2701,
      "lang": 2702,
      "tates": 2703,
      "एँ": 2704,
      "गो": 2705,
      "चे": 2706,
      "डी": 2707,
      "मार": 2708,
      "रण": 2709,
      "ोड़": 2710,
      "డా": 2711,
      "దా": 2712,
      "బడ": 2713,
      "మే": 2714,
      "రణ": 2715,
      "▁।": 2716,
      "▁లో": 2717,
      "peration": 2718,
      "▁[ज": 2719,
      "▁\"I": 2720,
      "▁मूल": 2721,
      "icy": 2722,
      "ाला": 2723,
      "▁dance": 2724,
      "▁जो": 2725,
      "term": 2726,
      "▁after": 2727,
      "▁बहु": 2728,
      "▁सेना": 2729,
      "▁కూ": 2730,
      "ాలు,": 2731,
      "▁2009": 2732,
      "-81": 2733,
      "▁రాష్ట్ర": 2734,
      "▁भू": 2735,
      "विश्व": 2736,
      "rick": 2737,
      "ompany": 2738,
      "కిస్తాన్": 2739,
      "clud": 2740,
      "म्बर": 2741,
      "▁చరిత్ర\")": 2742,
      "ujar": 2743,
      "्यटन": 2744,
      "thnologue": 2745,
      "88": 2746,
      "par": 2747,
      "ttar": 2748,
      "▁[3": 2749,
      "▁East": 2750,
      ".jpg)\n\n": 2751,
      "ces": 2752,
      "imp": 2753,
      "ls": 2754,
      "णि": 2755,
      "तु": 2756,
      "हित": 2757,
      "▁over": 2758,
      "ia\")": 2759,
      "cember": 2760,
      "▁ab": 2761,
      "230": 2762,
      "▁वा": 2763,
      "form": 2764,
      "▁1950": 2765,
      "▁[Stein": 2766,
      "▁For": 2767,
      "▁Jan": 2768,
      "हिन्दी": 2769,
      "4–": 2770,
      "76": 2771,
      "dustry": 2772,
      "pur": 2773,
      "wart": 2774,
      "zberg": 2775,
      "▁other": 2776,
      "kim": 2777,
      "iation": 2778,
      "ones": 2779,
      "▁pl": 2780,
      "chwart": 2781,
      "▁National": 2782,
      "fore": 2783,
      "olitical": 2784,
      "▁Press.": 2785,
      "▁years": 2786,
      "chwartzberg": 2787,
      "2/": 2788,
      "75": 2789,
      "her": 2790,
      "wo": 2791,
      "तिक": 2792,
      "भू": 2793,
      "▁छ": 2794,
      "▁ఈ": 2795,
      "▁భారత": 2796,
      "▁28": 2797,
      "](https://en.wikipedia.org/wiki/W": 2798,
      "▁comm": 2799,
      "▁di": 2800,
      "नाथ": 2801,
      "▁English": 2802,
      "త్రి": 2803,
      "ాలు\")": 2804,
      "ాలు](https://te.wikipedia.org/wiki/": 2805,
      "▁अन्य": 2806,
      "les\\_": 2807,
      "ovement": 2808,
      "▁region": 2809,
      "1-0)": 2810,
      "500": 2811,
      "_O": 2812,
      "lam": 2813,
      "▁[e": 2814,
      "▁[v": 2815,
      "\").\n": 2816,
      "alley": 2817,
      "ade": 2818,
      "life": 2819,
      "ird": 2820,
      "▁2020": 2821,
      "▁number": 2822,
      "_De": 2823,
      "ganisation": 2824,
      "%7": 2825,
      ".as": 2826,
      "ges": 2827,
      "por": 2828,
      "y\")": 2829,
      "ze": 2830,
      "ंस": 2831,
      "निक": 2832,
      "ीत": 2833,
      "pear": 2834,
      "▁[Metcalf": 2835,
      "▁\"आ": 2836,
      "](https://en.wikipedia.org/wiki/H": 2837,
      "2016": 2838,
      "rime": 2839,
      "anglad": 2840,
      "▁most": 2841,
      "cture": 2842,
      "▁(identifier)\"):[": 2843,
      "▁उत्तर": 2844,
      "र्थिक": 2845,
      "angladesh": 2846,
      "79": 2847,
      "▁es": 2848,
      "arb": 2849,
      "2019": 2850,
      "▁Ar": 2851,
      "lob": 2852,
      "cyc": 2853,
      "obb": 2854,
      "-to": 2855,
      "64": 2856,
      "ID": 2857,
      "_క": 2858,
      "गोल": 2859,
      "टक": 2860,
      "धि": 2861,
      "रो": 2862,
      "ल्": 2863,
      "తు": 2864,
      "పతి": 2865,
      "▁फ": 2866,
      "▁ని": 2867,
      "▁27": 2868,
      "▁స్థ": 2869,
      "▁[అ": 2870,
      "▁[ప": 2871,
      "▁\"భారతదేశం": 2872,
      "\")\n": 2873,
      "్రి": 2874,
      "▁अग": 2875,
      "▁अरब": 2876,
      "ourt": 2877,
      "ర్వ": 2878,
      "న్ని": 2879,
      "▁है।\n\n": 2880,
      "ose": 2881,
      "म्म": 2882,
      "apit": 2883,
      ".jpg)](https://hi.wikipedia.org/wiki/चित्र:": 2884,
      "वंश": 2885,
      "▁जाता": 2886,
      "మిళ": 2887,
      "न्त्र": 2888,
      "వంశ": 2889,
      "महाद्वीप": 2890,
      "वेब": 2891,
      "द्योगिक": 2892,
      "्वतंत्रता": 2893,
      "_t": 2894,
      "▁en": 2895,
      "theast": 2896,
      "2001": 2897,
      "olicy": 2898,
      "▁election": 2899,
      "▁[South": 2900,
      "ustral": 2901,
      "emple": 2902,
      "ikshi": 2903,
      "▁[2](https://en.wikipedia.org/wiki/India#cite_ref-FOOTNOTE": 2904,
      "▁[1](https://en.wikipedia.org/wiki/India#cite_ref-FOOTNOTE": 2905,
      "times.com/": 2906,
      "ikshit": 2907,
      "*,": 2908,
      "-f": 2909,
      "िज": 2910,
      "encies": 2911,
      "▁\"न": 2912,
      "asia": 2913,
      "2000": 2914,
      "atus": 2915,
      "▁Congress": 2916,
      "_of_the": 2917,
      "▁Talbot": 2918,
      "▁May": 2919,
      "with\\_": 2920,
      "▁states": 2921,
      "ographic": 2922,
      "Fisher": 2923,
      "p?": 2924,
      "orther": 2925,
      "ash": 2926,
      "2012": 2927,
      "▁13": 2928,
      "union": 2929,
      "ode": 2930,
      "Fisher2018": 2931,
      "-le": 2932,
      "Ar": 2933,
      "CO": 2934,
      "IM": 2935,
      "_आ": 2936,
      "_మ": 2937,
      "_భాష": 2938,
      "cent": 2939,
      "lations": 2940,
      "द्वीप": 2941,
      "पे": 2942,
      "मंत्र": 2943,
      "रवरी": 2944,
      "ाट": 2945,
      "ूर्": 2946,
      "ఫ్": 2947,
      "▁ड": 2948,
      "▁స్": 2949,
      "▁[आ": 2950,
      "▁[బ": 2951,
      "▁[స": 2952,
      "▁[पु": 2953,
      "▁\"అ": 2954,
      "ics": 2955,
      "ama": 2956,
      "wealth": 2957,
      "विज्ञान": 2958,
      "న్నాయ": 2959,
      "▁కాల": 2960,
      "ड़े": 2961,
      "]](https://hi.wikipedia.org/wiki/भारत#cite_note-1": 2962,
      "eport": 2963,
      "▁Oxford": 2964,
      ".jpg)](https://te.wikipedia.org/wiki/దస్త్రం:": 2965,
      "ी](https://hi.wikipedia.org/wiki/अ": 2966,
      "ndaman": 2967,
      "ులు](https://te.wikipedia.org/wiki/": 2968,
      "▁రై": 2969,
      "यालय": 2970,
      "హిందూ": 2971,
      "▁थी": 2972,
      "▁[↑](https://hi.wikipedia.org/wiki/भारत#cite_ref-1": 2973,
      "▁2006](https://en.wikipedia.org/wiki/India#CITEREF": 2974,
      "-21": 2975,
      "1–": 2976,
      "co": 2977,
      "oth": 2978,
      "ale": 2979,
      "ased": 2980,
      "▁Ch": 2981,
      "▁Census": 2982,
      "auth": 2983,
      "120px-": 2984,
      "▁territories": 2985,
      "ffairs": 2986,
      ")\n": 2987,
      "-25": 2988,
      "89": 2989,
      "Vi": 2990,
      "_ब": 2991,
      "_territ": 2992,
      "min": 2993,
      "oci": 2994,
      "फल": 2995,
      "ौद्ध": 2996,
      "▁ऊ": 2997,
      "reat": 2998,
      "्रम": 2999,
      "▁spe": 3000,
      "▁Constitution": 3001,
      "str": 3002,
      "▁2012": 3003,
      "▁had": 3004,
      "पुरी": 3005,
      "▁रह": 3006,
      "censusindia.gov.in/": 3007,
      "ed.).": 3008,
      "▁official": 3009,
      "▁विकास": 3010,
      "langoff": 3011,
      "▁January": 3012,
      "orthern": 3013,
      ".india": 3014,
      "4).": 3015,
      "86": 3016,
      "a/": 3017,
      "pa": 3018,
      "rin": 3019,
      "▁[s": 3020,
      "onwealth": 3021,
      "high": 3022,
      "eration": 3023,
      "ough": 3024,
      "adi": 3025,
      "ched": 3026,
      "▁Budd": 3027,
      "▁BCE": 3028,
      "ight": 3029,
      "emoc": 3030,
      "▁[2](https://en.wikipedia.org/wiki/India#cite_ref-": 3031,
      "▁[1](https://en.wikipedia.org/wiki/India#cite_ref-": 3032,
      "AsherTalbot2008": 3033,
      "▁2010](https://en.wikipedia.org/wiki/India#CITEREF": 3034,
      "ughal": 3035,
      "CN": 3036,
      "Uttar": 3037,
      "_प": 3038,
      "डु": 3039,
      "ील": 3040,
      "ఆసియా": 3041,
      "ద్ర": 3042,
      "భూ": 3043,
      "మె": 3044,
      "య్య": 3045,
      "ర్య": 3046,
      "▁ई": 3047,
      "▁ల": 3048,
      "▁23": 3049,
      "](https://doi.org/10.": 3050,
      "▁\"ప": 3051,
      "▁\"బ": 3052,
      "▁\"స": 3053,
      "ofindia": 3054,
      "▁पार्ट": 3055,
      "▁[↑](https://te.wikipedia.org/wiki/భారతదేశం#cite_ref-": 3056,
      "ross": 3057,
      "files/": 3058,
      "नाव": 3059,
      "▁द्वार": 3060,
      "_सा": 3061,
      "माज": 3062,
      "▁संविधान": 3063,
      "త్త": 3064,
      "▁అధిక": 3065,
      "▁ప్రదేశ్": 3066,
      "ప్రదేశ్": 3067,
      "सेना": 3068,
      "▁चु": 3069,
      "▁हुई": 3070,
      "त्पाद": 3071,
      "▁నుండి": 3072,
      "న్నాయి.": 3073,
      "55": 3074,
      "_4": 3075,
      "country": 3076,
      "pect": 3077,
      "andard": 3078,
      "eds.": 3079,
      "riod": 3080,
      "▁tradition": 3081,
      "come": 3082,
      "▁1,": 3083,
      "▁dec": 3084,
      "▁national": 3085,
      "▁Hindi": 3086,
      "▁December": 3087,
      "▁became": 3088,
      "-78": 3089,
      "1]](https://en.wikipedia.org/wiki/India#cite_note-FOOTNOTE": 3090,
      "73": 3091,
      "GDP": 3092,
      "TR": 3093,
      "has": 3094,
      "योग": 3095,
      "वार": 3096,
      "▁up": 3097,
      "\");": 3098,
      "ala": 3099,
      "▁सद": 3100,
      "राठ": 3101,
      "▁two": 3102,
      "change": 3103,
      "▁me": 3104,
      "▁2022": 3105,
      "▁It": 3106,
      "▁क्षेत्र\")": 3107,
      "्रीका": 3108,
      "olitics": 3109,
      "गणना": 3110,
      "ज्ञा": 3111,
      "%E0%A4%B": 3112,
      "ligious": 3113,
      "bi": 3114,
      "s-": 3115,
      "ised": 3116,
      "▁Pe": 3117,
      "▁Plate": 3118,
      "▁March": 3119,
      "▁Development": 3120,
      "nown": 3121,
      ",[[": 3122,
      "-23": 3123,
      "-28": 3124,
      "2).": 3125,
      "han": 3126,
      "इल": 3127,
      "कल": 3128,
      "खाना": 3129,
      "नगर": 3130,
      "पी": 3131,
      "िप": 3132,
      "िस्तान": 3133,
      "ణి": 3134,
      "తమిళ": 3135,
      "మైన": 3136,
      "హార": 3137,
      "ోర్": 3138,
      "▁राष्ट्र": 3139,
      "▁\"ఇ": 3140,
      "▁\"భారత": 3141,
      "](https://hi.wikipedia.org/wiki/इ": 3142,
      "▁सभ": 3143,
      "▁सु": 3144,
      "](https://te.wikipedia.org/wiki/బ": 3145,
      "▁दिया": 3146,
      "▁बढ़": 3147,
      "-40": 3148,
      "abad": 3149,
      "▁మొ": 3150,
      "harat": 3151,
      "▁इतिहास": 3152,
      "నాగ": 3153,
      "త్తర": 3154,
      ".gov.in/": 3155,
      "ులు\")": 3156,
      "हाय": 3157,
      "▁हुआ": 3158,
      "फ़रवरी": 3159,
      "ंबई": 3160,
      "देव": 3161,
      "ారు.": 3162,
      "▁लिए": 3163,
      "శ్మీ": 3164,
      "మూస:": 3165,
      "र्दू": 3166,
      "censusindia.gov.in/2011": 3167,
      ".n": 3168,
      "7-0": 3169,
      "Asia": 3170,
      "if": 3171,
      "▁we": 3172,
      "▁ro": 3173,
      "▁[O": 3174,
      "](https://en.wikipedia.org/wiki/The": 3175,
      "read": 3176,
      "omin": 3177,
      "▁includ": 3178,
      "rah": 3179,
      "▁summit\")": 3180,
      "etail": 3181,
      "ing\\_": 3182,
      "▁caste": 3183,
      "ussia": 3184,
      "loy": 3185,
      "▁war": 3186,
      "ters": 3187,
      "1997": 3188,
      "_in_S": 3189,
      "▁2025": 3190,
      "rits": 3191,
      "▁general": 3192,
      "▁artic": 3193,
      "▁[*India": 3194,
      "▁\"Economy": 3195,
      "](https://en.wikipedia.org/wiki/Economy": 3196,
      "ivil": 3197,
      ".indiatimes.com/": 3198,
      "-B": 3199,
      "6).": 3200,
      "_19": 3201,
      "cat": 3202,
      "f/": 3203,
      "गा": 3204,
      "ोस": 3205,
      "▁'": 3206,
      "▁ट": 3207,
      "city": 3208,
      "inguis": 3209,
      "\\_देश": 3210,
      "▁*The": 3211,
      "erala": 3212,
      "स्कृति": 3213,
      "EO": 3214,
      "WEO": 3215,
      "_V": 3216,
      "_11": 3217,
      "c=": 3218,
      "cord": 3219,
      "ect": 3220,
      "get": 3221,
      "nam": 3222,
      "vol": 3223,
      "▁$": 3224,
      "▁Union": 3225,
      "ann": 3226,
      "tionary": 3227,
      "rain": 3228,
      "▁1.": 3229,
      "▁Times": 3230,
      "▁Reg": 3231,
      "_Centre": 3232,
      ".png": 3233,
      ")\n-": 3234,
      "_f": 3235,
      "_देश": 3236,
      "ae": 3237,
      "eh": 3238,
      "jan": 3239,
      "lesh": 3240,
      "rganisation": 3241,
      "ंति": 3242,
      "काल": 3243,
      "न](https://hi.wikipedia.org/wiki/": 3244,
      "भु": 3245,
      "रेल": 3246,
      "सभा": 3247,
      "िज़": 3248,
      "०१": 3249,
      "శా": 3250,
      "ైనా": 3251,
      "▁j": 3252,
      "▁[ఇ": 3253,
      "▁[India": 3254,
      "▁[doi": 3255,
      "teen": 3256,
      "▁\"జ": 3257,
      "](https://en.wikipedia.org/wiki/O": 3258,
      "arna": 3259,
      "▁|\n\n": 3260,
      "thematics": 3261,
      "▁मार": 3262,
      "ooperation": 3263,
      "](https://te.wikipedia.org/wiki/ఇ": 3264,
      "](https://te.wikipedia.org/wiki/స": 3265,
      "्ता:": 3266,
      "atar": 3267,
      "िक्": 3268,
      "chool": 3269,
      "భారత_": 3270,
      "▁जून": 3271,
      "▁दृ": 3272,
      "▁दिस": 3273,
      "olk": 3274,
      "राजस्थान": 3275,
      "▁BRICS": 3276,
      "▁प्रमुख": 3277,
      "_(India)": 3278,
      "రాజ": 3279,
      "లో](https://te.wikipedia.org/wiki/": 3280,
      "](https://mai.wikipedia.org/wiki/म": 3281,
      "రిజ": 3282,
      "క్కు": 3283,
      "ండ్": 3284,
      "त्तरा": 3285,
      "जाति": 3286,
      "ow/": 3287,
      "धानमंत्र": 3288,
      "▁\"Doi": 3289,
      "](https://en.wikipedia.org/wiki/Doi": 3290,
      "ुख्य": 3291,
      "ैदान": 3292,
      "▁खाना\")": 3293,
      "माणु": 3294,
      "స్కృతి": 3295,
      "▁(identifier)\"):[10.": 3296,
      "▁अगस्त": 3297,
      "म्मू": 3298,
      "IMF": 3299,
      "leshow/": 3300,
      "▁[doi](https://en.wikipedia.org/wiki/Doi": 3301,
      "▁दिसम्बर": 3302,
      "▁[doi](https://en.wikipedia.org/wiki/Doi_(identifier)": 3303,
      "/S": 3304,
      "7/": 3305,
      "99": 3306,
      "▁time": 3307,
      "ini": 3308,
      "ered": 3309,
      "▁incre": 3310,
      "▁Fe": 3311,
      ".jpg/120px-": 3312,
      "▁Commissioner": 3313,
      "32": 3314,
      "5–": 3315,
      "C).": 3316,
      "yan": 3317,
      "▁30": 3318,
      "▁und": 3319,
      "tel": 3320,
      "omas": 3321,
      "▁India.": 3322,
      "1950": 3323,
      "▁Sanskrit": 3324,
      "adh": 3325,
      "ung": 3326,
      "ताब्": 3327,
      "imalay": 3328,
      "▁War": 3329,
      "doc": 3330,
      "bruary": 3331,
      ".ph": 3332,
      ")\n\n##": 3333,
      "ublishing": 3334,
      "▁period": 3335,
      "▁प्राप्त": 3336,
      ".aspx": 3337,
      "4/": 3338,
      "Craven": 3339,
      "cms": 3340,
      "oy": 3341,
      "slam": 3342,
      "yayan": 3343,
      "▁ref": 3344,
      "▁rate": 3345,
      "tes": 3346,
      "tecture": 3347,
      "than": 3348,
      "](https://en.wikipedia.org/wiki/I": 3349,
      "19-9": 3350,
      "▁sh": 3351,
      "▁sup": 3352,
      "logo": 3353,
      "cean": 3354,
      "▁modern": 3355,
      "ilg": 3356,
      "illion": 3357,
      "▁one": 3358,
      "lain": 3359,
      "▁Press](https://en.wikipedia.org/wiki/": 3360,
      "ultan": 3361,
      "521-80": 3362,
      "atsyayan": 3363,
      "KulkeRothermund2004": 3364,
      "Hinduism": 3365,
      "ainting": 3366,
      "_Island": 3367,
      "countries_by": 3368,
      "904-7": 3369,
      "ricket": 3370,
      "ujarat": 3371,
      "Craven1997": 3372,
      "521-80904-7": 3373,
      "&s": 3374,
      ".htm": 3375,
      "124": 3376,
      "LA": 3377,
      "bn": 3378,
      "ee": 3379,
      "lag": 3380,
      "ned": 3381,
      "tro": 3382,
      "ाम": 3383,
      "ेस": 3384,
      "ैल": 3385,
      "ैंड": 3386,
      "ం?action=edit&redlink=1": 3387,
      "చే": 3388,
      "బా": 3389,
      "▁ओ": 3390,
      "▁फ़रवरी": 3391,
      "▁[ओ": 3392,
      "▁[జ": 3393,
      "▁\"ओ": 3394,
      "▁\"ज": 3395,
      "](https://hi.wikipedia.org/wiki/सं": 3396,
      "▁(eds.": 3397,
      "▁महासागर": 3398,
      "▁पह": 3399,
      "र्स": 3400,
      "र्जा": 3401,
      "](https://hi.wikipedia.org/wiki/भारतीय": 3402,
      "▁పా": 3403,
      "▁बा": 3404,
      "▁बना": 3405,
      "▁వా": 3406,
      "▁group": 3407,
      "ండు": 3408,
      "▁చూ": 3409,
      "र्वत": 3410,
      "త్వ": 3411,
      "पात": 3412,
      "ंडिया": 3413,
      "ंग्रेस": 3414,
      "ीपी": 3415,
      "ప్రధాన": 3416,
      "▁తే": 3417,
      "mbol": 3418,
      "▁शासन": 3419,
      "▁हिन्दी": 3420,
      "हीं": 3421,
      "वेबैक": 3422,
      "▁द्वारा": 3423,
      "inguistic": 3424,
      "▁मार्च": 3425,
      "minist": 3426,
      "▁0.": 3427,
      "\"):": 3428,
      "chin": 3429,
      "1990": 3430,
      "cond": 3431,
      "1162": 3432,
      "▁than": 3433,
      "▁northern": 3434,
      "▁[*The": 3435,
      "duction": 3436,
      "2]](https://en.wikipedia.org/wiki/India#cite_note-FOOTNOTE": 3437,
      "Main": 3438,
      "ahar": 3439,
      "m.nic.in/": 3440,
      "ncl": 3441,
      "vatsyayan": 3442,
      "way": 3443,
      "त्व": 3444,
      "लयाल": 3445,
      "िख": 3446,
      "ोष": 3447,
      "▁am": 3448,
      "▁29": 3449,
      "▁end": 3450,
      "arge": 3451,
      "astern": 3452,
      "▁such": 3453,
      "\n\nMain": 3454,
      "ताज": 3455,
      "▁later": 3456,
      "](https://mai.wikipedia.org/wiki/ब": 3457,
      "▁there": 3458,
      "aksh": 3459,
      "▁art": 3460,
      "](https://en.wikipedia.org/wiki/South_Asia": 3461,
      "-108": 3462,
      "-107-1": 3463,
      "CS1": 3464,
      "_BRICS": 3465,
      "athak": 3466,
      "ovember": 3467,
      "▁million": 3468,
      "-in-": 3469,
      "धिकारिक": 3470,
      "-lord": 3471,
      "ोर्ड": 3472,
      "19-88": 3473,
      "▁classical": 3474,
      "श्रील": 3475,
      "ehru": 3476,
      "nclm.nic.in/": 3477,
      "vatsyayan-lord": 3478,
      "/auth": 3479,
      "98": 3480,
      "ealth": 3481,
      "site": 3482,
      "utt": 3483,
      "ar,": 3484,
      "▁(*": 3485,
      "olper": 3486,
      "▁2008": 3487,
      "akh": 3488,
      "▁1947": 3489,
      "ankar": 3490,
      "lobal": 3491,
      "olpert": 3492,
      "2–": 3493,
      "6–": 3494,
      "En": 3495,
      "JP": 3496,
      "_సా": 3497,
      "back": 3498,
      "ंट": 3499,
      "खंड": 3500,
      "खण्ड": 3501,
      "गान": 3502,
      "रू": 3503,
      "व्यवस्था": 3504,
      "ुरु": 3505,
      "ुंबई": 3506,
      "ोम": 3507,
      "ौर": 3508,
      "ौद्योगिक": 3509,
      "ంప": 3510,
      "కో": 3511,
      "గణ": 3512,
      "దిన": 3513,
      "నై": 3514,
      "రీ": 3515,
      "▁या": 3516,
      "▁\"చ": 3517,
      "arliament": 3518,
      "▁संग": 3519,
      "ould": 3520,
      "्यान": 3521,
      "ict": 3522,
      "](https://te.wikipedia.org/wiki/జ": 3523,
      "ారం": 3524,
      "ammu": 3525,
      "_of_S": 3526,
      "▁जल": 3527,
      "नाडु": 3528,
      "▁दर": 3529,
      "▁Modern": 3530,
      "त्रि": 3531,
      "ments": 3532,
      "▁प्रति": 3533,
      "स्त्र": 3534,
      "upta": 3535,
      "▁క్రీ": 3536,
      "▁2004": 3537,
      "క్‌": 3538,
      "నికి": 3539,
      "ల్ల": 3540,
      "ంగీ": 3541,
      "▁సి": 3542,
      "▁संसद": 3543,
      "osed": 3544,
      "▁Language": 3545,
      "](https://hi.wikipedia.org/wiki/भारत#cite_ref-FOOTNOTE": 3546,
      "నాభా": 3547,
      "किम": 3548,
      "▁हैं,": 3549,
      "జాబి": 3550,
      "पर्यटन": 3551,
      "Hindust": 3552,
      "दीव": 3553,
      "achal": 3554,
      "ikh": 3555,
      "▁[![](https://upload.wikimedia.org/wikipedia/commons/thumb/": 3556,
      "पालिका": 3557,
      "▁इसके": 3558,
      "▁उपमहाद्वीप": 3559,
      "▁శా": 3560,
      "▁భాష\")": 3561,
      "▁सिनेमा": 3562,
      "_Informatics": 3563,
      "▁गणराज्य": 3564,
      "▁Environment": 3565,
      "బెంగ": 3566,
      "िक्षा": 3567,
      "िक्किम": 3568,
      "▁February": 3569,
      "జాబితా": 3570,
      "_Informatics_Centre": 3571,
      "93": 3572,
      "cul": 3573,
      "lor": 3574,
      "ner": 3575,
      "rar": 3576,
      "ras": 3577,
      "ua": 3578,
      "war": 3579,
      "arly": 3580,
      "ed/": 3581,
      "▁(2018": 3582,
      "ouse": 3583,
      "▁south": 3584,
      "etra": 3585,
      "right": 3586,
      "atak": 3587,
      "urt": 3588,
      "▁Per": 3589,
      "▁Pakistan": 3590,
      "istrar": 3591,
      "▁2019.": 3592,
      "olle": 3593,
      "avy": 3594,
      "owland": 3595,
      "▁2011.\n-": 3596,
      "MetcalfMetcalf2006),": 3597,
      "rowth": 3598,
      "▁who": 3599,
      "limate": 3600,
      "▁2018](https://en.wikipedia.org/wiki/India#CITEREF": 3601,
      "Harle1994": 3602,
      "-प": 3603,
      ".IN": 3604,
      "IA": 3605,
      "UN": 3606,
      "_न": 3607,
      "len": 3608,
      "nal": 3609,
      "िला": 3610,
      "र्ज": 3611,
      "url": 3612,
      "rovis": 3613,
      "▁Min": 3614,
      "▁British": 3615,
      "_Sh": 3616,
      "▁K.": 3617,
      "ंग्रेजी": 3618,
      "hinese": 3619,
      "onstituent": 3620,
      "pura": 3621,
      "▁निर्": 3622,
      "▁कार्य": 3623,
      "WEO.IN": 3624,
      "IMFWEO.IN": 3625,
      "Ludden": 3626,
      "Qu": 3627,
      "_for": 3628,
      "tb": 3629,
      "▁/": 3630,
      "tig": 3631,
      "-14": 3632,
      "▁14": 3633,
      "▁2013": 3634,
      "▁2017": 3635,
      "ild": 3636,
      "errit": 3637,
      "do-A": 3638,
      "-to-": 3639,
      "▁under": 3640,
      "Dikshit": 3641,
      "European": 3642,
      "Schwartzberg": 3643,
      "can": 3644,
      "dones": 3645,
      "rm": 3646,
      "ria": 3647,
      "ura": 3648,
      "west": 3649,
      "जान": 3650,
      "दार": 3651,
      "पद": 3652,
      "शक": 3653,
      "ीब": 3654,
      "చల్": 3655,
      "యన్": 3656,
      "షు": 3657,
      "ూర్": 3658,
      "▁high": 3659,
      "▁[m": 3660,
      "▁[చ": 3661,
      "▁[భారత": 3662,
      "▁[భారతీయ": 3663,
      "▁\"V": 3664,
      "▁\"ल": 3665,
      "](https://en.wikipedia.org/wiki/V": 3666,
      "arn": 3667,
      "esearch": 3668,
      "▁industry": 3669,
      "rative": 3670,
      "](https://te.wikipedia.org/wiki/ప": 3671,
      "](https://te.wikipedia.org/wiki/భారతీయ": 3672,
      "ార్ట": 3673,
      "ingdom": 3674,
      "\\_अ": 3675,
      "ాలయ": 3676,
      "state": 3677,
      "▁many": 3678,
      "▁दो": 3679,
      "▁long": 3680,
      "▁large": 3681,
      "▁2003": 3682,
      "క్క": 3683,
      "▁వ్యవస్థ": 3684,
      "ast_Asia": 3685,
      "▁ము": 3686,
      "प्रस": 3687,
      "▁शा": 3688,
      "osi": 3689,
      "ండో": 3690,
      "िये": 3691,
      "ముంబ": 3692,
      "utra": 3693,
      "సిన": 3694,
      "ినల్": 3695,
      "ृत्य": 3696,
      "ద్ద": 3697,
      "▁ఉన్న": 3698,
      "▁rule": 3699,
      "ूनिव": 3700,
      "పాకిస్తాన్": 3701,
      "▁people": 3702,
      "ूरो": 3703,
      "वीं": 3704,
      "ంధీ": 3705,
      "](https://hi.wikipedia.org/wiki/भारत_की_": 3706,
      "](https://hi.wikipedia.org/wiki/भारत_का_": 3707,
      "inistry_of_": 3708,
      "▁ఒక": 3709,
      "▁ఒరిజ": 3710,
      "_संघ": 3711,
      "तेलु": 3712,
      "▁युद्ध": 3713,
      "▁न्यायालय": 3714,
      "pecial:BookSources/978-81": 3715,
      "ृष्ठ": 3716,
      "వంశం": 3717,
      "▁[पुरालेखित": 3718,
      "](https://en.wikipedia.org/wiki/Economy_of_": 3719,
      "धानमंत्री": 3720,
      "▁(eds.).": 3721,
      "▁తేదీ": 3722,
      "▁among": 3723,
      "DikshitSchwartzberg": 3724,
      "ార్టీ": 3725,
      "▁ఒరిజినల్": 3726,
      "DikshitSchwartzberg2023": 3727,
      "\"](https://books.google.com/books?id=": 3728,
      "-of": 3729,
      "2,": 3730,
      "BC": 3731,
      "aus": 3732,
      "ele": 3733,
      "▁[978": 3734,
      "▁[United": 3735,
      "tions": 3736,
      "▁Ac": 3737,
      "▁2015": 3738,
      "▁[\"C": 3739,
      "ssam": 3740,
      "▁union": 3741,
      "▁States": 3742,
      "ances": 3743,
      "Wikipedia": 3744,
      "545": 3745,
      "इन": 3746,
      "उप": 3747,
      "क_स": 3748,
      "टान": 3749,
      "हरा": 3750,
      "▁out": 3751,
      "▁\"ह": 3752,
      "▁कुल": 3753,
      "religion": 3754,
      "ety": 3755,
      "र्ष": 3756,
      "uslim": 3757,
      "▁All": 3758,
      "▁2011.": 3759,
      "▁Bank": 3760,
      ".com/news/": 3761,
      "▁वार": 3762,
      "118": 3763,
      "▁[\"India": 3764,
      "प्रा": 3765,
      "▁शताब्": 3766,
      "▁original](https://www.": 3767,
      "▁ext": 3768,
      "%2C_": 3769,
      "rown": 3770,
      "ervation": 3771,
      "▁2021.": 3772,
      "/articleshow/": 3773,
      "▁\"हिन्दी\")": 3774,
      "01": 3775,
      "3]](https://en.wikipedia.org/wiki/India#cite_note-FOOTNOTE": 3776,
      "7,": 3777,
      "_J": 3778,
      "languages": 3779,
      "rg": 3780,
      "rdu": 3781,
      "wal": 3782,
      "pee": 3783,
      "▁\"India": 3784,
      "eral_": 3785,
      "alore": 3786,
      "2017": 3787,
      "rac": 3788,
      "rim": 3789,
      "▁Arab": 3790,
      "▁Afric": 3791,
      "angalore": 3792,
      "rol": 3793,
      "▁economic": 3794,
      "ources": 3795,
      "_Summit": 3796,
      "ake": 3797,
      "2905": 3798,
      "key": 3799,
      "ineering": 3800,
      "arket": 3801,
      "ynast": 3802,
      "▁Islands": 3803,
      "▁Act,": 3804,
      "_in_South_Asia": 3805,
      "1162-2": 3806,
      "-107-11162-2": 3807,
      "19-882905": 3808,
      "erritory": 3809,
      "ast_Asia_Summit": 3810,
      "19-882905-8": 3811,
      ".fr": 3812,
      "6/": 3813,
      "_ए": 3814,
      "a-": 3815,
      "ymbol": 3816,
      "ंका": 3817,
      "कट": 3818,
      "गंगा": 3819,
      "भो": 3820,
      "शा": 3821,
      "ीमा": 3822,
      "ूह": 3823,
      "జ్": 3824,
      "వరి": 3825,
      "శ్చ": 3826,
      "ిన్న": 3827,
      "ెల": 3828,
      "▁[सा": 3829,
      "tex": 3830,
      "▁\"భారతదేశ": 3831,
      "](https://hi.wikipedia.org/wiki/आ": 3832,
      "](https://hi.wikipedia.org/wiki/ल": 3833,
      "▁सभा": 3834,
      "राबाद": 3835,
      "్రె": 3836,
      "ाने": 3837,
      "र्ना": 3838,
      "roj": 3839,
      "न्स": 3840,
      "▁द्वीप": 3841,
      "_का_": 3842,
      "resident": 3843,
      "254": 3844,
      "▁नी": 3845,
      "24)": 3846,
      "1996": 3847,
      "నిస్తాన్": 3848,
      "▁गा": 3849,
      "▁మధ్య": 3850,
      "▁संबंध": 3851,
      "हिमा": 3852,
      "▁[Asher": 3853,
      "▁Kashmir": 3854,
      "त्तरी": 3855,
      "त्तीस": 3856,
      "▁भाषाओं": 3857,
      "र्वो": 3858,
      "िस्ट": 3859,
      "▁original](https://": 3860,
      "](https://te.wikipedia.org/wiki/భారతదేశంలో": 3861,
      "िरपे": 3862,
      "▁करने": 3863,
      "▁अन्त": 3864,
      "वायु": 3865,
      "▁*[The": 3866,
      "▁ఉంది.": 3867,
      "▁ఉన్నాయి.": 3868,
      "_New": 3869,
      "స్థాన్": 3870,
      "endra": 3871,
      "मेर": 3872,
      "▁मेला\")": 3873,
      "meric": 3874,
      "▁हुए": 3875,
      "ैदराबाद": 3876,
      "▁పేజీ": 3877,
      "orities": 3878,
      "▁[हिन्दी](https://hi.wikipedia.org/wiki/": 3879,
      "भीम": 3880,
      "మ్మూ": 3881,
      "hrist": 3882,
      "▁Assembly": 3883,
      "▁\"భారతదేశంలో": 3884,
      "▁చూసిన": 3885,
      "▁తేదీ:": 3886,
      "శ్చి": 3887,
      "र्नाटक": 3888,
      "िरपेक्ष": 3889,
      "▁పేజీని": 3890,
      "71": 3891,
      "84": 3892,
      "II": 3893,
      "South": 3894,
      "economic": 3895,
      "ix": 3896,
      "▁imp": 3897,
      "tition": 3898,
      "ictionary": 3899,
      "▁some": 3900,
      "ing_": 3901,
      "▁CE": 3902,
      "ulti": 3903,
      "▁Economic": 3904,
      "▁GDP": 3905,
      "ingham": 3906,
      "\"](https://web.archive.org/web/20160": 3907,
      "▁territory": 3908,
      "National_Informatics_Centre": 3909,
      ".png)": 3910,
      "National_Informatics_Centre2005": 3911,
      "300": 3912,
      "6]](https://en.wikipedia.org/wiki/India#cite_note-": 3913,
      "Spear": 3914,
      "che": 3915,
      "cted": 3916,
      "d/": 3917,
      "detail": 3918,
      "election": 3919,
      "fgh": 3920,
      "iri": 3921,
      "jpg": 3922,
      "k:": 3923,
      "pic": 3924,
      "yle": 3925,
      "zation": 3926,
      "थिल": 3927,
      "नु": 3928,
      "फ्रीका": 3929,
      "वास": 3930,
      "ैथिल": 3931,
      "१९": 3932,
      "▁ra": 3933,
      "▁he": 3934,
      "dian": 3935,
      "▁[ह": 3936,
      "▁[19": 3937,
      "▁[दक्षिण": 3938,
      "▁\"दक्षिण": 3939,
      "▁\"Oxford": 3940,
      "\")[[": 3941,
      "ines": 3942,
      "inance": 3943,
      "itary": 3944,
      "2015": 3945,
      "▁मुख्य": 3946,
      "196": 3947,
      "▁social": 3948,
      "-15": 3949,
      "\\_प": 3950,
      "ada": 3951,
      "▁minister": 3952,
      "िया](https://mai.wikipedia.org/wiki/": 3953,
      "ility": 3954,
      "23)": 3955,
      "26)": 3956,
      "pecial:EditPage/": 3957,
      "▁आधिकारिक": 3958,
      "▁her": 3959,
      "▁Nadu": 3960,
      "-317": 3961,
      "▁...": 3962,
      "▁संस्कृति": 3963,
      "apan": 3964,
      "ainism": 3965,
      ".gov/": 3966,
      "overe": 3967,
      "ligence": 3968,
      "▁जनगणना": 3969,
      "▁maj": 3970,
      "ohn": 3971,
      "करण": 3972,
      "/article": 3973,
      "int:": 3974,
      "Artic": 3975,
      "censusindia.gov.in/2011census": 3976,
      "▁article": 3977,
      "teenth": 3978,
      "telligence": 3979,
      "urton": 3980,
      "arnatak": 3981,
      "Spear1990": 3982,
      "fghan": 3983,
      "pecial:EditPage/Template:": 3984,
      "415": 3985,
      "6-0)": 3986,
      "7-0)": 3987,
      "_n": 3988,
      "a.": 3989,
      "e/": 3990,
      "oa": 3991,
      "ins": 3992,
      "▁(1,": 3993,
      "ical_": 3994,
      "▁since": 3995,
      "▁R.": 3996,
      "▁Raj": 3997,
      "▁land": 3998,
      "▁India\").": 3999,
      "28)": 4000,
      "▁Nations": 4001,
      "▁2005": 4002,
      "▁3,": 4003,
      "...": 4004,
      ".svg/": 4005,
      "▁left": 4006,
      "▁used": 4007,
      "0)": 4008,
      "119": 4009,
      "3),": 4010,
      "7_": 4011,
      "91": 4012,
      "94": 4013,
      "_इ": 4014,
      "eb": 4015,
      "i,": 4016,
      "ihar": 4017,
      "jo": 4018,
      "press": 4019,
      "ंह": 4020,
      "को": 4021,
      "गल": 4022,
      "झार": 4023,
      "तट": 4024,
      "दि": 4025,
      "पान": 4026,
      "बा": 4027,
      "मालय": 4028,
      "हन": 4029,
      "हरी": 4030,
      "िहार": 4031,
      "షన్": 4032,
      "హ్": 4033,
      "ెలు": 4034,
      "▁ऑ": 4035,
      "▁लेख": 4036,
      "▁history": 4037,
      "▁term": 4038,
      "▁[V": 4039,
      "▁[च": 4040,
      "▁[Oxford": 4041,
      "](https://hi.wikipedia.org/wiki/ओ": 4042,
      "reme": 4043,
      "▁they": 4044,
      "▁India*](https://books.google.com/books?id=": 4045,
      "](https://te.wikipedia.org/wiki/అ": 4046,
      "etary": 4047,
      "▁China": 4048,
      "▁केन्द्र": 4049,
      "▁ही": 4050,
      "▁होत": 4051,
      "▁अव": 4052,
      "ियां": 4053,
      "ournal": 4054,
      "▁बन": 4055,
      "▁नद": 4056,
      "▁नहीं": 4057,
      "▁से](http://www.": 4058,
      "पुरा": 4059,
      "రియా": 4060,
      "स्थ": 4061,
      "स्ला": 4062,
      "▁उद्य": 4063,
      "▁మార్": 4064,
      "▁है।[[": 4065,
      "▁Official": 4066,
      "▁रहा": 4067,
      "▁Wiki": 4068,
      ".jpg)\n-": 4069,
      "ప్రపంచ": 4070,
      "विशेष:EditPage/": 4071,
      "▁स्था": 4072,
      "▁मेला](https://hi.wikipedia.org/wiki/": 4073,
      "गणराज्य": 4074,
      "श्चिमी": 4075,
      "▁సంస్కృతి": 4076,
      "దీవ": 4077,
      "▁स्रोत/978-0-": 4078,
      "▁स्रोत/978-1": 4079,
      "](https://hi.wikipedia.org/wiki/विशेष:पुस्तक_स्रोत/978-0-": 4080,
      "](https://hi.wikipedia.org/wiki/विशेष:पुस्तक_स्रोत/978-1": 4081,
      "र्भर": 4082,
      "▁भूम": 4083,
      "_Development": 4084,
      "union_territ": 4085,
      "▁चुनाव": 4086,
      "रेलू": 4087,
      "▁[पुरालेखित](https://web.archive.org/web/201": 4088,
      "र्वोच्च": 4089,
      "विशेष:EditPage/साँचा:": 4090,
      "-India": 4091,
      "1-0": 4092,
      "63": 4093,
      "UCN": 4094,
      "az": 4095,
      "garh": 4096,
      "owe": 4097,
      "olog": 4098,
      "work": 4099,
      "▁ci": 4100,
      "▁oc": 4101,
      "orest": 4102,
      "▁\"United": 4103,
      "▁\"History": 4104,
      "tice": 4105,
      "](https://en.wikipedia.org/wiki/History": 4106,
      "19-5": 4107,
      "1970": 4108,
      "▁Cons": 4109,
      "agar": 4110,
      "▁SAARC": 4111,
      "▁found": 4112,
      "▁trans": 4113,
      "▁both": 4114,
      "urban": 4115,
      "rote": 4116,
      "mploy": 4117,
      "▁largest": 4118,
      "industry": 4119,
      "▁India\")\n\n": 4120,
      "ly,": 4121,
      "▁General": 4122,
      "verse": 4123,
      "▁2026": 4124,
      "_Pradesh": 4125,
      "](https://en.wikipedia.org/wiki/South": 4126,
      "_Temple": 4127,
      "riculture": 4128,
      "reek": 4129,
      "ography": 4130,
      "_at_the": 4131,
      "▁world's": 4132,
      "▁play": 4133,
      "▁2006](https://en.wikipedia.org/wiki/India#CITEREFMetcalfMetcalf2006),": 4134,
      "▁article:": 4135,
      "fghanistan": 4136,
      "▁occ": 4137,
      "3TR": 4138,
      "5%": 4139,
      "5-0)": 4140,
      "Ag": 4141,
      "RL": 4142,
      "[![](https://upload.wikimedia.org/wikipedia/commons/thumb/": 4143,
      "_en": 4144,
      "ao": 4145,
      "rd": 4146,
      "नुसार": 4147,
      "▁ले": 4148,
      "▁1998": 4149,
      "भारत)": 4150,
      "rature": 4151,
      "▁Al": 4152,
      "▁अर्थ": 4153,
      "ISO": 4154,
      "india-g": 4155,
      "imf": 4156,
      "harm": 4157,
      "ffer": 4158,
      "ffice": 4159,
      "▁पुरा": 4160,
      "▁वर्ग": 4161,
      "▁2021.\n": 4162,
      "pring": 4163,
      "▁शताब्दी": 4164,
      "3TRt": 4165,
      "127": 4166,
      "9).": 4167,
      "bank": 4168,
      "cess": 4169,
      "itt": 4170,
      "stitu": 4171,
      "ancy": 4172,
      "its": 4173,
      "▁(20": 4174,
      "onsoon": 4175,
      "243": 4176,
      "▁north": 4177,
      "▁Fr": 4178,
      "own": 4179,
      "▁status": 4180,
      "-india-": 4181,
      "formation": 4182,
      "ociety": 4183,
      ".aspx?": 4184,
      "-विज्ञान": 4185,
      "110": 4186,
      "4-108": 4187,
      "6]](https://en.wikipedia.org/wiki/India#cite_note-FOOTNOTE": 4188,
      "Robb": 4189,
      "Sharma": 4190,
      "_व": 4191,
      "_వ": 4192,
      "britannica": 4193,
      "gram": 4194,
      "hang": 4195,
      "ili": 4196,
      "lack": 4197,
      "ning": 4198,
      "ris": 4199,
      "sur": 4200,
      "ंच": 4201,
      "ंत": 4202,
      "इप्रस": 4203,
      "ईरा": 4204,
      "छत्तीस": 4205,
      "तन्त्र": 4206,
      "धन": 4207,
      "लग": 4208,
      "सून": 4209,
      "िंध": 4210,
      "ीच": 4211,
      "।\n\n": 4212,
      "८५": 4213,
      "ం\"),": 4214,
      "ంత్రి": 4215,
      "ఆఫ్": 4216,
      "కత": 4217,
      "కై": 4218,
      "క్య": 4219,
      "దాయ": 4220,
      "రే": 4221,
      "లంక": 4222,
      "వీ": 4223,
      "శ్రీ": 4224,
      "షి": 4225,
      "సు": 4226,
      "▁ఏ": 4227,
      "▁2.": 4228,
      "oral": 4229,
      "](Category:": 4230,
      "▁[ल": 4231,
      "▁[సి": 4232,
      "▁[पाकिस्तान": 4233,
      "▁\"च": 4234,
      "▁\"पाकिस्तान": 4235,
      "ess/": 4236,
      "▁कई": 4237,
      "▁कश्मीर": 4238,
      "](https://hi.wikipedia.org/wiki/च": 4239,
      "▁सैन": 4240,
      "▁(India": 4241,
      "▁मो": 4242,
      "▁मैदान": 4243,
      "▁पर्वत": 4244,
      "](https://te.wikipedia.org/wiki/చ": 4245,
      "▁sp": 4246,
      "▁Company": 4247,
      "\\_स": 4248,
      "▁Summit\")": 4249,
      "los": 4250,
      "▁अप्र": 4251,
      "▁अधिकार": 4252,
      "road": 4253,
      "states": 4254,
      "▁member": 4255,
      "वित": 4256,
      "స్సా": 4257,
      "▁दि": 4258,
      "▁పరి": 4259,
      "▁పార్టీ": 4260,
      "_का": 4261,
      "న్‌": 4262,
      "▁Bengal": 4263,
      "▁बीच": 4264,
      "25)": 4265,
      "▁Delhi": 4266,
      "▁से](http://": 4267,
      "न्दोल": 4268,
      "न्दिर": 4269,
      "क्षा": 4270,
      "▁కు": 4271,
      "▁Gandhi": 4272,
      "ryan": 4273,
      "▁వచ్చ": 4274,
      "▁गु": 4275,
      "▁उत्पाद": 4276,
      "emale": 4277,
      "epal": 4278,
      "_मंदिर": 4279,
      "▁\"Category:": 4280,
      "लेट": 4281,
      "▁इन": 4282,
      "ముద్ర": 4283,
      "▁began": 4284,
      "▁करोड़": 4285,
      "▁अनु": 4286,
      "▁[अंग्रेज़": 4287,
      "ock": 4288,
      "uddhism": 4289,
      "ibet": 4290,
      "engali": 4291,
      "▁\"National": 4292,
      "ूर्वी": 4293,
      "_Empire": 4294,
      "viol": 4295,
      "ultural": 4296,
      "గాంధీ": 4297,
      "▁राजनी": 4298,
      "▁\"पंजाब": 4299,
      "▁[पंजाब": 4300,
      "ducation": 4301,
      "నేపాల": 4302,
      "qual": 4303,
      "Oxford_University_Press": 4304,
      "▁होता": 4305,
      "Stein2010),": 4306,
      "usiness/": 4307,
      "ब्ब": 4308,
      "एसिया": 4309,
      "▁जिसमें": 4310,
      "▁పేరు": 4311,
      "హిందీ": 4312,
      "▁Empire\")": 4313,
      "▁कारण": 4314,
      "074-108": 4315,
      "_मेला?action=edit&redlink=1": 4316,
      "▁చెయ్య": 4317,
      "esert": 4318,
      "गोआ": 4319,
      "▁కూడా": 4320,
      "धिराज्य": 4321,
      "▁2010](https://en.wikipedia.org/wiki/India#CITEREFStein2010),": 4322,
      "-78074-108": 4323,
      "हायता": 4324,
      "yanmar": 4325,
      "▁Press](https://en.wikipedia.org/wiki/Oxford_University_Press": 4326,
      "ultanate": 4327,
      "र्सिट": 4328,
      "ministrative": 4329,
      "श्रीलंका": 4330,
      "ంగీతం": 4331,
      "ముంబై": 4332,
      "ूनिवर्सिट": 4333,
      "ृष्ठसभ": 4334,
      "rgani": 4335,
      "శ్చిమ": 4336,
      "\\_पृष्ठसभ": 4337,
      "Articles\\_": 4338,
      "▁మార్గ": 4339,
      "britannica.com/": 4340,
      "gramme": 4341,
      "▁[अंग्रेज़ी](https://hi.wikipedia.org/wiki/अ": 4342,
      "▁చెయ్యబడ": 4343,
      "-78074-108-6": 4344,
      "/India": 4345,
      "130": 4346,
      "54": 4347,
      "Pages": 4348,
      "_2": 4349,
      "ities": 4350,
      "ling": 4351,
      "hief": 4352,
      "itz": 4353,
      "lem": 4354,
      "lect": 4355,
      "▁Science": 4356,
      "▁12": 4357,
      "▁David": 4358,
      "ubcontinent": 4359,
      "akhand": 4360,
      "epart": 4361,
      "▁Valley": 4362,
      "olden": 4363,
      "-largest": 4364,
      "-language\\_": 4365,
      "Pages\\_": 4366,
      "epartment": 4367,
      ".world": 4368,
      "1-1": 4369,
      "8-0)": 4370,
      "Report": 4371,
      "eval": 4372,
      "गू": 4373,
      "तृत": 4374,
      "दिव": 4375,
      "फा": 4376,
      "मो": 4377,
      "श्य": 4378,
      "ाटी": 4379,
      "▁50": 4380,
      "▁\"तमिल": 4381,
      "aran": 4382,
      "▁power": 4383,
      "▁C.": 4384,
      "▁Con": 4385,
      "local": 4386,
      "▁made": 4387,
      "ाले": 4388,
      "▁total": 4389,
      "def": 4390,
      "▁लोक": 4391,
      "▁राज्य\")": 4392,
      "_Delhi": 4393,
      "▁depend": 4394,
      "edieval": 4395,
      "लयालम": 4396,
      "-C": 4397,
      ".bn": 4398,
      "_g": 4399,
      "af": 4400,
      "be": 4401,
      "ho": 4402,
      "ie": 4403,
      "pres": 4404,
      "anor": 4405,
      "thnic": 4406,
      "eries": 4407,
      "arl": 4408,
      "aro": 4409,
      "aria": 4410,
      "aldi": 4411,
      "cip": 4412,
      "icha": 4413,
      "▁prime": 4414,
      "ament": 4415,
      "lowing": 4416,
      "003": 4417,
      "▁app": 4418,
      "▁Be": 4419,
      "253": 4420,
      "105": 4421,
      "sian": 4422,
      "▁relations": 4423,
      "▁From": 4424,
      ".[[3": 4425,
      "ountain": 4426,
      "ots": 4427,
      "otals": 4428,
      "undament": 4429,
      "ommonwealth": 4430,
      "order": 4431,
      "_East_Asia_Summit": 4432,
      "rough": 4433,
      "](https://en.wikipedia.org/wiki/List_of_countries_by": 4434,
      "histor": 4435,
      "AARC_summit": 4436,
      "▁lead": 4437,
      "/cb": 4438,
      "maputra": 4439,
      "flu": 4440,
      "rishna": 4441,
      "▁York": 4442,
      "emocracy": 4443,
      "rahmaputra": 4444,
      "rovisional": 4445,
      "do-Aryan": 4446,
      "▁(India)\")": 4447,
      "rganization": 4448,
      "aldives": 4449,
      "ichael": 4450,
      "72": 4451,
      "9,": 4452,
      "glia": 4453,
      "ks": 4454,
      "known": 4455,
      "ser": 4456,
      "पक": 4457,
      "मक": 4458,
      "मर": 4459,
      "वल": 4460,
      "शीन": 4461,
      "ीगढ़": 4462,
      "ॉक": 4463,
      "గర": 4464,
      "టక": 4465,
      "టా": 4466,
      "దార": 4467,
      "నీ": 4468,
      "రో": 4469,
      "సభ": 4470,
      "ెద్ద": 4471,
      "▁[वि": 4472,
      "enn": 4473,
      "▁\"సి": 4474,
      "▁कु": 4475,
      "ret": 4476,
      "▁स्त": 4477,
      "▁सूचना": 4478,
      "as,": 4479,
      "▁मध्य": 4480,
      "](https://te.wikipedia.org/wiki/భారత_": 4481,
      "ानव": 4482,
      "र्क": 4483,
      "ams": 4484,
      "urn": 4485,
      "ाल्": 4486,
      "ालदीव": 4487,
      "▁जी": 4488,
      "ेशन": 4489,
      "ेशिया": 4490,
      "▁दशक": 4491,
      "▁పు": 4492,
      "▁Mon": 4493,
      "भाज": 4494,
      "▁D.": 4495,
      "षाण": 4496,
      "రాజ్య": 4497,
      "क्षर": 4498,
      "▁కేంద్రపాలిత": 4499,
      "-30": 4500,
      "elang": 4501,
      "emon": 4502,
      "काश": 4503,
      "▁మా": 4504,
      "▁शक्ति": 4505,
      "▁शिक्षा": 4506,
      "▁చే": 4507,
      "ము\")": 4508,
      "త్స": 4509,
      "ंडीगढ़": 4510,
      "▁రాజ్య": 4511,
      "▁लोग": 4512,
      "▁क्षेत्रीय": 4513,
      "▁area": 4514,
      "వాతంత్ర": 4515,
      "जनसंख्या": 4516,
      "ivis": 4517,
      "▁जनसंख्या": 4518,
      "▁దేశాల": 4519,
      "లాదేశ్": 4520,
      "]](https://hi.wikipedia.org/wiki/भारत#cite_note-FOOTNOTEStein1998": 4521,
      "]](https://hi.wikipedia.org/wiki/भारत#cite_note-FOOTNOTESingh2009": 4522,
      "స్తు": 4523,
      "▁సామ్రాజ్యం](https://te.wikipedia.org/wiki/": 4524,
      "%E0%A4%A": 4525,
      "ంగ్లాదేశ్": 4526,
      "मुख्य": 4527,
      "▁భాషలు": 4528,
      "_ప్రా": 4529,
      "▁स्थित": 4530,
      "fication": 4531,
      "▁estim": 4532,
      "్రిటి": 4533,
      "ूर्ण": 4534,
      "▁అధికార": 4535,
      "त्तराखण्ड": 4536,
      "etraglia": 4537,
      "ూర్పు": 4538,
      "हिमाचल": 4539,
      "▁लेख:": 4540,
      "▁स्थाप": 4541,
      "3TRtDwAAQBAJ&pg=PA": 4542,
      "కైవు": 4543,
      "▁अप्रैल": 4544,
      "\"[[": 4545,
      "9-0)": 4546,
      "i-": 4547,
      "vid": 4548,
      "▁ed.).": 4549,
      "▁[c": 4550,
      "on,": 4551,
      "▁(2006": 4552,
      "▁country": 4553,
      "▁Sec": 4554,
      "▁Publishing": 4555,
      "_of_C": 4556,
      "▁Tamil": 4557,
      ".\n13": 4558,
      "▁Di": 4559,
      "▁Ex": 4560,
      "▁Himalay": 4561,
      "ounci": 4562,
      "](https://web.archive.org/web/200": 4563,
      "imachal": 4564,
      "▁Press,": 4565,
      "▁[National": 4566,
      "apita": 4567,
      "ustralia": 4568,
      "document": 4569,
      "*)": 4570,
      "-and": 4571,
      "129": 4572,
      "3/": 4573,
      "7]](https://en.wikipedia.org/wiki/India#cite_note-FOOTNOTE": 4574,
      "IJ": 4575,
      "NGDP": 4576,
      "Rowland": 4577,
      "Un": 4578,
      "_with": 4579,
      "aur": 4580,
      "kar": 4581,
      "lance": 4582,
      "rid": 4583,
      "ving": 4584,
      "ward": 4585,
      "कणी": 4586,
      "छि": 4587,
      "रत": 4588,
      "रस": 4589,
      "ुम्ब": 4590,
      "▁his": 4591,
      "orce": 4592,
      "ortheast": 4593,
      "▁[p": 4594,
      "▁[ड": 4595,
      "▁\"[": 4596,
      "aries": 4597,
      "ared/": 4598,
      "20)": 4599,
      "icon": 4600,
      "leg": 4601,
      "rig": 4602,
      "-135": 4603,
      "▁co": 4604,
      "ages/": 4605,
      "याधी": 4606,
      "▁अछि": 4607,
      "▁11": 4608,
      "▁mar": 4609,
      "▁movement": 4610,
      "ोंकणी": 4611,
      "linkim": 4612,
      "olon": 4613,
      "00)": 4614,
      "▁River": 4615,
      "▁भारत\")": 4616,
      "▁economy": 4617,
      "aylor": 4618,
      "▁आर्थिक": 4619,
      "](https://mai.wikipedia.org/wiki/क": 4620,
      "▁Ge": 4621,
      "shared/": 4622,
      "force": 4623,
      "](https://en.wikipedia.org/wiki/India#CITEREFB": 4624,
      "abha": 4625,
      "asting": 4626,
      "▁non-": 4627,
      "▁[\"The": 4628,
      "udi": 4629,
      "▁gre": 4630,
      "ummer": 4631,
      "overty": 4632,
      "ternal": 4633,
      "▁नेतृत": 4634,
      "▁जनवरी": 4635,
      "operation": 4636,
      "न्तर": 4637,
      "do-P": 4638,
      "▁tex": 4639,
      "▁२०१": 4640,
      "\")*,": 4641,
      "श्मीरी": 4642,
      ".svg.png)": 4643,
      "hola": 4644,
      "णिपुरी": 4645,
      "-lead": 4646,
      "nclm.nic.in/shared/": 4647,
      "donesia": 4648,
      "india-glance": 4649,
      "Rowland1970": 4650,
      "ुम्बई": 4651,
      "याधीश": 4652,
      "linkimages/": 4653,
      "nclm.nic.in/shared/linkimages/": 4654,
      "india-glance/": 4655,
      "-22": 4656,
      "/P": 4657,
      "53": 4658,
      "QAAQBAJ&pg=PA": 4659,
      "dr": 4660,
      "rof": 4661,
      "arath": 4662,
      "educ": 4663,
      "ominal": 4664,
      "asing": 4665,
      "vel": 4666,
      "urch": 4667,
      "▁Republic": 4668,
      "▁Linguistic": 4669,
      ".html)": 4670,
      "education": 4671,
      "-S": 4672,
      "-n": 4673,
      "-with": 4674,
      ".ni": 4675,
      "/D": 4676,
      "1-3": 4677,
      "DD": 4678,
      "Wolpert": 4679,
      "_उ": 4680,
      "_राज": 4681,
      "_राज्य": 4682,
      "ey": 4683,
      "eligion": 4684,
      "iz": 4685,
      "public": 4686,
      "rial": 4687,
      "uth": 4688,
      "y,": 4689,
      "गत": 4690,
      "तम": 4691,
      "द्वार": 4692,
      "धा": 4693,
      "मु": 4694,
      "लिस": 4695,
      "षय": 4696,
      "िनेमा": 4697,
      "ी.": 4698,
      "ृद्ध": 4699,
      "ॉल": 4700,
      "ంజా": 4701,
      "గి": 4702,
      "టీ": 4703,
      "టాన్": 4704,
      "మంత్రి": 4705,
      "లను": 4706,
      "వె": 4707,
      "వరణ": 4708,
      "హదార": 4709,
      "ూచ": 4710,
      "▁హ": 4711,
      "▁భారతదేశ": 4712,
      ".org": 4713,
      "▁[4": 4714,
      "arli": 4715,
      "isc": 4716,
      "them": 4717,
      "omes": 4718,
      "▁सक": 4719,
      "्यों": 4720,
      "్రమ": 4721,
      "-16": 4722,
      "▁Centre": 4723,
      "\n\nमुख्य": 4724,
      "▁P.": 4725,
      "▁Public": 4726,
      "tical_": 4727,
      "▁प्रेस": 4728,
      "▁प्रौद्योगिक": 4729,
      "భారతదేశ_": 4730,
      "▁व्य": 4731,
      "▁కొ": 4732,
      "-3)": 4733,
      "▁వ్యా": 4734,
      "▁new": 4735,
      "▁J.": 4736,
      "▁మత": 4737,
      "▁మతము": 4738,
      "good": 4739,
      "▁शु": 4740,
      "ियार": 4741,
      "తావరణ": 4742,
      "నాడు": 4743,
      "▁लग": 4744,
      "ंग्रेज": 4745,
      "ेली": 4746,
      "परमाणु": 4747,
      "ज्ज": 4748,
      "▁राजवंश": 4749,
      "▁life": 4750,
      "▁स्थान": 4751,
      "▁जाती": 4752,
      "▁ఇతర": 4753,
      "ాయి": 4754,
      "ణాసియా": 4755,
      "▁प्राचीन": 4756,
      "ship": 4757,
      "▁right": 4758,
      "▁धर्म\")": 4759,
      "▁था।": 4760,
      "ांग्लादेश": 4761,
      "టెడ్": 4762,
      "▁ఆర్కైవు": 4763,
      "cript": 4764,
      "▁రైలు": 4765,
      "భూటాన్": 4766,
      "▁पार्टी": 4767,
      "pectancy": 4768,
      "▁सभ्यता": 4769,
      "▁पहले": 4770,
      "_సామ్రాజ్యం": 4771,
      "ildlife": 4772,
      "▁[हिन्दी](https://hi.wikipedia.org/wiki/हिन्दी": 4773,
      "▁चुनावों": 4774,
      "pringer": 4775,
      "▁सैन्य": 4776,
      "వాతంత్ర్య": 4777,
      "Wolpert2003": 4778,
      "122": 4779,
      "2]](https://en.wikipedia.org/wiki/India#cite_note-": 4780,
      "2-4": 4781,
      "All": 4782,
      "Gua": 4783,
      "JIJ": 4784,
      "Zva": 4785,
      "ate_": 4786,
      "ez": 4787,
      "lurton": 4788,
      "mal": 4789,
      "s_of_India": 4790,
      "t-": 4791,
      "ym": 4792,
      "▁urban": 4793,
      "ency": 4794,
      "onom": 4795,
      "](https://en.wikipedia.org/wiki/United": 4796,
      "erry": 4797,
      "arendra": 4798,
      "▁them": 4799,
      "icob": 4800,
      "▁India](https://en.wikipedia.org/wiki/G": 4801,
      "▁influ": 4802,
      "rat": 4803,
      "ravi": 4804,
      "▁summit": 4805,
      "-00": 4806,
      "▁pre": 4807,
      "▁painting": 4808,
      "ature": 4809,
      "▁Affairs": 4810,
      "▁S.": 4811,
      "lief": 4812,
      "lopedia": 4813,
      "▁western": 4814,
      "▁dire": 4815,
      "21)": 4816,
      "-0)\n": 4817,
      "nium": 4818,
      "▁eastern": 4819,
      "▁employ": 4820,
      "▁Data": 4821,
      "ayback": 4822,
      "▁Europe": 4823,
      "isha": 4824,
      "▁1960": 4825,
      "▁[\"A": 4826,
      "uduch": 4827,
      "▁Lank": 4828,
      "-90": 4829,
      "▁Kingdom": 4830,
      "avi": 4831,
      "▁[↑](https://en.wikipedia.org/wiki/India#cite_ref-FOOTNOTEMetcalfMetcalf2006": 4832,
      "_Nadu": 4833,
      "ext": 4834,
      "ikkim": 4835,
      "ports": 4836,
      "general_": 4837,
      "amil_Nadu": 4838,
      "▁contrib": 4839,
      "_Indian_general_": 4840,
      "▁dispu": 4841,
      "%7C": 4842,
      "%7c": 4843,
      "cyclopedia": 4844,
      "volution": 4845,
      "quality": 4846,
      "GuaJIJ": 4847,
      "ZvaGuaJIJ": 4848,
      "uducherry": 4849,
      "_Indian_general_election": 4850,
      "ZvaGuaJIJgo": 4851,
      "-50": 4852,
      "-29": 4853,
      "-शासित": 4854,
      "/ark": 4855,
      "0–": 4856,
      "320": 4857,
      "9–": 4858,
      "CL": 4859,
      "Vu": 4860,
      "ZVu": 4861,
      "_on": 4862,
      "_24": 4863,
      "bc": 4864,
      "f.fr": 4865,
      "kZVu": 4866,
      "lm": 4867,
      "एन": 4868,
      "पार": 4869,
      "भिय": 4870,
      "ेक": 4871,
      "्म": 4872,
      ":/121": 4873,
      "▁[य": 4874,
      "▁\"य": 4875,
      "208": 4876,
      "भारतीय": 4877,
      "▁(अ": 4878,
      "198": 4879,
      "▁पै": 4880,
      "▁पश्चिम": 4881,
      "ripura": 4882,
      "217": 4883,
      "_(भारत)": 4884,
      "▁व्या": 4885,
      "ड़िया": 4886,
      "ection": 4887,
      "साई": 4888,
      "anipur": 4889,
      "48/cb": 4890,
      "▁\"ब्रिटिश": 4891,
      "▁राजधान": 4892,
      "actbook": 4893,
      "▁साम्राज्य\")": 4894,
      "धुनिक": 4895,
      "दिल्ली": 4896,
      "cyclop": 4897,
      "Uttarakhand": 4898,
      "_साम्राज्य": 4899,
      "▁Minorities": 4900,
      ".bnf.fr": 4901,
      "/ark:/121": 4902,
      ".bnf.fr/ark:/121": 4903,
      ".bnf.fr/ark:/12148/cb": 4904,
      "-on-": 4905,
      "3-8": 4906,
      "NA": 4907,
      "gra": 4908,
      "hra": 4909,
      "ii": 4910,
      "tered": 4911,
      "reed": 4912,
      "-06": 4913,
      "▁culture": 4914,
      "▁billion": 4915,
      "ource": 4916,
      "▁Government": 4917,
      "▁Indus": 4918,
      "▁Ocean": 4919,
      "ogue": 4920,
      "MetcalfMetcalf2012": 4921,
      "▁2,": 4922,
      "8/8": 4923,
      "duct": 4924,
      "urrent": 4925,
      ".html).": 4926,
      "cording": 4927,
      "omestic": 4928,
      "4]](https://en.wikipedia.org/wiki/India#cite_note-": 4929,
      "5]](https://en.wikipedia.org/wiki/India#cite_note-FOOTNOTE": 4930,
      "Kashmir": 4931,
      "Provisional": 4932,
      "SAARC_summit": 4933,
      "_घ": 4934,
      "aut": 4935,
      "each": 4936,
      "hat": 4937,
      "lood": 4938,
      "mrits": 4939,
      "oard": 4940,
      "ple": 4941,
      "y-": 4942,
      "yer": 4943,
      "yam": 4944,
      "अरब": 4945,
      "क्": 4946,
      "क\\_पृष्ठसभ": 4947,
      "खन": 4948,
      "ग्व": 4949,
      "च्": 4950,
      "जं": 4951,
      "डो": 4952,
      "फोर्ड": 4953,
      "ब्ल": 4954,
      "बेट": 4955,
      "म\")": 4956,
      "यत": 4957,
      "यर": 4958,
      "रि": 4959,
      "लों": 4960,
      "ैंक": 4961,
      "ॉंग्रेस": 4962,
      "ौक्स": 4963,
      "ौसेना": 4964,
      "२००": 4965,
      "ం.": 4966,
      "ంశ": 4967,
      "ఆర్": 4968,
      "ఉత్తర": 4969,
      "ఒడి": 4970,
      "కీయ": 4971,
      "గలు": 4972,
      "చు": 4973,
      "జరా": 4974,
      "తూర్పు": 4975,
      "ది.": 4976,
      "భు": 4977,
      "మన్": 4978,
      "యి": 4979,
      "లస": 4980,
      "ీన": 4981,
      "ేక": 4982,
      "▁·": 4983,
      "▁డ": 4984,
      "▁im": 4985,
      "▁జాబితా": 4986,
      "iam": 4987,
      "ors": 4988,
      "▁[ग": 4989,
      "▁[భారతదేశ": 4990,
      "hib": 4991,
      "alam": 4992,
      "ally": 4993,
      "esti": 4994,
      "ारी": 4995,
      "](https://hi.wikipedia.org/wiki/पाकिस्तान": 4996,
      "▁साल": 4997,
      "▁स्व": 4998,
      "▁स्वतंत्रता": 4999,
      "▁मौ": 5000,
      "ootb": 5001,
      "राम": 5002,
      "raz": 5003,
      "\\_मा": 5004,
      "](https://hi.wikipedia.org/wiki/भारत_के": 5005,
      "▁far": 5006,
      "[[14": 5007,
      "\n\n|": 5008,
      "ver,": 5009,
      "ists": 5010,
      "hell": 5011,
      "ular": 5012,
      "uled": 5013,
      "▁2014.": 5014,
      "▁women": 5015,
      "▁दिल्ल": 5016,
      "▁పట్ట": 5017,
      "_की_": 5018,
      "ర్\")": 5019,
      "▁**జాతీయ": 5020,
      "▁प्रस": 5021,
      "ंगाना": 5022,
      "index": 5023,
      "▁\"भारतक": 5024,
      "](https://mai.wikipedia.org/wiki/स": 5025,
      "▁Gu": 5026,
      "▁November": 5027,
      "▁Nehru": 5028,
      "architecture": 5029,
      "నిక": 5030,
      "ड़ियाँ": 5031,
      "▁1965": 5032,
      "▁कोर": 5033,
      "▁उन": 5034,
      "ంగ్రె": 5035,
      "▁సభ": 5036,
      "काता": 5037,
      "▁forest": 5038,
      "law": 5039,
      "▁विस्त": 5040,
      "▁विदेश": 5041,
      "ecu": 5042,
      "▁इंडिया": 5043,
      "తాబ్": 5044,
      "▁सागर": 5045,
      "aves": 5046,
      "ंडोन": 5047,
      "arty": 5048,
      "कारीब": 5049,
      "▁राज्यक्षेत्र": 5050,
      "▁ప్రపంచ": 5051,
      "▁ప్రభు": 5052,
      "ोलकाता": 5053,
      "▁क्षेत्रों": 5054,
      "oreign": 5055,
      "iley": 5056,
      "▁\"अंग्रेज़ी": 5057,
      "ंध्र": 5058,
      "▁ఆసియా": 5059,
      "▁exp": 5060,
      "भिज्ञा": 5061,
      "▁[Government": 5062,
      "▁देश\")": 5063,
      "िशा": 5064,
      "మ్రాజ్య": 5065,
      "▁[![A": 5066,
      "](https://en.wikipedia.org/wiki/National": 5067,
      "हरिया": 5068,
      "पुरम": 5069,
      "](https://en.wikipedia.org/wiki/List_of_SAARC_summit": 5070,
      "▁मेला\"),": 5071,
      "दक्षिण_": 5072,
      "ष्ण": 5073,
      "ंग्रेज़ी_भाषा": 5074,
      "timesofindia": 5075,
      "▁technology": 5076,
      "గుజరా": 5077,
      "▁second": 5078,
      "▁regions": 5079,
      "ashmiri": 5080,
      "न्नई": 5081,
      "▁./श्रेणी:जान": 5082,
      "समिया": 5083,
      "▁मानसून": 5084,
      "▁సామ్రాజ్యం\")": 5085,
      "▁Hinduism": 5086,
      "ancis": 5087,
      "awahar": 5088,
      "▁पुरालेखित।,": 5089,
      "आईएस": 5090,
      "बंधन": 5091,
      "▁शासित": 5092,
      "kingdom": 5093,
      "త్యేక": 5094,
      "రాష్ట్రపతి": 5095,
      "ప్ప": 5096,
      "_और_संघ": 5097,
      "तेलंगाना": 5098,
      "▁కాశ్మీ": 5099,
      "▁రాజవంశం": 5100,
      "क्सफोर्ड": 5101,
      "▁युग": 5102,
      "रक्षा": 5103,
      "ेरल": 5104,
      "_के_आधार_पर_भारत_के_राज्यों_की_सूची": 5105,
      "लोकसभा": 5106,
      "▁చెంద": 5107,
      "▁ఆర్ధిక": 5108,
      "eserve": 5109,
      "%20%20%20%20": 5110,
      "चेन्नई": 5111,
      "▁बहुत": 5112,
      "हितक\\_पृष्ठसभ": 5113,
      "▁స్థాన": 5114,
      "hasha": 5115,
      "पीठ": 5116,
      "తమిళనాడు": 5117,
      "-4020": 5118,
      "\\_देशमे": 5119,
      "omason": 5120,
      "_Islands": 5121,
      "▁ओर": 5122,
      "▁groups": 5123,
      "ప్రధానమంత్రి": 5124,
      "_BRICS_summit": 5125,
      "గణతంత్ర": 5126,
      "त्रिपुरा": 5127,
      "▁క్రీడ": 5128,
      "▁Persian": 5129,
      "▁निर्माण": 5130,
      "पदण्ड": 5131,
      "तेलुगू": 5132,
      "ymbols": 5133,
      "भीमबेट": 5134,
      "overeign": 5135,
      "झारखंड": 5136,
      "नुसार_देश": 5137,
      "छत्तीसगढ़": 5138,
      "िंधु": 5139,
      "ఆఫ్ఘ": 5140,
      "శ్రీలంక": 5141,
      "షియా": 5142,
      "\\_सहितक\\_पृष्ठसभ": 5143,
      "న్‌ఫ": 5144,
      "నేపాల్": 5145,
      "ब्बत": 5146,
      "हायता:": 5147,
      "▁[अंग्रेज़ी](https://hi.wikipedia.org/wiki/अंग्रेज़ी_भाषा": 5148,
      "▁చెయ్యబడింది.": 5149,
      "▁कुछ": 5150,
      "भाजपा": 5151,
      "icobar": 5152,
      "▁summits\")": 5153,
      "ZvaGuaJIJgoC&pg=PA": 5154,
      "च्छ": 5155,
      "ootball": 5156,
      "\\_मापदण्ड": 5157,
      "తాబ్ద": 5158,
      "कारीबौक्स": 5159,
      "भिज्ञापक": 5160,
      "](https://en.wikipedia.org/wiki/List_of_SAARC_summits": 5161,
      "timesofindia.indiatimes.com/": 5162,
      "▁./श्रेणी:जानकारीबौक्स": 5163,
      "awaharl": 5164,
      "भीमबेटका": 5165,
      "\\_सहितक\\_पृष्ठसभ#": 5166,
      "-D": 5167,
      "123": 5168,
      "Ethnologue": 5169,
      "New": 5170,
      "a)": 5171,
      "bbc": 5172,
      "nc": 5173,
      "nominal": 5174,
      "que": 5175,
      "entury": 5176,
      "\\_artic": 5177,
      "▁mi": 5178,
      "▁Territory": 5179,
      "26.": 5180,
      "266": 5181,
      "▁H.": 5182,
      "archive.org/detail": 5183,
      "\")\n\n[![](https://upload.wikimedia.org/wikipedia/commons/thumb/": 5184,
      "▁2024.": 5185,
      "rishn": 5186,
      "langoff-1": 5187,
      "langoff_1": 5188,
      "](https://doi.org/10.10": 5189,
      "hristian": 5190,
      "fferent": 5191,
      "Pages\\_us": 5192,
      "nominal)": 5193,
      "archive.org/details/": 5194,
      "/files/": 5195,
      "125": 5196,
      "2)[[": 5197,
      "318": 5198,
      "5/": 5199,
      "7).": 5200,
      "AS": 5201,
      "Library": 5202,
      "_38": 5203,
      "_43": 5204,
      "_languages": 5205,
      "cog": 5206,
      "ime": 5207,
      "ओस": 5208,
      "दर्": 5209,
      "▁°": 5210,
      "▁३": 5211,
      "▁५": 5212,
      "▁ला": 5213,
      "▁Qu": 5214,
      "▁[प्र": 5215,
      "▁[तमिल": 5216,
      "▁[नेपाल": 5217,
      "en,": 5218,
      "▁\"ड": 5219,
      "▁\"नेपाल": 5220,
      "es,": 5221,
      "▁कम": 5222,
      "report": 5223,
      "भारत\nCategory:": 5224,
      "▁सह": 5225,
      "राक": 5226,
      "urity": 5227,
      "rov": 5228,
      "▁जय": 5229,
      "▁Rothermund": 5230,
      "103": 5231,
      "▁आर": 5232,
      "▁व्यवस्था": 5233,
      "▁human": 5234,
      "_Ass": 5235,
      "aryana": 5236,
      "22-9": 5237,
      "▁name": 5238,
      "त्ति": 5239,
      "▁[Ministry": 5240,
      "▁\"British": 5241,
      "hmed": 5242,
      "olitical_": 5243,
      "contain": 5244,
      "feb": 5245,
      "_and_depend": 5246,
      "▁produc": 5247,
      "ालीन": 5248,
      "▁sector": 5249,
      "official": 5250,
      "रेन्द्र": 5251,
      "▁देख": 5252,
      "िन्धु": 5253,
      "हित्य": 5254,
      "▁Plateau": 5255,
      "प्राचीन": 5256,
      "▁Wikidata": 5257,
      "▁\"पाकिस्तान\")": 5258,
      "▁नेतृत्व": 5259,
      "दर्श": 5260,
      ".](https://upload.wikimedia.org/wikipedia/commons/thumb/": 5261,
      ".\")\n\n": 5262,
      "09": 5263,
      "313": 5264,
      "4]](https://en.wikipedia.org/wiki/India#cite_note-FOOTNOTE": 5265,
      "5).": 5266,
      "577": 5267,
      "74": 5268,
      "8–": 5269,
      "MC": 5270,
      "MID": 5271,
      "_-": 5272,
      "_9": 5273,
      "aha": 5274,
      "ather": 5275,
      "ced": 5276,
      "cise": 5277,
      "code": 5278,
      "casting": 5279,
      "hal": 5280,
      "ham": 5281,
      "had": 5282,
      "ij": 5283,
      "ker": 5284,
      "lue": 5285,
      "ncient": 5286,
      "pture": 5287,
      "rust": 5288,
      "yy": 5289,
      "▁6.": 5290,
      "▁low": 5291,
      "▁[U": 5292,
      "▁[f": 5293,
      "th_BRICS_summit": 5294,
      "arlo": 5295,
      "araj": 5296,
      "aland": 5297,
      "alli": 5298,
      "thema": 5299,
      "anda": 5300,
      "outheast": 5301,
      "▁po": 5302,
      "▁caus": 5303,
      "▁Civil": 5304,
      "agari": 5305,
      "▁tree": 5306,
      "loth": 5307,
      "▁Punjab": 5308,
      "\"),[[": 5309,
      "_of_2011": 5310,
      "▁man": 5311,
      "▁This": 5312,
      "▁Research": 5313,
      "iger": 5314,
      "▁hum": 5315,
      "oples": 5316,
      "▁report": 5317,
      "▁these": 5318,
      "](https://en.wikipedia.org/wiki/India#CITEREFM": 5319,
      "emic": 5320,
      "emographic": 5321,
      "_Population": 5322,
      "_Paper": 5323,
      "_1_of_2011": 5324,
      "hatt": 5325,
      "▁[↑](https://en.wikipedia.org/wiki/India#cite_ref-FOOTNOTEB": 5326,
      "ligions": 5327,
      ")\n\nThe": 5328,
      "_Totals": 5329,
      "ociation": 5330,
      "ockey": 5331,
      "▁language\"),": 5332,
      "▁development": 5333,
      "_River": 5334,
      "▁Press](https://en.wikipedia.org/wiki/C": 5335,
      "ibcode": 5336,
      "ender": 5337,
      "ikhism": 5338,
      "▁[Dyson": 5339,
      "▁mathema": 5340,
      "merg": 5341,
      "674": 5342,
      "do-European": 5343,
      "▁1994": 5344,
      "▁when": 5345,
      "▁languages\")": 5346,
      "▁addition": 5347,
      "_Lank": 5348,
      "o-operation": 5349,
      "▁Islands\")": 5350,
      "gypt": 5351,
      "phere": 5352,
      "uisine": 5353,
      "odiversity": 5354,
      "oastal": 5355,
      "ighth": 5356,
      "vanagari": 5357,
      "dependence": 5358,
      "struc": 5359,
      "arnatic": 5360,
      "olkata": 5361,
      ".php?": 5362,
      "JPG": 5363,
      "ynasty": 5364,
      "roadcasting": 5365,
      "Provisional_Population": 5366,
      "_Paper_1_of_2011": 5367,
      "_Totals_Paper_1_of_2011": 5368,
      "Provisional_Population_Totals_Paper_1_of_2011": 5369,
      "Provisional_Population_Totals_Paper_1_of_2011_India": 5370,
      "-k": 5371,
      "219": 5372,
      "7.\n": 5373,
      "AG": 5374,
      "C-0": 5375,
      "EX": 5376,
      "\\*": 5377,
      "_श": 5378,
      "_धर्म": 5379,
      "_ప్రదేశ్": 5380,
      "ds": 5381,
      "ues": 5382,
      "var": 5383,
      "ँची": 5384,
      "एल": 5385,
      "गाल": 5386,
      "टना": 5387,
      "बल": 5388,
      "भग": 5389,
      "मरी": 5390,
      "स्व": 5391,
      "िंग": 5392,
      "ेड": 5393,
      "ोला": 5394,
      "ం,": 5395,
      "ఉప": 5396,
      "కొ": 5397,
      "కేంద్రపాలిత": 5398,
      "జె": 5399,
      "ఢ్": 5400,
      "నాల": 5401,
      "లే": 5402,
      "ళు": 5403,
      "ౌద్ధ": 5404,
      "▁औ": 5405,
      "▁భా": 5406,
      "▁भाग": 5407,
      "▁[వి": 5408,
      "▁\"ग": 5409,
      "▁\"सा": 5410,
      "tis": 5411,
      "2025": 5412,
      "▁काल": 5413,
      "▁कॉंग्रेस": 5414,
      "](https://hi.wikipedia.org/wiki/तमिल": 5415,
      "rel": 5416,
      "्रय": 5417,
      "▁सित": 5418,
      "▁समाज": 5419,
      "▁(c": 5420,
      "▁(क": 5421,
      "▁मई": 5422,
      "▁मिल": 5423,
      "ेंगल": 5424,
      "](https://hi.wikipedia.org/wiki/भारत_के_राज्य": 5425,
      "ాలీ": 5426,
      "▁में,": 5427,
      "▁2012.": 5428,
      "▁des": 5429,
      "▁जब": 5430,
      "भाई": 5431,
      "भाष": 5432,
      "ర్చ": 5433,
      "28.": 5434,
      "ాలు?action=edit&redlink=1": 5435,
      "_Act": 5436,
      "▁religious": 5437,
      "▁गई": 5438,
      "akrishn": 5439,
      "▁Fund": 5440,
      "▁[मध्य": 5441,
      "_महासागर": 5442,
      "▁शहर": 5443,
      "म्भ": 5444,
      "संधान": 5445,
      "ियर": 5446,
      "]](https://hi.wikipedia.org/wiki/भारत#cite_note-pib": 5447,
      "166": 5448,
      "_के_अ": 5449,
      "ज़ा": 5450,
      "जापान": 5451,
      "–సా.శ.18": 5452,
      "▁लिये": 5453,
      "▁అత్య": 5454,
      "्रांस": 5455,
      "▁ఆధ": 5456,
      "మాఖ్య": 5457,
      "వాణా": 5458,
      "▁यूनिवर्सिट": 5459,
      "▁जनता": 5460,
      "▁जनजाति": 5461,
      "ంటి": 5462,
      "content": 5463,
      "रुणा": 5464,
      "డ్డ": 5465,
      "▁జనాభా": 5466,
      "దక్షిణాసియా": 5467,
      "▁గల": 5468,
      "ोर्ट": 5469,
      "▁భారతదేశంలో": 5470,
      "ంగ్లీ": 5471,
      "▁[संयुक्त": 5472,
      "యునై": 5473,
      "ష్ణ": 5474,
      "_చరిత్ర?action=edit&redlink=1": 5475,
      "वादी": 5476,
      "▁\"संस्कृत": 5477,
      "▁ప్రాంతాలు": 5478,
      "▁రాష్ట్రాలు,": 5479,
      "_మతము": 5480,
      "▁మొద": 5481,
      "adhya": 5482,
      "ताजमह": 5483,
      "▁(2018),": 5484,
      "▁[पाकिस्तान](https://hi.wikipedia.org/wiki/पाकिस्तान": 5485,
      "क्षरता": 5486,
      "kZVuDwAAQBAJ&pg=PA": 5487,
      "\\_articles\\_": 5488,
      "ेंगलुरु": 5489,
      "akrishnan": 5490,
      "▁यूनिवर्सिटी": 5491,
      "యునైటెడ్": 5492,
      "/hind": 5493,
      "66": 5494,
      "S.": 5495,
      "day": 5496,
      "dust": 5497,
      "eth": 5498,
      "fob": 5499,
      "hut": 5500,
      "most": 5501,
      "ox": 5502,
      "ption": 5503,
      "s18": 5504,
      "tl": 5505,
      "▁z": 5506,
      "▁36": 5507,
      "▁old": 5508,
      "▁[World": 5509,
      "▁\"19": 5510,
      "▁prom": 5511,
      "▁Central": 5512,
      "▁M.": 5513,
      "0000": 5514,
      "109": 5515,
      "_St": 5516,
      "▁2001": 5517,
      "▁only": 5518,
      "▁[Singh": 5519,
      "▁near": 5520,
      "407": 5521,
      "27)": 5522,
      "160": 5523,
      "▁[British": 5524,
      "▁def": 5525,
      "▁\"Government": 5526,
      "article": 5527,
      "▁[Kulke": 5528,
      "overnment_of_India": 5529,
      "▁use": 5530,
      "▁composed": 5531,
      "▁wide": 5532,
      "▁along": 5533,
      "catal": 5534,
      "Hindustan": 5535,
      "arliest": 5536,
      "-e": 5537,
      "-logo": 5538,
      ".uk": 5539,
      "1-4": 5540,
      "2%": 5541,
      ":**": 5542,
      "Con": 5543,
      "F)": 5544,
      "IF": 5545,
      "IUCN": 5546,
      "Taj": 5547,
      "Ze": 5548,
      "_pe": 5549,
      "ax": 5550,
      "epend": 5551,
      "i.": 5552,
      "ren": 5553,
      "ute": 5554,
      "via": 5555,
      "इव": 5556,
      "त\\_मापदण्ड": 5557,
      "थम": 5558,
      "नत्व": 5559,
      "पया": 5560,
      "पदी": 5561,
      "हम": 5562,
      "ुवै": 5563,
      "ौपदी": 5564,
      "–24": 5565,
      "▁`": 5566,
      "▁United": 5567,
      "iary": 5568,
      "orn": 5569,
      "](Template:": 5570,
      "▁[राज्य": 5571,
      "anat": 5572,
      "him": 5573,
      "hild": 5574,
      "erman": 5575,
      "ार्व": 5576,
      "ed,": 5577,
      "▁सँ": 5578,
      "▁(199": 5579,
      "asi": 5580,
      "ashi": 5581,
      "▁मन": 5582,
      "▁India.[[": 5583,
      "▁India*.": 5584,
      "▁India](https://en.wikipedia.org/wiki/C": 5585,
      "raj": 5586,
      "rahm": 5587,
      "र्ग": 5588,
      "▁colle": 5589,
      "▁Cooperation": 5590,
      "▁fam": 5591,
      "adwe": 5592,
      "adras": 5593,
      "vey": 5594,
      "loc": 5595,
      "main": 5596,
      "▁Park": 5597,
      "comm": 5598,
      "_of_B": 5599,
      "न्ध": 5600,
      "]](https://en.wikipedia.org/wiki/India#cite_note-Combined": 5601,
      "▁Man": 5602,
      "▁att": 5603,
      "▁B.;": 5604,
      "लाओस": 5605,
      "ign_": 5606,
      "igarh": 5607,
      "▁नव": 5608,
      "irth": 5609,
      "pecially": 5610,
      "▁आन्दोल": 5611,
      "▁Games": 5612,
      "▁religion": 5613,
      "▁through": 5614,
      "ability": 5615,
      "▁गठ": 5616,
      "AAJ": 5617,
      "▁growth": 5618,
      "eccan": 5619,
      "▁\"Mughal": 5620,
      ".gov.in": 5621,
      "](https://en.wikipedia.org/wiki/Mugh": 5622,
      "मन्त": 5623,
      "हात्": 5624,
      "▁within": 5625,
      ")\n\n-": 5626,
      "](https://en.wikipedia.org/wiki/British": 5627,
      "-107-0": 5628,
      "्राष्ट्र": 5629,
      "र्मू": 5630,
      "▁\"Template:": 5631,
      "ोगरी": 5632,
      "issing": 5633,
      "\")\n\n##": 5634,
      "49-2": 5635,
      "▁[ब्रिटिश": 5636,
      "achine": 5637,
      "▁चार": 5638,
      "सभ\\_सहितक\\_पृष्ठसभ#": 5639,
      "द्रौपदी": 5640,
      "handigarh": 5641,
      "▁घाटी": 5642,
      "न्नड़": 5643,
      "जराय": 5644,
      "_Force": 5645,
      "AsherTalbot20": 5646,
      "india.gov.in/india-glance/": 5647,
      "ynth": 5648,
      "▁News": 5649,
      "▁ago": 5650,
      "ediff": 5651,
      "attle": 5652,
      "ographical": 5653,
      "त्पत्ति": 5654,
      "Dyson2018),": 5655,
      "mitt": 5656,
      "ote:": 5657,
      "](https://mai.wikipedia.org/wiki/भारतक": 5658,
      "ortal:": 5659,
      "▁especially": 5660,
      "▁रहल": 5661,
      "▁Buddhist": 5662,
      "वार्ता:": 5663,
      "ज्ञात\\_मापदण्ड": 5664,
      "▁increased": 5665,
      ")\n\n###": 5666,
      "ilgrim": 5667,
      ".htm)": 5668,
      "akshadwe": 5669,
      "](https://en.wikipedia.org/wiki/South_Asian_": 5670,
      "culpture": 5671,
      "nergy": 5672,
      "▁2018](https://en.wikipedia.org/wiki/India#CITEREFDyson2018),": 5673,
      "_न्या": 5674,
      "\\_अज्ञात\\_मापदण्ड": 5675,
      "▁वार्ता:": 5676,
      "arnataka": 5677,
      "ological": 5678,
      "violence": 5679,
      "एसियाक": 5680,
      "\\_देशमे\\_अज्ञात\\_मापदण्ड": 5681,
      "▁./श्रेणी:जानकारीबौक्स\\_देशमे\\_अज्ञात\\_मापदण्ड": 5682,
      "▁Quote:": 5683,
      "hattis": 5684,
      "ुवैत": 5685,
      "](https://en.wikipedia.org/wiki/Mughal_": 5686,
      "हात्मा": 5687,
      "akshadweep": 5688,
      "▁./श्रेणी:जानकारीबौक्स\\_देशमे\\_अज्ञात\\_मापदण्डसभ\\_सहितक\\_पृष्ठसभ#": 5689,
      "-r": 5690,
      "-ex": 5691,
      "/).": 5692,
      "350": 5693,
      "52": 5694,
      "Alig": 5695,
      "CH": 5696,
      "PO": 5697,
      "Th": 5698,
      "_h": 5699,
      "_26": 5700,
      "mil": 5701,
      "vent": 5702,
      "▁(b": 5703,
      "rest": 5704,
      ".jpe": 5705,
      "50th": 5706,
      "▁Incre": 5707,
      "dex": 5708,
      "rief": 5709,
      "709": 5710,
      "emplate_": 5711,
      "iance": 5712,
      "▁[978-0-521": 5713,
      "_population": 5714,
      "▁control": 5715,
      "on-Alig": 5716,
      "bi.n": 5717,
      ".nih": 5718,
      "lm.nih": 5719,
      "mritsar": 5720,
      "ncbi.n": 5721,
      "Pages\\_using\\_": 5722,
      "on-Aligned": 5723,
      "ncbi.nlm.nih": 5724,
      ",NGDP": 5725,
      ":EditPage/": 5726,
      ";[[": 5727,
      "_त": 5728,
      "_న": 5729,
      "ek": 5730,
      "ead": 5731,
      "ott": 5732,
      "ंतर": 5733,
      "ईल": 5734,
      "घर": 5735,
      "घालय": 5736,
      "चें": 5737,
      "तुल": 5738,
      "थियार": 5739,
      "र-": 5740,
      "ल](https://hi.wikipedia.org/wiki/": 5741,
      "वेश": 5742,
      "वैद": 5743,
      "िबंध": 5744,
      "ृष": 5745,
      "ेन्द्र": 5746,
      "ोट": 5747,
      "्लेट": 5748,
      "४७": 5749,
      "५०": 5750,
      "ఖండ": 5751,
      "టిక": 5752,
      "డే": 5753,
      "ద్య": 5754,
      "మార్": 5755,
      "మాలయ": 5756,
      "లలో": 5757,
      "లకు": 5758,
      "ళ్": 5759,
      "వ](https://te.wikipedia.org/wiki/": 5760,
      "ానికి": 5761,
      "ాళు": 5762,
      "ీర్": 5763,
      "▁,": 5764,
      "▁భ": 5765,
      "▁యు": 5766,
      "▁[गुजरात": 5767,
      "▁\"వి": 5768,
      "alt": 5769,
      "ारो": 5770,
      "ारम्भ": 5771,
      "](https://hi.wikipedia.org/wiki/ज": 5772,
      "](https://hi.wikipedia.org/wiki/न": 5773,
      "](https://hi.wikipedia.org/wiki/ह": 5774,
      "thehind": 5775,
      "▁popul": 5776,
      "ets": 5777,
      "र्ट": 5778,
      "र्त": 5779,
      "ेंस": 5780,
      "ator": 5781,
      "▁Chand": 5782,
      "\\_क": 5783,
      "](https://hi.wikipedia.org/wiki/भारत_स": 5784,
      "▁हर": 5785,
      "▁Society": 5786,
      "▁अमेर": 5787,
      "▁अलग": 5788,
      "ాలో": 5789,
      "ालैंड": 5790,
      "वियत": 5791,
      "స్వ": 5792,
      "స్లా": 5793,
      "▁जिन": 5794,
      "▁दोन": 5795,
      "▁పాల": 5796,
      "त्रु": 5797,
      "भाजन": 5798,
      "▁top": 5799,
      "న్\")": 5800,
      "links": 5801,
      "▁प्रधानमंत्री": 5802,
      "▁बंगाल": 5803,
      "▁बड़े": 5804,
      "_से": 5805,
      "267": 5806,
      "▁सेवा": 5807,
      "▁काम": 5808,
      "▁आक": 5809,
      "oung": 5810,
      "▁కార": 5811,
      "▁కలి": 5812,
      "_Affairs": 5813,
      "రిహ": 5814,
      "రికత": 5815,
      "క్నాల": 5816,
      "ంది": 5817,
      "నిమా": 5818,
      "▁సంగీతం": 5819,
      "▁संस्थान": 5820,
      "▁परि": 5821,
      "lative": 5822,
      "संबर": 5823,
      "ियन": 5824,
      "▁रक्षा": 5825,
      "▁చి": 5826,
      "](https://hi.wikipedia.org/wiki/भारत#cite_ref-pib": 5827,
      "](https://hi.wikipedia.org/wiki/भारत#cite_ref-langoff_1": 5828,
      "]](https://hi.wikipedia.org/wiki/भारत#cite_note-langoff-1": 5829,
      "ी](https://hi.wikipedia.org/wiki/म": 5830,
      "ndhra": 5831,
      "▁\"मध्य": 5832,
      "-7mar": 5833,
      "ులు\"),": 5834,
      "–సా.శ.13": 5835,
      "▁అయ": 5836,
      "▁ప్రధాన": 5837,
      "हाँ": 5838,
      "ोली": 5839,
      "ప్రదాయ": 5840,
      "ప్రత్యేక": 5841,
      "ద్వీ": 5842,
      "▁ఉప": 5843,
      "ंधी": 5844,
      "](https://hi.wikipedia.org/wiki/मध्य": 5845,
      "aith": 5846,
      "▁రె": 5847,
      "issile": 5848,
      "_GDP": 5849,
      "న్నడ": 5850,
      "द्यालय": 5851,
      "ంటు": 5852,
      "गुप्त": 5853,
      "Asher2006": 5854,
      "AsherAsher2006": 5855,
      "मेव": 5856,
      "▁దేశంలో": 5857,
      "ureau": 5858,
      "ాయి.": 5859,
      "onstitutional": 5860,
      "न्तु": 5861,
      "▁घाट": 5862,
      "120]](https://hi.wikipedia.org/wiki/भारत#cite_note-langoff-1": 5863,
      "▁./श्रेणी:CS1": 5864,
      "కాశ్మీ": 5865,
      "](https://hi.wikipedia.org/wiki/पंजाब": 5866,
      "](https://hi.wikipedia.org/wiki/पश्चिम": 5867,
      "ంధు": 5868,
      "▁मानव": 5869,
      "Stein1998),": 5870,
      "Singh2009),": 5871,
      "వర్గం:Harv": 5872,
      "ों_की_सूची?action=edit&redlink=1": 5873,
      "▁CITEREFStein1998": 5874,
      "▁CITEREFSingh2009": 5875,
      "](https://hi.wikipedia.org/wiki/भारत#CITEREFStein1998),": 5876,
      "](https://hi.wikipedia.org/wiki/भारत#CITEREFSingh2009),": 5877,
      "ద్ధం": 5878,
      "ద్ధి": 5879,
      "ాల్దీవ": 5880,
      "्वतन्त्र": 5881,
      "చ్చే": 5882,
      "KulkeRothermund200": 5883,
      "▁थे": 5884,
      "वर्त": 5885,
      "దక్షిణ_": 5886,
      "▁पाकिस्तान": 5887,
      "▁కాంగ్రె": 5888,
      "▁मंदिर\")": 5889,
      "राष्ट्रपति\")": 5890,
      "त्यमेव": 5891,
      "ृष्ण": 5892,
      "టెక్నాల": 5893,
      "नागालैंड": 5894,
      "హిమాలయ": 5895,
      "▁वर्षों": 5896,
      "▁2009](https://hi.wikipedia.org/wiki/भारत#CITEREFSingh2009),": 5897,
      "रोहर": 5898,
      "View": 5899,
      "▁ईसा": 5900,
      "▁లే": 5901,
      "త్తరా": 5902,
      "నాగరికత": 5903,
      "_from": 5904,
      "▁दृष्ट": 5905,
      "▁दृश्य": 5906,
      "క్కువ": 5907,
      "troduction": 5908,
      "క్‌సభ": 5909,
      "▁శాస్త్ర": 5910,
      "▁सिनेमा\"),": 5911,
      "ెలుగు": 5912,
      "▁होती": 5913,
      "▁भूमिका": 5914,
      "▁1998](https://hi.wikipedia.org/wiki/भारत#CITEREFStein1998),": 5915,
      "▁अर्थव्यवस्था": 5916,
      "bank.org/": 5917,
      "▁दिसंबर": 5918,
      "▁వచ్చింది.": 5919,
      "▁स्तर": 5920,
      "_ప్రాంత": 5921,
      "ouncil": 5922,
      "uthority": 5923,
      "ర్చ:": 5924,
      "रुणाचल": 5925,
      "dustrial": 5926,
      ":EditPage/మూస:": 5927,
      "चेंज": 5928,
      "वैदिक": 5929,
      "िबंधीय": 5930,
      "ాళుక్య": 5931,
      "](https://hi.wikipedia.org/wiki/भारत#cite_ref-langoff_128": 5932,
      "-7mar2011": 5933,
      "ప్రత్యేక:EditPage/మూస:": 5934,
      "_GDP_(": 5935,
      "120]](https://hi.wikipedia.org/wiki/भारत#cite_note-langoff-128)": 5936,
      "्वतन्त्रता": 5937,
      "టెక్నాలజీ": 5938,
      "*](http://": 5939,
      "-an": 5940,
      "/b": 5941,
      "3).": 5942,
      "34)": 5943,
      "677": 5944,
      "7%": 5945,
      "7C": 5946,
      "7]](https://en.wikipedia.org/wiki/India#cite_note-": 5947,
      "95": 5948,
      "9]](https://en.wikipedia.org/wiki/India#cite_note-": 5949,
      "9]](https://en.wikipedia.org/wiki/India#cite_note-FOOTNOTE": 5950,
      "Census": 5951,
      "Fr": 5952,
      "IB": 5953,
      "Language": 5954,
      "Petraglia": 5955,
      "_&": 5956,
      "_18": 5957,
      "_Union": 5958,
      "_2024": 5959,
      "ative": 5960,
      "baki": 5961,
      "dic": 5962,
      "ka": 5963,
      "khand": 5964,
      "lof": 5965,
      "s_in_India": 5966,
      "subcontinent": 5967,
      "tain": 5968,
      "vil": 5969,
      "wana": 5970,
      "▁—": 5971,
      "▁ge": 5972,
      "▁eng": 5973,
      "▁histor": 5974,
      "orship": 5975,
      "ences": 5976,
      "▁\"World": 5977,
      "ants": 5978,
      "](https://en.wikipedia.org/wiki/World": 5979,
      "erved": 5980,
      "artition": 5981,
      "alit": 5982,
      "ederal": 5983,
      "▁(ed.).": 5984,
      "ichell": 5985,
      "▁sur": 5986,
      "▁political": 5987,
      "ately": 5988,
      "uss": 5989,
      "atna": 5990,
      "▁Comp": 5991,
      "▁As": 5992,
      "ref-10": 5993,
      "note-10": 5994,
      "ango": 5995,
      "angam": 5996,
      "▁bu": 5997,
      "lite": 5998,
      "lima": 5999,
      "urry": 6000,
      "lock": 6001,
      "umar": 6002,
      "very": 6003,
      "stani": 6004,
      "▁work": 6005,
      "iland": 6006,
      "ourbaki": 6007,
      ".\n11": 6008,
      "oln": 6009,
      "▁Michael": 6010,
      "identifiers": 6011,
      "▁Bi": 6012,
      "▁By": 6013,
      "india.com/": 6014,
      "115": 6015,
      "_Air": 6016,
      "-459": 6017,
      "-85": 6018,
      "406]](https://en.wikipedia.org/wiki/India#cite_note-": 6019,
      "hai": 6020,
      "oss": 6021,
      "▁gen": 6022,
      "▁\"Cambridge": 6023,
      "harkhand": 6024,
      "_Comm": 6025,
      "▁[Cambridge": 6026,
      "▁[↑](https://en.wikipedia.org/wiki/India#cite_ref-FOOTNOTEStein2010": 6027,
      "▁before": 6028,
      "inema": 6029,
      "arden": 6030,
      "▁range": 6031,
      "akistani": 6032,
      "vention": 6033,
      "class": 6034,
      "▁lite": 6035,
      "ahal": 6036,
      "ambridge_University_Press": 6037,
      "▁vill": 6038,
      "alayalam": 6039,
      "erves": 6040,
      "aceu": 6041,
      "1971": 6042,
      "ondon": 6043,
      "▁2019.\n": 6044,
      "ollingham": 6045,
      "cheduled": 6046,
      "▁People": 6047,
      "▁including": 6048,
      "ritsch": 6049,
      "▁Registrar": 6050,
      "▁[India](https://en.wikipedia.org/wiki/India": 6051,
      "▁(identifier)\"):[10.10": 6052,
      "4/4": 6053,
      "vatsyayan-lord-4": 6054,
      "vatsyayan-lord_43": 6055,
      "_of_South_Asia": 6056,
      "owever,": 6057,
      "harmaceu": 6058,
      "Articles\\_contain": 6059,
      "undamental": 6060,
      "olonial": 6061,
      "do-Pakistani": 6062,
      "Allchin": 6063,
      "▁Press](https://en.wikipedia.org/wiki/Cambridge_University_Press": 6064,
      "hutan": 6065,
      "PetragliaAllchin": 6066,
      "406]](https://en.wikipedia.org/wiki/India#cite_note-vatsyayan-lord-4": 6067,
      "/india": 6068,
      "03": 6069,
      "2-1": 6070,
      "226": 6071,
      "418": 6072,
      "M50th": 6073,
      "NCL": 6074,
      "_36": 6075,
      "equality": 6076,
      "kb": 6077,
      "m2": 6078,
      "p)": 6079,
      "round": 6080,
      "दय": 6081,
      "ुक": 6082,
      "▁ऐ": 6083,
      "▁46": 6084,
      "tter": 6085,
      "▁\"राष्ट्रीय": 6086,
      "an-": 6087,
      "ars": 6088,
      "्रु": 6089,
      "भारत)\")": 6090,
      "▁(भारत)\")": 6091,
      "▁मह": 6092,
      "▁पहु": 6093,
      "▁pres": 6094,
      "▁Chinese": 6095,
      "\\_(": 6096,
      "agen": 6097,
      "▁अधिराज्य": 6098,
      "istor": 6099,
      "▁दी": 6100,
      "▁Muslim": 6101,
      "10)": 6102,
      "▁Dictionary": 6103,
      "न्दा": 6104,
      "▁Health": 6105,
      "▁[\"P": 6106,
      "म्प्र": 6107,
      "राष्ट्रीय_": 6108,
      "हिन्द_महासागर": 6109,
      "धानमन्त": 6110,
      "%20A": 6111,
      "%2C_India": 6112,
      "_proj": 6113,
      "पुर\")": 6114,
      "▁घोष": 6115,
      "html).": 6116,
      "▁(2014).": 6117,
      "▁[उत्तर": 6118,
      "▁मान्यता": 6119,
      "▁\"उत्तर": 6120,
      "▁एशिया\")": 6121,
      "तुर्क": 6122,
      "▁उत्तर-प": 6123,
      "८५७": 6124,
      "Report.pdf)": 6125,
      "न्तर्राष्ट्र": 6126,
      "nclm.nic.in/shared/linkimages/NCL": 6127,
      "▁व्यापार": 6128,
      "M50thReport.pdf)": 6129,
      "nclm.nic.in/shared/linkimages/NCLM50thReport.pdf)": 6130,
      "-se": 6131,
      "-world": 6132,
      "2),": 6133,
      "32)": 6134,
      "9/": 6135,
      "C)": 6136,
      "Pakistan": 6137,
      "aul": 6138,
      "ece": 6139,
      "ns": 6140,
      "ov": 6141,
      "s:": 6142,
      "▁[n": 6143,
      "▁\"U": 6144,
      "es.": 6145,
      "of\\_": 6146,
      "id-": 6147,
      "atab": 6148,
      "▁Ad": 6149,
      "\\_with\\_": 6150,
      "\\_of\\_": 6151,
      "loped": 6152,
      "▁14.": 6153,
      "▁Minister": 6154,
      "24.": 6155,
      "▁house": 6156,
      "upreme": 6157,
      "bert": 6158,
      "opland": 6159,
      "▁2007.": 6160,
      "▁1962": 6161,
      "ody": 6162,
      "_Data": 6163,
      "▁[New": 6164,
      "type": 6165,
      "onstitution_of_India": 6166,
      "▁contin": 6167,
      "▁Programme": 6168,
      "▁different": 6169,
      "tiger": 6170,
      "text": 6171,
      "▁estimate": 6172,
      "_of_Congress": 6173,
      "reedom": 6174,
      "hmedabad": 6175,
      "\"](http://": 6176,
      "%3": 6177,
      "-R": 6178,
      "-w": 6179,
      "-the": 6180,
      ".పూ.": 6181,
      "1]](https://en.wikipedia.org/wiki/India#cite_note-": 6182,
      "221": 6183,
      "4,": 6184,
      "5]](https://en.wikipedia.org/wiki/India#cite_note-": 6185,
      "8]](https://en.wikipedia.org/wiki/India#cite_note-FOOTNOTE": 6186,
      "=20": 6187,
      "Ch": 6188,
      "Collingham": 6189,
      "S$": 6190,
      "Tarlo": 6191,
      "_20": 6192,
      "_industry": 6193,
      "aos": 6194,
      "athematics": 6195,
      "business": 6196,
      "business/": 6197,
      "eat": 6198,
      "eligious": 6199,
      "ject": 6200,
      "lar": 6201,
      "mill": 6202,
      "odia": 6203,
      "rune": 6204,
      "search": 6205,
      "yd": 6206,
      "yth": 6207,
      "ंश": 6208,
      "ईद": 6209,
      "ऍथ": 6210,
      "ऑक्सफोर्ड": 6211,
      "ख़": 6212,
      "गध": 6213,
      "जपुरी": 6214,
      "जिस्ट": 6215,
      "ञ्": 6216,
      "ताल": 6217,
      "तंत्र": 6218,
      "थल": 6219,
      "दल": 6220,
      "दान": 6221,
      "नोल": 6222,
      "पि": 6223,
      "पीय": 6224,
      "फ्रांस": 6225,
      "बू": 6226,
      "भ्स": 6227,
      "मत": 6228,
      "मृत": 6229,
      "शत": 6230,
      "शोक": 6231,
      "हें": 6232,
      "ी](https://mai.wikipedia.org/wiki/": 6233,
      "ुरा": 6234,
      "ूबर": 6235,
      "ेद": 6236,
      "ेघालय": 6237,
      "ॉग": 6238,
      "२६": 6239,
      "ంతం": 6240,
      "ఆగ": 6241,
      "కళ": 6242,
      "ఖండ్": 6243,
      "గం": 6244,
      "గ్": 6245,
      "గిన": 6246,
      "గఢ్": 6247,
      "జో": 6248,
      "ట్ర": 6249,
      "తెలుగు": 6250,
      "ద్రా": 6251,
      "పద": 6252,
      "భి": 6253,
      "యో": 6254,
      "లక్ష": 6255,
      "వర": 6256,
      "శో": 6257,
      "షా": 6258,
      "హు": 6259,
      "హార్": 6260,
      "హాయ": 6261,
      "ాష్ట్ర": 6262,
      "ీక": 6263,
      "ీహార్": 6264,
      "ుల": 6265,
      "ుల్": 6266,
      "ోల్": 6267,
      "ోత్స": 6268,
      "ౌర్య": 6269,
      "–4": 6270,
      "▁९": 6271,
      "▁रा": 6272,
      "▁ना": 6273,
      "▁kingdom": 6274,
      "▁[Y": 6275,
      "▁[श": 6276,
      "▁[హ": 6277,
      "ened": 6278,
      "▁\"హ": 6279,
      "▁\"साँच": 6280,
      "▁\"साँचा:": 6281,
      "▁\"ఢిల్లీ": 6282,
      "\")\"": 6283,
      "ino-": 6284,
      "thang": 6285,
      "tile": 6286,
      "hir": 6287,
      "arth": 6288,
      "ester": 6289,
      "es.[[": 6290,
      "](https://hi.wikipedia.org/wiki/ग": 6291,
      "](https://hi.wikipedia.org/wiki/साँच": 6292,
      "](https://hi.wikipedia.org/wiki/साँचा:": 6293,
      "्रार": 6294,
      "omo": 6295,
      "▁सूच": 6296,
      "▁सीमा": 6297,
      "itation": 6298,
      "▁(S": 6299,
      "asthan": 6300,
      "्यूरो": 6301,
      "▁मन्दिर": 6302,
      "रात": 6303,
      "్రూ": 6304,
      "idy": 6305,
      "▁पड़": 6306,
      "▁प्लेट": 6307,
      "ratic": 6308,
      "](https://te.wikipedia.org/wiki/సి": 6309,
      "entr": 6310,
      "▁school": 6311,
      "ानगर": 6312,
      "▁plain": 6313,
      "etry": 6314,
      "ries/": 6315,
      "riya": 6316,
      "ingap": 6317,
      "amy": 6318,
      "ating": 6319,
      "▁Asher": 6320,
      "acmill": 6321,
      "▁हाला": 6322,
      "▁हथियार": 6323,
      "▁Sabha": 6324,
      "▁four": 6325,
      "▁fol": 6326,
      "angered": 6327,
      "िकी": 6328,
      "urk": 6329,
      "uran": 6330,
      "ాలా": 6331,
      "ాలలో": 6332,
      "well": 6333,
      "FOOTNOTENational_Informatics_Centre2005": 6334,
      "్యం": 6335,
      "fir": 6336,
      "ालर": 6337,
      "▁would": 6338,
      "▁ज़": 6339,
      "▁Temple": 6340,
      "▁Routledge": 6341,
      "ర్ణా": 6342,
      "ర్మే": 6343,
      "▁B.": 6344,
      "▁बार": 6345,
      "▁बने": 6346,
      "▁बड़ा": 6347,
      "तिब्बत": 6348,
      "igved": 6349,
      "igration": 6350,
      "▁ele": 6351,
      "▁emerg": 6352,
      "23.": 6353,
      "्टॉक": 6354,
      "▁नौसेना": 6355,
      "▁led": 6356,
      "▁\"Special:BookSources/978-81": 6357,
      "indhi": 6358,
      "లు\")": 6359,
      "▁*India": 6360,
      "286": 6361,
      "▁वृद्ध": 6362,
      "లోక్‌సభ": 6363,
      "क्षण": 6364,
      "क्षद्वीप": 6365,
      "_in_New": 6366,
      "▁Greek": 6367,
      "▁N.": 6368,
      "▁Nicobar": 6369,
      "-345": 6370,
      "ాలు\n\n": 6371,
      "_A7C": 6372,
      "tudi": 6373,
      "▁వంశ": 6374,
      "▁third": 6375,
      "रीब": 6376,
      "22.": 6377,
      "थाईल": 6378,
      "ghts": 6379,
      "]](https://hi.wikipedia.org/wiki/भारत#cite_note-10": 6380,
      "▁[\"G": 6381,
      "कांक": 6382,
      "▁[महाराष्ट्र": 6383,
      "हिमालय": 6384,
      "hap": 6385,
      "hailand": 6386,
      "osphere": 6387,
      "ountries/": 6388,
      "▁विज्ञान": 6389,
      "ండర్": 6390,
      "▁Languages": 6391,
      "▁Organization": 6392,
      "सां": 6393,
      "](https://books.google.com/books?id=3TRtDwAAQBAJ&pg=PA": 6394,
      "ngineering": 6395,
      "▁[Central": 6396,
      "aph": 6397,
      "otal": 6398,
      "త్మా": 6399,
      "▁\"महाराष्ट्र": 6400,
      "](Special:BookSources/978-81": 6401,
      "▁[↑](https://en.wikipedia.org/wiki/India#cite_ref-FOOTNOTEM": 6402,
      "ंडमान": 6403,
      "▁लिया": 6404,
      "▁అతి": 6405,
      "ికి": 6406,
      "मीरात": 6407,
      "ogri": 6408,
      "परेशन": 6409,
      "▁now": 6410,
      "्रांति": 6411,
      "▁करना": 6412,
      "▁करता": 6413,
      "ద్దు": 6414,
      "▁\"En": 6415,
      "](https://hi.wikipedia.org/wiki/महाराष्ट्र": 6416,
      "%2C5": 6417,
      "▁రహదార": 6418,
      "](https://en.wikipedia.org/wiki/En": 6419,
      "▁areas": 6420,
      "మాచల్": 6421,
      "▁సామ్రాజ్య": 6422,
      "_Bank": 6423,
      "రువా": 6424,
      "రుణా": 6425,
      "ंदोल": 6426,
      "▁Ved": 6427,
      "aking": 6428,
      "న్నో": 6429,
      "33-7": 6430,
      "▁[2](https://hi.wikipedia.org/wiki/भारत#cite_ref-FOOTNOTE": 6431,
      "▁भाषा\")[[": 6432,
      "▁[![The": 6433,
      "▁[1](https://hi.wikipedia.org/wiki/भारत#cite_ref-FOOTNOTE": 6434,
      "▁main": 6435,
      "▁like": 6436,
      "ameez": 6437,
      "राष्ट्रीय_स": 6438,
      "మిజో": 6439,
      "सभक": 6440,
      "▁ఇది": 6441,
      "▁वर्षा": 6442,
      "हारजिस्ट": 6443,
      "egistrar": 6444,
      "mergency": 6445,
      "_भारतीय_": 6446,
      "ा_वार्ता:": 6447,
      "do-G": 6448,
      "▁घरेलू": 6449,
      "▁Urdu": 6450,
      "DwAAQBAJ": 6451,
      "न्नड": 6452,
      "alaysia": 6453,
      "_during": 6454,
      "▁జరి": 6455,
      "▁విస్త": 6456,
      "▁millen": 6457,
      "समूह": 6458,
      "▁निभाई": 6459,
      "](https://hi.wikipedia.org/wiki/पूर्व": 6460,
      "▁State": 6461,
      "▁2007\n": 6462,
      "rates": 6463,
      "ukesh": 6464,
      "▁శతాబ్ద": 6465,
      "दाख": 6466,
      "▁river": 6467,
      "▁change": 6468,
      "ట్టు": 6469,
      "▁agriculture": 6470,
      "▁था,": 6471,
      "▁./श्रेणी:Harv\\_and\\_Sfn\\_no-target\\_errors\n8": 6472,
      "PPP": 6473,
      "क्षेत्रफल": 6474,
      "गुजराती": 6475,
      "రాష్ట్రాలు": 6476,
      "▁Pradesh\")": 6477,
      "వేద": 6478,
      "▁[Archived](https://web.archive.org/web/20210": 6479,
      "▁రాజకీయ": 6480,
      "ंपन": 6481,
      "ंपरा": 6482,
      "▁अपने": 6483,
      "▁[↑](https://hi.wikipedia.org/wiki/भारत#cite_ref-10": 6484,
      "जयनगर": 6485,
      "▁These": 6486,
      "–123": 6487,
      "ार्कट": 6488,
      "▁न्यायाधीश": 6489,
      "pib.nic.in/": 6490,
      "▁subcontinent\")": 6491,
      "▁\"संयुक्त": 6492,
      "ually": 6493,
      "ambodia": 6494,
      "▁See": 6495,
      "హిమాచల్": 6496,
      "▁तटीय": 6497,
      "హాత్మా": 6498,
      "▁Force": 6499,
      "▁species": 6500,
      "chedule": 6501,
      "emocratic": 6502,
      "_पार्ट": 6503,
      "▁ప్రదేశ్\")": 6504,
      "▁सदस": 6505,
      "राठी": 6506,
      "హారాష్ట్ర": 6507,
      "▁सुरक्षा": 6508,
      "▁rock": 6509,
      "ominion": 6510,
      "▁2025.": 6511,
      "janta": 6512,
      "िज़ोर": 6513,
      "శాస్త్ర": 6514,
      "ataraj": 6515,
      "రాజస్థాన్": 6516,
      "▁వాతావరణ": 6517,
      "पातकाल": 6518,
      "रूस": 6519,
      "దినోత్స": 6520,
      "्यानमार": 6521,
      "▁जलवायु": 6522,
      "బెంగాలీ": 6523,
      "యన్మార్": 6524,
      "▁ముఖ్య": 6525,
      "▁[978-81": 6526,
      "भोजपुरी": 6527,
      "▁majority": 6528,
      "Spear199024": 6529,
      "दिभ्स": 6530,
      "स्लाम": 6531,
      "▁occup": 6532,
      "Sharma2007": 6533,
      "▁राजनीतिक": 6534,
      "▁[पंजाब](https://hi.wikipedia.org/wiki/पंजाब": 6535,
      "फाएं": 6536,
      "▁appro": 6537,
      "▁Before": 6538,
      "ाल्दिभ्स": 6539,
      "elangana": 6540,
      "_राजवंश": 6541,
      "ంజాబ్": 6542,
      "▁వ్యాస": 6543,
      "▁शुरू": 6544,
      "▁लगभग": 6545,
      "lurton199": 6546,
      "ravidian": 6547,
      "▁employed": 6548,
      "खनऊ": 6549,
      "razil": 6550,
      "हरियाणा": 6551,
      "గుజరాత్": 6552,
      "ఆఫ్ఘనిస్తాన్": 6553,
      "న్‌ఫర్మే": 6554,
      "lothing": 6555,
      "_के_अनुसार_देश": 6556,
      "IFT": 6557,
      "▁./श्रेणी:जानकारीबौक्स\\_देशमे\\_अज्ञात\\_मापदण्डसभ\\_सहितक\\_पृष्ठसभ#l": 6558,
      "तुल्य": 6559,
      "ृषि": 6560,
      "వ](https://te.wikipedia.org/wiki/List_of_": 6561,
      "▁दोनों": 6562,
      "రిహద్దు": 6563,
      "చ్చేరి": 6564,
      "olnar": 6565,
      "_Commission": 6566,
      "Tarlo1996": 6567,
      "business-": 6568,
      "runei": 6569,
      "ऍथनोल": 6570,
      "▁\"साँचा": 6571,
      "](https://hi.wikipedia.org/wiki/साँचा_वार्ता:": 6572,
      "ingapore": 6573,
      "▁Asher,": 6574,
      "acmillan": 6575,
      "ర్ణాటక": 6576,
      "▁वृद्धि": 6577,
      "_in_New_Delhi": 6578,
      "▁[महाराष्ट्र](https://hi.wikipedia.org/wiki/महाराष्ट्र": 6579,
      "▁\"महाराष्ट्र\")": 6580,
      "రుణాచల్": 6581,
      "हारजिस्ट्रार": 6582,
      "ार्कटिका": 6583,
      "న్‌ఫర్మేషన్": 6584,
      "ऍथनोलॉग": 6585,
      "-T": 6586,
      ".ed": 6587,
      "Jha": 6588,
      "TO": 6589,
      "ault": 6590,
      "c/c": 6591,
      "eu": 6592,
      "](https://id": 6593,
      "onk": 6594,
      "tification": 6595,
      "▁(a)": 6596,
      "asht": 6597,
      "▁sq": 6598,
      "ager": 6599,
      "▁Policy": 6600,
      ".\n15": 6601,
      "▁Day": 6602,
      "▁Asia:": 6603,
      "1):": 6604,
      "svg": 6605,
      "html)": 6606,
      "orthographic": 6607,
      "mblem": 6608,
      "isease": 6609,
      "visions": 6610,
      "▁km2": 6611,
      "▁Short": 6612,
      "▁commun": 6613,
      "▁2020.": 6614,
      "f/f": 6615,
      "▁|\n\nCategory:": 6616,
      "Wikipedia\\_articles\\_": 6617,
      "...]": 6618,
      "itzel": 6619,
      "▁Minorities,": 6620,
      "▁(b)": 6621,
      "▁Increase": 6622,
      "_projection": 6623,
      ".edu": 6624,
      "orthographic_projection": 6625,
      ")\"),": 6626,
      "-j": 6627,
      ".co": 6628,
      "2nd": 6629,
      "3,": 6630,
      "=`": 6631,
      "EN": 6632,
      "Home": 6633,
      "Official": 6634,
      "dis": 6635,
      "ethnologue": 6636,
      "gu": 6637,
      "here": 6638,
      "went": 6639,
      "इटे": 6640,
      "क\")": 6641,
      "दमन": 6642,
      "नो": 6643,
      "फगान": 6644,
      "मस": 6645,
      "मिर": 6646,
      "लिम": 6647,
      "ैली": 6648,
      "ोण": 6649,
      "▁web": 6650,
      "infob": 6651,
      "्रिस": 6652,
      "▁सन्": 6653,
      "▁सम्प": 6654,
      "-138": 6655,
      "▁can": 6656,
      "\\_country": 6657,
      "▁fig": 6658,
      "78.": 6659,
      "▁men": 6660,
      "illi": 6661,
      "ilbert": 6662,
      "नाइटे": 6663,
      "▁Mar": 6664,
      "▁Br": 6665,
      "▁ब्रिटिश": 6666,
      "_सागर": 6667,
      "▁\"St": 6668,
      "indic": 6669,
      "▁Economy": 6670,
      "▁आधुनिक": 6671,
      "▁वे": 6672,
      "स्लिम": 6673,
      "ablish": 6674,
      "▁[SAARC": 6675,
      "▁ne": 6676,
      "स्तान\")": 6677,
      "▁Hindus": 6678,
      "_Gandhi": 6679,
      "मान्य": 6680,
      "_and_union_territ": 6681,
      "iteracy": 6682,
      "_Fund": 6683,
      "▁निर्भर": 6684,
      "ctorate": 6685,
      "तिहासिक": 6686,
      "▁[संस्कृत": 6687,
      "countries_and_depend": 6688,
      "encies_by": 6689,
      "▁Environmental": 6690,
      ".worldbank.org/": 6691,
      "aranth": 6692,
      "▁dependencies": 6693,
      "दक्षिण_एशिया": 6694,
      "cogni": 6695,
      "▁widely": 6696,
      "▁`|": 6697,
      "hattisgarh": 6698,
      "ethnologue.com/": 6699,
      "फगानिस्तान": 6700,
      "infobox": 6701,
      "्रिसमस": 6702,
      "नाइटेड": 6703,
      "_and_union_territories": 6704,
      "countries_and_dependencies_by": 6705,
      "*](https://": 6706,
      "220": 6707,
      "41": 6708,
      "5-3": 6709,
      "6_": 6710,
      "6.\n": 6711,
      "7-8": 6712,
      "Countries": 6713,
      "ES": 6714,
      "Ex": 6715,
      "Forest": 6716,
      "Wright": 6717,
      "_2011": 6718,
      "cu": 6719,
      "cod": 6720,
      "ctive": 6721,
      "caste": 6722,
      "disha": 6723,
      "even": 6724,
      "men": 6725,
      "mall": 6726,
      "ocal": 6727,
      "page": 6728,
      "put": 6729,
      "rup": 6730,
      "rban": 6731,
      "tou": 6732,
      "u,": 6733,
      "uries": 6734,
      "upee": 6735,
      "wat": 6736,
      "iated": 6737,
      "org": 6738,
      "orpor": 6739,
      "tte": 6740,
      "pen": 6741,
      "](https://www": 6742,
      "▁[History": 6743,
      "enous": 6744,
      "an,": 6745,
      "anchi": 6746,
      "ties/": 6747,
      "er-": 6748,
      "alace": 6749,
      "alk:": 6750,
      "reen": 6751,
      "itar": 6752,
      "▁(19": 6753,
      "▁(2007": 6754,
      "▁(India)": 6755,
      "ick": 6756,
      "▁inter": 6757,
      "▁independence": 6758,
      "raw": 6759,
      "raman": 6760,
      "▁prac": 6761,
      "▁cre": 6762,
      "ation,": 6763,
      "ustice": 6764,
      "▁Agency": 6765,
      "acred": 6766,
      "▁Sub": 6767,
      "▁talk:": 6768,
      "▁band": 6769,
      "lose": 6770,
      "umeration": 6771,
      "istent": 6772,
      "cha": 6773,
      "▁[↑](https://en.wikipedia.org/wiki/India#cite_": 6774,
      "rove": 6775,
      "rowing": 6776,
      "rocod": 6777,
      "ilk": 6778,
      "▁divis": 6779,
      "ourism": 6780,
      "](https://en.wikipedia.org/wiki/India#cite_ref-vatsyayan-lord_43": 6781,
      "▁Tim": 6782,
      "▁Trade": 6783,
      "ola": 6784,
      "s.\"\n": 6785,
      "igin": 6786,
      "igenous": 6787,
      "▁east": 6788,
      "▁Dance": 6789,
      "▁Dyson": 6790,
      "▁last": 6791,
      "▁\"Special:EditPage/Template:": 6792,
      "2649": 6793,
      "269,": 6794,
      "▁[↑](https://en.wikipedia.org/wiki/India#cite_ref-4": 6795,
      "ayana": 6796,
      "lymp": 6797,
      "287,": 6798,
      "beral": 6799,
      "▁Ganges": 6800,
      "-349": 6801,
      "▁republic": 6802,
      "▁though": 6803,
      "akers": 6804,
      "▁International": 6805,
      "_and_C": 6806,
      "_and_N": 6807,
      "_and_Development": 6808,
      "40px-": 6809,
      "_16": 6810,
      "osa": 6811,
      "▁\"Central": 6812,
      "▁\"Climate": 6813,
      "_Cooperation": 6814,
      "▁[China": 6815,
      "](https://en.wikipedia.org/wiki/China": 6816,
      "17.": 6817,
      "▁\"Ministry": 6818,
      "](Special:EditPage/Template:": 6819,
      "▁become": 6820,
      "](https://en.wikipedia.org/wiki/Ministry_of_": 6821,
      "undarb": 6822,
      "ajasthan": 6823,
      "rchitecture": 6824,
      "lled": 6825,
      "orea": 6826,
      "▁\"Template": 6827,
      "48)": 6828,
      "▁ancient": 6829,
      "_Re": 6830,
      "_Ram": 6831,
      "](https://en.wikipedia.org/wiki/Template_": 6832,
      "▁\"Delhi": 6833,
      "ically": 6834,
      "](https://en.wikipedia.org/wiki/Delhi": 6835,
      "▁Vedic": 6836,
      "_Economic": 6837,
      "▁2011](https://en.wikipedia.org/wiki/India#CITEREF": 6838,
      "▁\"Routledge": 6839,
      "](https://en.wikipedia.org/wiki/Routledge": 6840,
      "▁[Tamil": 6841,
      "▁[Routledge": 6842,
      "▁\"Special:BookSources/978-0-521": 6843,
      "](Special:BookSources/978-0-521": 6844,
      "angetic": 6845,
      "▁centre": 6846,
      "▁centuries": 6847,
      "▁2014](https://en.wikipedia.org/wiki/India#CITEREF": 6848,
      "▁tea": 6849,
      "▁US$": 6850,
      "▁sever": 6851,
      "▁(2017).": 6852,
      "▁milk": 6853,
      "▁military": 6854,
      "▁leg": 6855,
      "▁2007](https://en.wikipedia.org/wiki/India#CITEREF": 6856,
      "▁[Fisher": 6857,
      "▁[t](https://en.wikipedia.org/wiki/Template_": 6858,
      "▁parliament": 6859,
      "▁known": 6860,
      "talk:": 6861,
      "ronom": 6862,
      "230-345": 6863,
      "▁[e](Special:EditPage/Template:": 6864,
      "▁[v](Template:": 6865,
      "▁numbers": 6866,
      "▁Talbot,": 6867,
      "Fisher2018),": 6868,
      "▁Buddha": 6869,
      "▁upper": 6870,
      "▁refor": 6871,
      "arliamentary": 6872,
      "Hindustani": 6873,
      "▁2018](https://en.wikipedia.org/wiki/India#CITEREFFisher2018),": 6874,
      "merican": 6875,
      "▁(1,269,": 6876,
      "▁3,287,": 6877,
      "](https://en.wikipedia.org/wiki/History_of_": 6878,
      "▁Conservation": 6879,
      "rotected": 6880,
      "▁Francis": 6881,
      "ibetan": 6882,
      "ield": 6883,
      "present": 6884,
      "ennai": 6885,
      "forcement": 6886,
      "▁India](https://en.wikipedia.org/wiki/Government_of_India": 6887,
      "▁direct": 6888,
      "▁mi)": 6889,
      "▁1994](https://en.wikipedia.org/wiki/India#CITEREF": 6890,
      "struction": 6891,
      "▁Games\")": 6892,
      "-107-02649": 6893,
      "Front": 6894,
      "▁engineering": 6895,
      "limate_": 6896,
      "▁village": 6897,
      "first": 6898,
      "tudies": 6899,
      "▁millennium": 6900,
      "Wright2010": 6901,
      "touch": 6902,
      "▁(2007).": 6903,
      "▁Dyson,": 6904,
      "▁[China](https://en.wikipedia.org/wiki/China": 6905,
      "undarbans": 6906,
      "▁\"Routledge\").": 6907,
      "▁[Routledge](https://en.wikipedia.org/wiki/Routledge": 6908,
      "▁[t](https://en.wikipedia.org/wiki/Template_talk:": 6909,
      "230-34549-2": 6910,
      "▁3,287,26": 6911,
      "-107-02649-0": 6912,
      "\"](https://web.archive.org/web/20": 6913,
      ")[": 6914,
      "*](https://web.archive.org/web/201": 6915,
      "-24": 6916,
      "-पा": 6917,
      "-गंगा": 6918,
      "/g": 6919,
      "/s": 6920,
      "1200": 6921,
      "3-1": 6922,
      "Bh": 6923,
      "B0%": 6924,
      "OLA": 6925,
      "_v": 6926,
      "egh": 6927,
      "gar": 6928,
      "hdr": 6929,
      "po": 6930,
      "sources": 6931,
      "tation": 6932,
      "voy": 6933,
      "zer": 6934,
      "ँकि": 6935,
      "ईसाई": 6936,
      "ऊर्जा": 6937,
      "ऋतु": 6938,
      "ऑपरेशन": 6939,
      "ख्य": 6940,
      "त्या": 6941,
      "थी": 6942,
      "दु": 6943,
      "नत": 6944,
      "ल्त": 6945,
      "वत": 6946,
      "शील": 6947,
      "सत": 6948,
      "सैन": 6949,
      "ाय": 6950,
      "ूस": 6951,
      "ोब": 6952,
      "ोडिया": 6953,
      "१८५७": 6954,
      "४.": 6955,
      "ంతి": 6956,
      "కాల": 6957,
      "కారం": 6958,
      "ఖ్": 6959,
      "గంగా": 6960,
      "టో": 6961,
      "డిన": 6962,
      "తీ": 6963,
      "ధి": 6964,
      "ధించ": 6965,
      "నల్": 6966,
      "మన": 6967,
      "మర": 6968,
      "ర్యా": 6969,
      "లం": 6970,
      "లతో": 6971,
      "లమె": 6972,
      "ీస్": 6973,
      "ూప": 6974,
      "ూరు": 6975,
      "ెనీ": 6976,
      "ౌక": 6977,
      "▁:": 6978,
      "▁ద": 6979,
      "▁ఫ": 6980,
      "▁దక్షిణ": 6981,
      "▁హిందూ": 6982,
      "▁గాంధీ": 6983,
      "▁[భారతదేశం": 6984,
      "▁[चीन": 6985,
      "▁[ఢిల్లీ": 6986,
      "▁\"प्र": 6987,
      "▁\"गुजरात": 6988,
      "▁\"विशेष:EditPage/साँचा:": 6989,
      "arak": 6990,
      "▁क्रम": 6991,
      "▁कर्ज": 6992,
      "](https://hi.wikipedia.org/wiki/य": 6993,
      "](https://hi.wikipedia.org/wiki/विशेष:EditPage/साँचा:": 6994,
      "्रह": 6995,
      "▁सूर": 6996,
      "asp?": 6997,
      "▁मील": 6998,
      "lease": 6999,
      "▁pri": 7000,
      "ారస": 7001,
      "▁capita": 7002,
      "\\_identifiers": 7003,
      "ాలను": 7004,
      "ume": 7005,
      "विद्यालय": 7006,
      "స్](https://te.wikipedia.org/wiki/": 7007,
      "▁పెద్ద": 7008,
      "00–సా.శ.పూ.": 7009,
      "▁Report": 7010,
      "राजनी": 7011,
      "ర్లు": 7012,
      "लावा": 7013,
      "▁प्रण": 7014,
      "▁प्रभा": 7015,
      "▁प्रकार": 7016,
      "▁प्रारम्भ": 7017,
      "▁बि": 7018,
      "▁बनी": 7019,
      "▁बड़ी": 7020,
      "s.com": 7021,
      "238": 7022,
      "▁निय": 7023,
      "▁नृत्य": 7024,
      "_सिनेमा": 7025,
      "▁\"Sanskrit": 7026,
      "स्ता": 7027,
      "ित्व": 7028,
      "▁आय": 7029,
      "-45": 7030,
      "स्‍": 7031,
      "▁వే": 7032,
      "री\")": 7033,
      "रीक्षण": 7034,
      "▁गए": 7035,
      "ादरा": 7036,
      "▁संख्या": 7037,
      "▁पर्यटन": 7038,
      "▁परमाणु": 7039,
      "▁परंपरा": 7040,
      "नेट": 7041,
      "▁विवाद": 7042,
      "▁विभाग": 7043,
      "▁भाषाएँ": 7044,
      "_के_देश": 7045,
      "monsoon": 7046,
      "ी](https://hi.wikipedia.org/wiki/प": 7047,
      "ी](https://hi.wikipedia.org/wiki/स": 7048,
      "త్తం": 7049,
      "▁(సా.శ.15": 7050,
      "▁(సా.శ.13": 7051,
      "▁అనే": 7052,
      "▁ప్రజ": 7053,
      "తం\")": 7054,
      "ంచి": 7055,
      "▁[भारत](https://hi.wikipedia.org/wiki/भारत": 7056,
      "▁ఆఫ్": 7057,
      "भिन्न": 7058,
      "▁సాం": 7059,
      "ార్లమె": 7060,
      "▁Vol": 7061,
      "द्यान": 7062,
      "▁धी": 7063,
      "కిస్థాన్": 7064,
      "newsite": 7065,
      "▁నే": 7066,
      "▁నగర": 7067,
      "▁जाते": 7068,
      "general": 7069,
      "िवेश": 7070,
      "▁इसी": 7071,
      "▁దేశం": 7072,
      "▁समूह": 7073,
      "-symbols": 7074,
      "ध्यम": 7075,
      "టిబె": 7076,
      "%E0%A5%": 7077,
      "్రీ.పూ.": 7078,
      "ंबर": 7079,
      "ండియా": 7080,
      "▁१९९": 7081,
      "▁ఎక్కువ": 7082,
      "▁ఎన్నో": 7083,
      "vision": 7084,
      "▁किन्तु": 7085,
      "▁जिसके": 7086,
      "▁सिंह": 7087,
      "▁./श्रेणी:Harv\\_and\\_Sfn\\_no-target\\_errors\n6": 7088,
      "](https://hi.wikipedia.org/wiki/उत्तर": 7089,
      "्यटन\")": 7090,
      "national-symbols": 7091,
      "▁./వర్గం:Wikipedia\\_articles\\_": 7092,
      "वर्ष": 7093,
      "_సం": 7094,
      "▁[t](https://hi.wikipedia.org/wiki/साँचा_वार्ता:": 7095,
      "▁अपनी": 7096,
      "▁disc": 7097,
      "जयपुर": 7098,
      "श्रीनगर": 7099,
      "టుంబ": 7100,
      "दिल्ली](https://hi.wikipedia.org/wiki/": 7101,
      "▁वायु": 7102,
      "▁భారత్": 7103,
      "▁[e](https://hi.wikipedia.org/wiki/विशेष:EditPage/साँचा:": 7104,
      "▁[v](https://hi.wikipedia.org/wiki/साँचा:": 7105,
      "2001),": 7106,
      "▁डॉल": 7107,
      "▁ऊर्जा": 7108,
      "▁रहे": 7109,
      "మెరి": 7110,
      "▁ईस्ट": 7111,
      "माजिक": 7112,
      "▁మొత్తం": 7113,
      "▁हुआ।": 7114,
      "lag_of_India": 7115,
      "బాద్": 7116,
      "](https://hi.wikipedia.org/wiki/संस्कृत": 7117,
      "ంపెనీ": 7118,
      "▁प्रतिशत": 7119,
      "▁2004](https://hi.wikipedia.org/wiki/भारत#CITEREF": 7120,
      "ूरोपीय": 7121,
      "_का_खाना": 7122,
      "वासी": 7123,
      "హ్మ": 7124,
      "▁उद्यान": 7125,
      "▁उद्यान\")": 7126,
      ".aspx?rel": 7127,
      "▁ఏర్": 7128,
      "-language\\_sources": 7129,
      "retary": 7130,
      "▁शक्तिपीठ": 7131,
      "్రిటిషు": 7132,
      "-22)": 7133,
      "_उत्पाद": 7134,
      "_राज्यक्षेत्र": 7135,
      "▁राजवंश\")": 7136,
      "▁विदेशी": 7137,
      "ंडोनेशिया": 7138,
      "_और_संघ_क्षेत्र": 7139,
      "▁सहयोग": 7140,
      "_Lanka": 7141,
      "AGE": 7142,
      "▁सितंबर": 7143,
      "▁जबकि": 7144,
      "▁అత్యధిక": 7145,
      "tlas": 7146,
      "▁गठबंधन": 7147,
      "_तथा": 7148,
      "ీర్ణ": 7149,
      "దక్షిణ_ఆసియా": 7150,
      "pib.nic.in/newsite": 7151,
      "_पार्टी": 7152,
      "_के_अनुसार_देशों_की_सूची": 7153,
      "ल्तनत": 7154,
      "सैनिक": 7155,
      "lease.aspx?rel": 7156,
      "▁डॉलर": 7157,
      "-language\\_sources\\_(": 7158,
      "-asia": 7159,
      ".\"": 7160,
      "/e": 7161,
      "3–": 7162,
      "338": 7163,
      "4-3": 7164,
      "83": 7165,
      "First": 7166,
      "Mumbai": 7167,
      "States": 7168,
      "_45": 7169,
      "gion": 7170,
      "wa": 7171,
      "▁40": 7172,
      "▁ob": 7173,
      "istered": 7174,
      "▁(2011": 7175,
      "2013": 7176,
      "2011.": 7177,
      "ices": 7178,
      "19)": 7179,
      "19.": 7180,
      "▁poll": 7181,
      "ing,": 7182,
      "▁census": 7183,
      "atch": 7184,
      "▁based": 7185,
      "vert": 7186,
      "ily": 7187,
      ".\n14": 7188,
      "▁Book": 7189,
      "▁Gujarat": 7190,
      "-39": 7191,
      "opal": 7192,
      "tud": 7193,
      "2221": 7194,
      "establish": 7195,
      "▁nation": 7196,
      "▁John": 7197,
      ".[[23": 7198,
      "▁Informatics": 7199,
      "270": 7200,
      "▁On": 7201,
      "▁West": 7202,
      "_Times": 7203,
      "▁expectancy": 7204,
      "▁\"International": 7205,
      "857": 7206,
      "times.indiatimes.com/": 7207,
      "▁[Ludden": 7208,
      "▁adop": 7209,
      "prof": 7210,
      "/articles/": 7211,
      "unjabi": 7212,
      "▁[*An": 7213,
      "place": 7214,
      "cms).": 7215,
      "KulkeRothermund2004),": 7216,
      "▁(2018).": 7217,
      "resident_of_India": 7218,
      "economictimes.indiatimes.com/": 7219,
      "d/d": 7220,
      "ksai": 7221,
      "▁(2006).": 7222,
      "Library_of_Congress": 7223,
      "▁zone": 7224,
      "onkani": 7225,
      "indicator": 7226,
      "&ss": 7227,
      "-O": 7228,
      "-th": 7229,
      "-27": 7230,
      "-कार": 7231,
      "2-0": 7232,
      "3-7": 7233,
      "5_": 7234,
      "8+": 7235,
      "9-6": 7236,
      "David": 7237,
      "Empire": 7238,
      "MAAJ": 7239,
      "SN": 7240,
      "South_Asia": 7241,
      "_50": 7242,
      "_World": 7243,
      "athe": 7244,
      "evanagari": 7245,
      "fun": 7246,
      "ji": 7247,
      "lan": 7248,
      "mand": 7249,
      "mas": 7250,
      "more": 7251,
      "oz": 7252,
      "rian": 7253,
      "rince": 7254,
      "ten": 7255,
      "top": 7256,
      "xim": 7257,
      "आर": 7258,
      "कालीन": 7259,
      "ख्": 7260,
      "तार": 7261,
      "द्रा": 7262,
      "पूर्ण": 7263,
      "फिल": 7264,
      "बन": 7265,
      "बे": 7266,
      "भौ": 7267,
      "भरत": 7268,
      "लक": 7269,
      "विक": 7270,
      "शी": 7271,
      "ाबा": 7272,
      "२.": 7273,
      "▁७": 7274,
      "▁ve": 7275,
      "▁9.": 7276,
      "▁education": 7277,
      "orse": 7278,
      "▁[लोक": 7279,
      "en:": 7280,
      "ene": 7281,
      "enjo": 7282,
      "▁\"ची": 7283,
      "inan": 7284,
      "anada": 7285,
      "till": 7286,
      "](https://en.wikipedia.org/wiki/U": 7287,
      "India_": 7288,
      "eri": 7289,
      "arrow": 7290,
      "alla": 7291,
      "reater": 7292,
      "ising": 7293,
      "isted": 7294,
      "cid": 7295,
      "▁often": 7296,
      "▁महा": 7297,
      "▁मिला": 7298,
      "ico": 7299,
      "▁India\"](https://web.archive.org/web/201": 7300,
      "lex": 7301,
      "leavy": 7302,
      "▁inte": 7303,
      "rak": 7304,
      "▁su": 7305,
      "▁set": 7306,
      "▁served": 7307,
      "ानी": 7308,
      "▁pur": 7309,
      "uscript": 7310,
      "▁Cather": 7311,
      "▁After": 7312,
      "\\_or": 7313,
      "▁festi": 7314,
      "ad-": 7315,
      "adakh": 7316,
      "▁trade": 7317,
      "िकिस्तान": 7318,
      "maint:": 7319,
      "comp": 7320,
      "hek": 7321,
      "fied": 7322,
      "style": 7323,
      "▁middle": 7324,
      "▁market": 7325,
      "न्डिया": 7326,
      "una": 7327,
      "unleavy": 7328,
      "▁dist": 7329,
      "]](https://en.wikipedia.org/wiki/India#cite_note-1": 7330,
      "ourts": 7331,
      "21.": 7332,
      "▁दिव": 7333,
      ".\n10": 7334,
      ".\n36": 7335,
      "00–": 7336,
      "ला\")": 7337,
      "लाका": 7338,
      "▁प्रशास": 7339,
      "▁भारतक": 7340,
      "ंगला": 7341,
      "▁even": 7342,
      "▁early": 7343,
      "107": 7344,
      "▁India\").[[": 7345,
      "ayashi": 7346,
      "ldlife": 7347,
      "▁आ॔": 7348,
      "_in_the": 7349,
      "bercu": 7350,
      "](https://mai.wikipedia.org/wiki/अ": 7351,
      "](https://mai.wikipedia.org/wiki/सं": 7352,
      "▁Nuclear": 7353,
      "पुत्र": 7354,
      "_Agency": 7355,
      "-405": 7356,
      "508": 7357,
      "ational_P": 7358,
      "▁religions": 7359,
      "abel": 7360,
      "▁गान": 7361,
      "▁गेल": 7362,
      "astronom": 7363,
      "▁[St": 7364,
      "emen": 7365,
      "काउ": 7366,
      "▁संयुक्त": 7367,
      "नेई": 7368,
      "िलि": 7369,
      "AAMAAJ": 7370,
      "haw": 7371,
      "▁\"Chin": 7372,
      "लेस": 7373,
      "लेबन": 7374,
      "▁Indians": 7375,
      "▁Law": 7376,
      "ensive": 7377,
      "s/p": 7378,
      "lated": 7379,
      "▁Wiley": 7380,
      "▁[Craven": 7381,
      "-2\").": 7382,
      "dira": 7383,
      "▁ass": 7384,
      "_Modi": 7385,
      "हिन्दू": 7386,
      "किर्ग": 7387,
      "alls": 7388,
      "_Tamil_Nadu": 7389,
      "मी2": 7390,
      "ommaraj": 7391,
      "kee": 7392,
      "▁\"Tamil": 7393,
      "▁[Pakistan": 7394,
      "2011religion": 7395,
      "▁१५": 7396,
      "▁deve": 7397,
      "▁rise": 7398,
      "▁rural": 7399,
      "▁rupee": 7400,
      "issions": 7401,
      "ians": 7402,
      "▁\"Ge": 7403,
      "▁V.": 7404,
      "▁31": 7405,
      "▁[Delhi": 7406,
      "neworld": 7407,
      "▁mathematics": 7408,
      "▁maint:": 7409,
      "मेनि": 7410,
      "ोकोस": 7411,
      "रबै": 7412,
      "▁\"पूर्वी": 7413,
      "▁\"Indus": 7414,
      "▁सूची\"))": 7415,
      "amily": 7416,
      "▁central": 7417,
      "rupee": 7418,
      "2004).": 7419,
      "▁हिस्": 7420,
      "](https://en.wikipedia.org/wiki/Indus": 7421,
      "-daro": 7422,
      "ohan": 7423,
      "ohenjo": 7424,
      "_dance": 7425,
      "_dynasty": 7426,
      "▁1997": 7427,
      "▁where": 7428,
      "▁whose": 7429,
      "atis": 7430,
      "-in-india": 7431,
      "ोर्नो": 7432,
      "2014-p": 7433,
      "्वरूप": 7434,
      "निर्भर": 7435,
      ".jpg/250px-S": 7436,
      "KulkeRothermund2016": 7437,
      "raditional": 7438,
      "oorkee": 7439,
      "son2014-p": 7440,
      "](https://mai.wikipedia.org/wiki/भारतीय_": 7441,
      "▁Shankar": 7442,
      "ropped": 7443,
      "▁century,": 7444,
      "_War": 7445,
      "cott": 7446,
      "▁speakers": 7447,
      "▁include": 7448,
      "▁2025.\n": 7449,
      "भुटान": 7450,
      "ताजिकिस्तान": 7451,
      "athakali": 7452,
      "sites/": 7453,
      "▁2008](https://en.wikipedia.org/wiki/India#CITEREF": 7454,
      "Environment": 7455,
      "Ludden2014": 7456,
      "riage": 7457,
      "-of-india-": 7458,
      "Wikipedia:": 7459,
      "क_सूची": 7460,
      "▁Africa": 7461,
      "▁major": 7462,
      "union_territory": 7463,
      "▁cities": 7464,
      "lackb": 7465,
      "losis": 7466,
      "anorama": 7467,
      "arlung": 7468,
      "rigonom": 7469,
      "▁२०११": 7470,
      "ecutive": 7471,
      "awaharlal": 7472,
      "▁जयते": 7473,
      "▁caused": 7474,
      "emographics": 7475,
      "▁oldest": 7476,
      "ार्वभौ": 7477,
      "](https://en.wikipedia.org/wiki/Mughal_Empire": 7478,
      "▁दृष्टि": 7479,
      "Census2011religion": 7480,
      "▁[India](https://en.wikipedia.org/wiki/India)": 7481,
      "harmaceutical": 7482,
      "्रुनेई": 7483,
      "तुर्कमेनि": 7484,
      "entral_": 7485,
      "Tarlo1996-26": 7486,
      "Home_Affairs": 7487,
      "▁[↑](https://en.wikipedia.org/wiki/India#cite_ref-1": 7488,
      "beralisation": 7489,
      "-काराबा": 7490,
      "Davidson2014-p": 7491,
      "बेकिस्तान": 7492,
      "inancial": 7493,
      "▁Catherine": 7494,
      "▁दिवस": 7495,
      "berculosis": 7496,
      "ohenjo-daro": 7497,
      "ोर्नो-काराबा": 7498,
      "ार्वभौम": 7499,
      "%)": 7500,
      "3_1": 7501,
      "534": 7502,
      ";\n": 7503,
      "AQAAQBAJ&pg=PA": 7504,
      "Flag_of_India": 7505,
      "St": 7506,
      "_10": 7507,
      "_per": 7508,
      "_history": 7509,
      "aci": 7510,
      "ogo": 7511,
      "▁<": 7512,
      "▁7.": 7513,
      "International": 7514,
      "ed\\_": 7515,
      "▁(1):": 7516,
      "-05": 7517,
      "etwork": 7518,
      "▁Century": 7519,
      "\n\n\n": 7520,
      "chol": 7521,
      "▁domestic": 7522,
      "▁Movement": 7523,
      "Univers": 7524,
      "▁Ne": 7525,
      "▁1980": 7526,
      "▁[*M": 7527,
      "aving": 7528,
      "alaya": 7529,
      "ukh": 7530,
      "orities/": 7531,
      "▁consid": 7532,
      "/08/": 7533,
      "-level": 7534,
      "a/a": 7535,
      "AsherTalbot2008),": 7536,
      "cms)": 7537,
      "/authorities/": 7538,
      "▁Monetary": 7539,
      ".t": 7540,
      "/we": 7541,
      "2-5": 7542,
      "2-10": 7543,
      "2%29": 7544,
      "3-3": 7545,
      "425": 7546,
      "428": 7547,
      ":IN": 7548,
      "BRICS": 7549,
      "E﻿": 7550,
      "KI": 7551,
      "Pe": 7552,
      "Raj": 7553,
      "_st": 7554,
      "_28": 7555,
      "_30": 7556,
      "_यु": 7557,
      "_39": 7558,
      "_map": 7559,
      "_शासित": 7560,
      "_द्वीप": 7561,
      "_జాబితా": 7562,
      "aver": 7563,
      "a-b": 7564,
      "bu": 7565,
      "bhasha": 7566,
      "gration": 7567,
      "music": 7568,
      "uin": 7569,
      "ंजन": 7570,
      "उद्": 7571,
      "एम": 7572,
      "कु": 7573,
      "कृति": 7574,
      "चार": 7575,
      "जल": 7576,
      "तमान": 7577,
      "थाली": 7578,
      "धर्": 7579,
      "मय": 7580,
      "मूल": 7581,
      "यपालिका": 7582,
      "ल्ड": 7583,
      "वली": 7584,
      "शक्ति": 7585,
      "सर": 7586,
      "हू": 7587,
      "िरा": 7588,
      "िंह": 7589,
      "ीं": 7590,
      "ीक": 7591,
      "ीर": 7592,
      "ीकरण": 7593,
      "ुस्तान": 7594,
      "ूनाइटेड": 7595,
      "ेय": 7596,
      "ोत्तर": 7597,
      "ఆంధ": 7598,
      "కీ": 7599,
      "కాలు": 7600,
      "క్రమ": 7601,
      "గర్": 7602,
      "డో": 7603,
      "థి": 7604,
      "నె": 7605,
      "నాలు": 7606,
      "పించ": 7607,
      "బడ్డ": 7608,
      "భర": 7609,
      "మహ": 7610,
      "మై": 7611,
      "యన": 7612,
      "రంగ": 7613,
      "లయా": 7614,
      "వార": 7615,
      "శీ": 7616,
      "షనల్": 7617,
      "స్య": 7618,
      "ృద్ధి": 7619,
      "ెంగ": 7620,
      "ేర": 7621,
      "–17": 7622,
      "–120": 7623,
      "▁झ": 7624,
      "▁ता": 7625,
      "▁దా": 7626,
      "▁local": 7627,
      "▁నాగరికత": 7628,
      "▁టెక్నాలజీ": 7629,
      "▁establish": 7630,
      "win": 7631,
      "tten": 7632,
      "](https://catal": 7633,
      "▁[ए": 7634,
      "▁[ख": 7635,
      "▁[राष्ट्रीय": 7636,
      "▁[भू": 7637,
      "▁[राजस्थान": 7638,
      "▁[दिल्ली](https://hi.wikipedia.org/wiki/": 7639,
      "▁\"श": 7640,
      "▁\"वि": 7641,
      "▁\"पु": 7642,
      "▁\"दिल्ल": 7643,
      "▁\"विश्व": 7644,
      "▁\"राजस्थान": 7645,
      "\")1": 7646,
      "tives": 7647,
      "▁कह": 7648,
      "](https://hi.wikipedia.org/wiki/ड": 7649,
      "](https://hi.wikipedia.org/wiki/वि": 7650,
      "](https://hi.wikipedia.org/wiki/प्र": 7651,
      "](https://hi.wikipedia.org/wiki/सा": 7652,
      "](https://hi.wikipedia.org/wiki/गुजरात": 7653,
      "](https://hi.wikipedia.org/wiki/राजस्थान": 7654,
      "▁सश": 7655,
      "▁समा": 7656,
      "▁समान": 7657,
      "▁सल्तनत": 7658,
      "्यु": 7659,
      "्यपालिका": 7660,
      "▁मंत्र": 7661,
      "let": 7662,
      "रान": 7663,
      "్రై": 7664,
      "్రప్రదేశ్": 7665,
      "▁पहा": 7666,
      "rame": 7667,
      "](https://te.wikipedia.org/wiki/ఢిల్లీ": 7668,
      "▁sim": 7669,
      "ानून": 7670,
      "20085": 7671,
      "▁policy": 7672,
      "ritten": 7673,
      "▁हिल": 7674,
      "▁Summit": 7675,
      "\n\n**": 7676,
      "िकता": 7677,
      "िकेट": 7678,
      "▁अभी": 7679,
      "▁अभिय": 7680,
      "stre": 7681,
      "ाली](https://hi.wikipedia.org/wiki/": 7682,
      "्षिक": 7683,
      "unknown": 7684,
      "దేశం": 7685,
      "దేశాల": 7686,
      "దేశాలు": 7687,
      "ilar": 7688,
      "▁do": 7689,
      "▁जै": 7690,
      "▁जिन्": 7691,
      "ेशिया\")": 7692,
      "▁Te": 7693,
      ".\n9": 7694,
      "olia": 7695,
      "▁Modi": 7696,
      "▁Machine": 7697,
      "_केंद्र": 7698,
      "▁Ram": 7699,
      "ర్‌": 7700,
      "▁air": 7701,
      "▁बल": 7702,
      "▁बौद्ध": 7703,
      "▁बैंक": 7704,
      "s.jpg": 7705,
      "ंगल": 7706,
      "ंगीत": 7707,
      "▁नगर": 7708,
      "_सु": 7709,
      "_स्": 7710,
      "_सभा": 7711,
      "▁से](https://": 7712,
      "లు?action=edit&redlink=1": 7713,
      "రాఠ": 7714,
      "1991": 7715,
      "▁*A": 7716,
      "▁आप": 7717,
      "▁आंदोल": 7718,
      "▁Home": 7719,
      "▁కి": 7720,
      "▁కో": 7721,
      "116": 7722,
      "elated": 7723,
      "▁ती": 7724,
      "▁तो": 7725,
      "▁तुल": 7726,
      "▁तीस": 7727,
      "క్టో": 7728,
      "स्चेंज": 7729,
      "నియా": 7730,
      "▁వర్": 7731,
      "▁వారస": 7732,
      "री](https://hi.wikipedia.org/wiki/": 7733,
      "abin": 7734,
      "▁गति": 7735,
      "geoh": 7736,
      "ड़िशा": 7737,
      "ల్వే": 7738,
      "1857": 7739,
      "▁उस": 7740,
      "▁उद्योग": 7741,
      "▁సరిహద్దు": 7742,
      "▁మన": 7743,
      "▁మూ": 7744,
      "▁संस्कृत": 7745,
      "_and_T": 7746,
      "▁around": 7747,
      "ండమా": 7748,
      "्याचल": 7749,
      "▁रु": 7750,
      "▁చిన్న": 7751,
      "]](https://hi.wikipedia.org/wiki/भारत#cite_note-Combined": 7752,
      "తాన": 7753,
      "ముఖ": 7754,
      "त्ता": 7755,
      "170": 7756,
      "▁भाषाएं": 7757,
      ".jpg)\n\n[": 7758,
      "ी](https://hi.wikipedia.org/wiki/न": 7759,
      "uccess": 7760,
      "త్వం": 7761,
      "▁\"मुंबई": 7762,
      "▁being": 7763,
      "▁(సా.శ.14": 7764,
      "पांड": 7765,
      "ंडल": 7766,
      "ులు,": 7767,
      "–సా.శ.15": 7768,
      "–సా.శ.17": 7769,
      "dire": 7770,
      ")[[3": 7771,
      "कार्यपालिका": 7772,
      "_Mon": 7773,
      "▁ప్రతి": 7774,
      "▁ప్రస్తు": 7775,
      "▁ప్రకారం": 7776,
      "▁ప్రముఖ": 7777,
      "▁क्षेत्र,": 7778,
      "ంచిన": 7779,
      "కుడు": 7780,
      "▁[↑](https://hi.wikipedia.org/wiki/भारत#cite_ref-Combined": 7781,
      "द्वित": 7782,
      "నుమ": 7783,
      "्राम": 7784,
      "वाँ": 7785,
      "irectorate": 7786,
      "▁any": 7787,
      "▁deb": 7788,
      "▁రో": 7789,
      "▁రంగ": 7790,
      "▁రవాణా": 7791,
      "▁సాధించ": 7792,
      "▁पुलिस": 7793,
      "▁प्रदेश](https://hi.wikipedia.org/wiki/मध्य": 7794,
      "ష్టు": 7795,
      "ंदर": 7796,
      "▁[GDP": 7797,
      "▁धरोहर": 7798,
      "ంతో": 7799,
      "E0%B0%": 7800,
      "त्न": 7801,
      "▁తరువా": 7802,
      "▁वर्ण": 7803,
      "▁वर्तमान": 7804,
      ",_కేంద్రపాలిత": 7805,
      "పాలన": 7806,
      "ం](https://te.wikipedia.org/wiki/భారతీయ": 7807,
      "गणतंत्र": 7808,
      "](https://hi.wikipedia.org/wiki/ब्रिटिश": 7809,
      "▁हिमालय": 7810,
      "గుర్": 7811,
      "నేషనల్": 7812,
      "▁uni": 7813,
      "▁regional": 7814,
      "▁[उर्दू": 7815,
      "▁ప్రాంతం": 7816,
      "వందే": 7817,
      "▁किया।": 7818,
      "▁రాజ్యం](https://te.wikipedia.org/wiki/": 7819,
      "▁[International": 7820,
      "▁\"उर्दू": 7821,
      "AsherTalbot20085": 7822,
      "anced": 7823,
      "▁బా": 7824,
      "▁బహు": 7825,
      "▁బెంగ": 7826,
      "▁गया।[[": 7827,
      "स्थाप": 7828,
      "▁१९८": 7829,
      "data.worldbank.org/": 7830,
      "▁CITEREFKulkeRothermund2004": 7831,
      "684": 7832,
      "आई.": 7833,
      "ాల్లో": 7834,
      "▁./श्रेणी:Harv\\_and\\_Sfn\\_no-target\\_errors\n7": 7835,
      "](https://hi.wikipedia.org/wiki/उर्दू": 7836,
      "वर्ल्ड": 7837,
      "०००": 7838,
      "▁notation": 7839,
      "శ్వా": 7840,
      "▁मुर्मू": 7841,
      "▁पूर्वी": 7842,
      "▁अपना": 7843,
      "ूचना-विज्ञान": 7844,
      "▁Thomas": 7845,
      "ారిటీ": 7846,
      "▁[↑](https://hi.wikipedia.org/wiki/भारत#cite_ref-FOOTNOTEStein1998": 7847,
      "-report": 7848,
      "▁\"Official": 7849,
      "గోళ": 7850,
      "▁माध्यम": 7851,
      "ड़ीसा": 7852,
      "▁across": 7853,
      "బడిన": 7854,
      "▁बहुमत": 7855,
      "▁Art": 7856,
      "తున్న": 7857,
      "న్నిక": 7858,
      "▁స్వాతంత్ర్య": 7859,
      "▁కాలంలో": 7860,
      "▁थी।": 7861,
      "ministered": 7862,
      "कल_घ": 7863,
      "▁सुधार": 7864,
      "▁इतिहास\")": 7865,
      "हायक": 7866,
      ".net": 7867,
      "cat.org/": 7868,
      "ीपी)": 7869,
      "ంపి": 7870,
      "▁संगीत": 7871,
      "బెంగాల్": 7872,
      "▁शांति": 7873,
      "▁According": 7874,
      "▁वार्षिक": 7875,
      "_एवं": 7876,
      "कटिबंधीय": 7877,
      "ెలవు": 7878,
      "▁सभा\")": 7879,
      "▁नीति": 7880,
      "](https://te.wikipedia.org/wiki/భారతదేశంలో_": 7881,
      "▁ऑफ": 7882,
      "रेलू_उत्पाद": 7883,
      "-India.pdf)": 7884,
      "▁लेकर": 7885,
      "▁अनुसंधान": 7886,
      "britannica.com/place": 7887,
      "▁सूचना-विज्ञान": 7888,
      "▁అధికారిక": 7889,
      "MetcalfMetcalf2012-26": 7890,
      "ఆర్ధిక": 7891,
      "▁मौसम": 7892,
      "▁పట్టణ": 7893,
      "▁विस्तृत": 7894,
      "ष्णकटिबंधीय": 7895,
      "▁కాశ్మీరు": 7896,
      "▁लाख": 7897,
      "िन्धु-गंगा": 7898,
      "ంగ్లీషు": 7899,
      "rajbhasha": 7900,
      "जरायल": 7901,
      "thehindu": 7902,
      "\\_कड़ियाँ": 7903,
      "▁अमेरिका": 7904,
      "_सेना": 7905,
      "▁అయిన": 7906,
      "▁రెండు": 7907,
      "ాల్దీవులు": 7908,
      "▁पहुँच": 7909,
      "ట్రో": 7910,
      "ుల్తాన": 7911,
      "▁हालाँकि": 7912,
      "రాష్ట్రాలు,_కేంద్రపాలిత": 7913,
      "దినోత్సవం": 7914,
      "▁వ్యాసం:": 7915,
      "_and_union_territories_of_India": 7916,
      "▁[भारत](https://hi.wikipedia.org/wiki/भारत)": 7917,
      "ార్లమెంట": 7918,
      "▁धीरे": 7919,
      "▁./వర్గం:Wikipedia\\_articles\\_with\\_": 7920,
      "▁2004](https://hi.wikipedia.org/wiki/भारत#CITEREFKulkeRothermund2004),": 7921,
      "▁ఏర్ప": 7922,
      "-language\\_sources\\_(en": 7923,
      "Mumbai_": 7924,
      "_map_en": 7925,
      "मूल्य": 7926,
      "ఆంధ్రప్రదేశ్": 7927,
      "లయాళ": 7928,
      "▁[राजस्थान](https://hi.wikipedia.org/wiki/राजस्थान": 7929,
      "▁\"दिल्ली\")": 7930,
      "▁\"राजस्थान\")": 7931,
      "▁similar": 7932,
      "▁हिल्स": 7933,
      "▁तुलना": 7934,
      "geohack": 7935,
      "▁प्रदेश](https://hi.wikipedia.org/wiki/मध्य_प्रदेश": 7936,
      "▁[उर्दू](https://hi.wikipedia.org/wiki/उर्दू": 7937,
      "data.worldbank.org/indicator": 7938,
      "कल_घरेलू_उत्पाद": 7939,
      "రాష్ట్రాలు,_కేంద్రపాలిత_ప్రాంత": 7940,
      "*](https://www.": 7941,
      "*](https://web.archive.org/web/200": 7942,
      ",_India": 7943,
      "/)": 7944,
      "/M": 7945,
      "/news/": 7946,
      "0-0)": 7947,
      "223": 7948,
      "4_": 7949,
      "4-0": 7950,
      "6%": 7951,
      "8]](https://en.wikipedia.org/wiki/India#cite_note-": 7952,
      "AL": 7953,
      "BI": 7954,
      "Constituent": 7955,
      "K:": 7956,
      "Navy": 7957,
      "OV": 7958,
      "PT": 7959,
      "Zor": 7960,
      "_ci": 7961,
      "_21": 7962,
      "_con": 7963,
      "_2008": 7964,
      "aury": 7965,
      "audi": 7966,
      "bird": 7967,
      "cutt": 7968,
      "dministrative": 7969,
      "digenous": 7970,
      "ful": 7971,
      "jha": 7972,
      "jayan": 7973,
      "lé": 7974,
      "mon": 7975,
      "pi": 7976,
      "pub": 7977,
      "rr": 7978,
      "sc": 7979,
      "s](https://en.wikipedia.org/wiki/": 7980,
      "sol": 7981,
      "spect": 7982,
      "water": 7983,
      "ypr": 7984,
      "–11": 7985,
      "–Pakistan": 7986,
      "▁X": 7987,
      "▁35": 7988,
      "▁times": 7989,
      "ora": 7990,
      "oram": 7991,
      "orary": 7992,
      "orne": 7993,
      ".wikidata": 7994,
      ".org/wiki/Q": 7995,
      "▁[Harle": 7996,
      "teri": 7997,
      "in-O": 7998,
      "anch": 7999,
      "though": 8000,
      "hili": 8001,
      "ers,": 8002,
      "ergy": 8003,
      "ardian": 8004,
      "alakrishnan": 8005,
      "alcutt": 8006,
      "isa": 8007,
      "ison": 8008,
      "istic": 8009,
      "isak": 8010,
      "tion,": 8011,
      "anding": 8012,
      "ito": 8013,
      "itor": 8014,
      "itchi": 8015,
      "▁(in": 8016,
      "▁(union": 8017,
      "▁(nominal)": 8018,
      "ought": 8019,
      "ases": 8020,
      "asian": 8021,
      "▁India](https://en.wikipedia.org/wiki/P": 8022,
      "1967": 8023,
      "▁ins": 8024,
      "▁so": 8025,
      "▁sultanate": 8026,
      "▁small": 8027,
      "▁plate": 8028,
      "etnam": 8029,
      "▁char": 8030,
      "▁cap": 8031,
      "aten": 8032,
      "▁Cynth": 8033,
      "▁Am": 8034,
      "achin": 8035,
      "agara": 8036,
      "▁Singh": 8037,
      "▁Schwartzberg": 8038,
      "▁Schedule": 8039,
      "anged": 8040,
      "▁trib": 8041,
      "urg": 8042,
      "urasia": 8043,
      "urasian": 8044,
      "▁Prin": 8045,
      "▁Plain": 8046,
      "heet": 8047,
      "heel": 8048,
      "_of_N": 8049,
      "ially": 8050,
      "▁mark": 8051,
      "▁mountain": 8052,
      "▁2016.": 8053,
      "ilt": 8054,
      ".\n23": 8055,
      ".\n38": 8056,
      "olice": 8057,
      "mentin-O": 8058,
      "▁Bharat": 8059,
      "nific": 8060,
      "ignific": 8061,
      "_(union_territory": 8062,
      "▁eaten": 8063,
      "▁Desert": 8064,
      "▁\"Special:BookSources/978": 8065,
      "24_A7C": 8066,
      "▁[↑](https://en.wikipedia.org/wiki/India#cite_ref-3": 8067,
      "▁[↑](https://en.wikipedia.org/wiki/India#cite_ref-Combined": 8068,
      "▁E.": 8069,
      "1999": 8070,
      "_in_T": 8071,
      "forest": 8072,
      "elug": 8073,
      "_Ag": 8074,
      "▁remain": 8075,
      "▁three": 8076,
      "](https://en.wikipedia.org/wiki/India#CITEREFCraven1997": 8077,
      "abour": 8078,
      "aks": 8079,
      "akes": 8080,
      "▁1970": 8081,
      "▁1971": 8082,
      "▁[Sri": 8083,
      "29)": 8084,
      "emi": 8085,
      "▁Journal": 8086,
      "▁[\"M": 8087,
      "epali": 8088,
      "40.": 8089,
      "27.": 8090,
      "laci": 8091,
      "conomist": 8092,
      "ected": 8093,
      "▁L.": 8094,
      "▁London": 8095,
      "▁Organisation": 8096,
      "▁Olymp": 8097,
      "ension": 8098,
      "-981": 8099,
      "16]](https://en.wikipedia.org/wiki/India#cite_note-": 8100,
      "](https://en.wikipedia.org/wiki/Climate_": 8101,
      "dog": 8102,
      "Harvard": 8103,
      ".gov.": 8104,
      "](Special:BookSources/": 8105,
      "](Special:BookSources/978": 8106,
      "▁[↑](https://en.wikipedia.org/wiki/India#cite_ref-FOOTNOTECraven1997": 8107,
      "-2](Special:BookSources/978-1": 8108,
      "▁[Mughal": 8109,
      "ysis": 8110,
      "artial": 8111,
      "_Mahal": 8112,
      "alled": 8113,
      "▁original](http://www.": 8114,
      ")\n\nA": 8115,
      ")\n\nIndia": 8116,
      "2006),": 8117,
      "temporary": 8118,
      "39-4": 8119,
      "▁*[B": 8120,
      "sey": 8121,
      "▁\"East": 8122,
      "▁\"Economic": 8123,
      "_Nations": 8124,
      "_National_P": 8125,
      "](https://en.wikipedia.org/wiki/Economic": 8126,
      "_Games": 8127,
      "ible": 8128,
      "▁[978-0-19-9": 8129,
      "▁[978-0-521-80904-7": 8130,
      "ultures": 8131,
      "▁\"Russia": 8132,
      "](https://en.wikipedia.org/wiki/Russia": 8133,
      "▁[Russia": 8134,
      "▁\"Special:BookSources/978-0-19-9": 8135,
      "](Special:BookSources/978-0-19-9": 8136,
      "egional": 8137,
      "](https://en.wikipedia.org/wiki/International": 8138,
      "▁(2016).": 8139,
      "▁subject": 8140,
      "ervice": 8141,
      "58)": 8142,
      "▁rights": 8143,
      "_Indian_subcontinent": 8144,
      "oriz": 8145,
      "▁./Category:Articles\\_contain": 8146,
      "_relations": 8147,
      "▁2023.": 8148,
      "▁2023](https://en.wikipedia.org/wiki/India#CITEREF": 8149,
      "ppines": 8150,
      "ortality": 8151,
      "crimin": 8152,
      "oastrian": 8153,
      "ample": 8154,
      "▁music\")": 8155,
      "ujarati": 8156,
      "▁about": 8157,
      "▁common": 8158,
      "▁diversity": 8159,
      "ID-19": 8160,
      "▁election\"),": 8161,
      "_of_the_": 8162,
      "Vijayan": 8163,
      "Vietnam": 8164,
      "▁traditional": 8165,
      "▁well": 8166,
      "aharasht": 8167,
      "Harle1994),": 8168,
      "IAF": 8169,
      "_Shankar": 8170,
      "rmy": 8171,
      "▁highest": 8172,
      "▁longer": 8173,
      ".svg/40px-": 8174,
      "▁player": 8175,
      "Robb2011": 8176,
      "hanghai": 8177,
      "ilies": 8178,
      "lectri": 8179,
      "olden_Temple": 8180,
      "-language\\_text": 8181,
      "default": 8182,
      "anoram": 8183,
      "otsp": 8184,
      "▁Publishing\").": 8185,
      "aurya": 8186,
      ".svg.png)](File:": 8187,
      "izoram": 8188,
      "▁Europe*](https://books.google.com/books?id=": 8189,
      "▁contribu": 8190,
      "hristianity": 8191,
      "▁mathematic": 8192,
      "Zealand": 8193,
      "▁colleges": 8194,
      "▁popular": 8195,
      "67733-7": 8196,
      "ichell2000": 8197,
      "_Air_Force": 8198,
      "406]](https://en.wikipedia.org/wiki/India#cite_note-vatsyayan-lord-432)": 8199,
      "kbar": 8200,
      "▁kingdoms": 8201,
      "▁following": 8202,
      "▁emerged": 8203,
      "do-Gangetic": 8204,
      "ataraja": 8205,
      "▁approxim": 8206,
      "IFTY": 8207,
      "](https://www.wikidata": 8208,
      "▁divisions": 8209,
      "▁legis": 8210,
      "▁1994](https://en.wikipedia.org/wiki/India#CITEREFHarle1994),": 8211,
      "touchability": 8212,
      "wait": 8213,
      "8+5": 8214,
      "rincely": 8215,
      "▁festival": 8216,
      "▁\"China\")": 8217,
      "▁developed": 8218,
      "▁1997](https://en.wikipedia.org/wiki/India#CITEREFCraven1997": 8219,
      "OVID-19": 8220,
      "Zoroastrian": 8221,
      "lémentin-O": 8222,
      "yprus": 8223,
      "hilippines": 8224,
      "alcutta": 8225,
      "itchison": 8226,
      "▁Cynthia": 8227,
      "_(union_territory)": 8228,
      "_National_Park": 8229,
      "Vijayanagara": 8230,
      "aharashtra": 8231,
      "](https://www.wikidata.org/wiki/Q": 8232,
      "▁1997](https://en.wikipedia.org/wiki/India#CITEREFCraven1997),": 8233,
      "lémentin-Ojha": 8234,
      "#P": 8235,
      "-H": 8236,
      "-for": 8237,
      "-24)": 8238,
      "/india/": 8239,
      "1%20": 8240,
      "520": 8241,
      "528": 8242,
      "613": 8243,
      "96": 8244,
      "CCN": 8245,
      "DR": 8246,
      "RA": 8247,
      "Sanskrit": 8248,
      "Web": 8249,
      "_द": 8250,
      "_ध": 8251,
      "_य": 8252,
      "_he": 8253,
      "_ex": 8254,
      "_जन": 8255,
      "bd": 8256,
      "culture": 8257,
      "gi": 8258,
      "p.org/": 8259,
      "post": 8260,
      "y=": 8261,
      "}}": 8262,
      "क्र": 8263,
      "ङ्ला": 8264,
      "दी_": 8265,
      "पिय": 8266,
      "लिया": 8267,
      "ोड": 8268,
      "०,": 8269,
      "g/250px-": 8270,
      "▁[28": 8271,
      "arv": 8272,
      "2020": 8273,
      "ispu": 8274,
      "▁(J": 8275,
      "ica": 8276,
      "▁India\"](https://": 8277,
      "ations/": 8278,
      "▁Chin": 8279,
      "\\_c": 8280,
      "\\_template": 8281,
      "\\_Wiki": 8282,
      "urmu": 8283,
      "▁Portal": 8284,
      "▁12.": 8285,
      "roduct": 8286,
      "▁जीत": 8287,
      "▁Mana": 8288,
      "▁Mani": 8289,
      "▁Britannica": 8290,
      "▁Barb": 8291,
      "▁Bengali": 8292,
      "▁प्रमाण": 8293,
      "240": 8294,
      "▁आज": 8295,
      "▁Gana": 8296,
      "113": 8297,
      "▁2002": 8298,
      "_मु": 8299,
      "laim": 8300,
      "▁Ludden": 8301,
      "135": 8302,
      "▁साम": 8303,
      "▁साहित्य": 8304,
      "▁अनुस": 8305,
      "▁१२": 8306,
      "▁१८": 8307,
      "ordin": 8308,
      "%2C_A": 8309,
      "%2C_M": 8310,
      "म्बन्ध": 8311,
      "▁History*](https://books.google.com/books?id=": 8312,
      "IND": 8313,
      "roupadi": 8314,
      "puri": 8315,
      "/countries/": 8316,
      "34238": 8317,
      "68–": 8318,
      "दाय": 8319,
      "_संविधान": 8320,
      "▁Present": 8321,
      "▁[हिन्दू": 8322,
      "▁मुस्लिम": 8323,
      "_क्षेत्र?action=edit&redlink=1": 8324,
      "▁28.": 8325,
      "▁संविधान\")": 8326,
      "%E0%A4%BE": 8327,
      "aedia": 8328,
      "▁कार्यालय": 8329,
      "ause": 8330,
      "11934238": 8331,
      "arathi": 8332,
      "▁dispute": 8333,
      "▁राजधानी": 8334,
      "cyclopaedia": 8335,
      ".jpeg": 8336,
      "eghalaya": 8337,
      "s.com/": 8338,
      "▁Ludden,": 8339,
      "-hind": 8340,
      "0/": 8341,
      "2-7": 8342,
      "623": 8343,
      "6-9": 8344,
      "CA": 8345,
      "G20": 8346,
      "Republic": 8347,
      "b/b": 8348,
      "ize": 8349,
      "lc": 8350,
      "rance": 8351,
      "tle": 8352,
      "vanced": 8353,
      "–29": 8354,
      "▁ter": 8355,
      "▁70": 8356,
      "orial": 8357,
      "people": 8358,
      "onal": 8359,
      "thme": 8360,
      "Indian_": 8361,
      "▁India](https://en.wikipedia.org/wiki/D": 8362,
      "▁inequality": 8363,
      "▁sec": 8364,
      "▁size": 8365,
      "ation)": 8366,
      "▁Council": 8367,
      "▁Ag": 8368,
      "▁Age": 8369,
      "▁Ste": 8370,
      "▁Sikh": 8371,
      "▁ful": 8372,
      "ficient": 8373,
      "▁2015.": 8374,
      "108": 8375,
      "▁India\")*.": 8376,
      "▁2000": 8377,
      "▁2009.": 8378,
      "_President_of_India": 8379,
      "▁[Ar": 8380,
      "▁Library": 8381,
      "ummary": 8382,
      ")[[13": 8383,
      "▁[BRICS": 8384,
      "▁\"BRICS": 8385,
      "_Mar": 8386,
      "▁II": 8387,
      "7080": 8388,
      "39)": 8389,
      "▁\"New": 8390,
      "333": 8391,
      "▁provid": 8392,
      "iterature": 8393,
      "\"](https://web.archive.org/web/20140": 8394,
      "▁(2019).": 8395,
      "efence": 8396,
      "data.bnf.fr/ark:/12148/cb": 8397,
      "edicine": 8398,
      "▁above": 8399,
      "ustralian": 8400,
      "▁2022.\n": 8401,
      ".php": 8402,
      "Ludden200": 8403,
      ".com/news/world": 8404,
      "▁Himalayas": 8405,
      "ogue.bnf.fr/ark:/12148/cb": 8406,
      "istorical": 8407,
      "atabase": 8408,
      "▁continu": 8409,
      "](https://id.": 8410,
      ".edu/": 8411,
      "▁adopted": 8412,
      "profile": 8413,
      "thmetic": 8414,
      "#S": 8415,
      "-Y": 8416,
      "-v": 8417,
      "-ve": 8418,
      ".1.": 8419,
      ".JPG": 8420,
      "0/0": 8421,
      "0&s": 8422,
      "2-9": 8423,
      "310": 8424,
      "314": 8425,
      "478": 8426,
      "5.pdf)": 8427,
      "728": 8428,
      "7)[[": 8429,
      "748": 8430,
      "Curry": 8431,
      "Copland": 8432,
      "DS": 8433,
      "Ge": 8434,
      "Gum": 8435,
      "Garg": 8436,
      "HQ": 8437,
      "Kumar": 8438,
      "L.": 8439,
      "R_": 8440,
      "SE": 8441,
      "Special:": 8442,
      "Search": 8443,
      "Template": 8444,
      "Tritsch": 8445,
      "US": 8446,
      "YS": 8447,
      "Yum": 8448,
      "Young": 8449,
      "[https": 8450,
      "_te": 8451,
      "_वि": 8452,
      "_sh": 8453,
      "_di": 8454,
      "_art": 8455,
      "_se": 8456,
      "_వి": 8457,
      "_2009": 8458,
      "_2004": 8459,
      "_2007": 8460,
      "_val": 8461,
      "_కాశ్మీ": 8462,
      "_monsoon": 8463,
      "a](https://en.wikipedia.org/wiki/A": 8464,
      "aze": 8465,
      "aidy": 8466,
      "cia": 8467,
      "dhy": 8468,
      "d=20": 8469,
      "fos": 8470,
      "ggle": 8471,
      "gions": 8472,
      "hak": 8473,
      "io": 8474,
      "iosphere": 8475,
      "jol": 8476,
      "k-e": 8477,
      "lla": 8478,
      "mc": 8479,
      "mt": 8480,
      "mage": 8481,
      "nus": 8482,
      "nins": 8483,
      "oin": 8484,
      "oal": 8485,
      "ochi": 8486,
      "oint": 8487,
      "ride": 8488,
      "sci": 8489,
      "s](https://en.wikipedia.org/wiki/List_of_": 8490,
      "tripura": 8491,
      "uff": 8492,
      "vin": 8493,
      "vara": 8494,
      "yr": 8495,
      "zard": 8496,
      "ædia": 8497,
      "ंची": 8498,
      "ंज़": 8499,
      "ंमार": 8500,
      "अभिज्ञापक": 8501,
      "अतुल्य": 8502,
      "इतिहास": 8503,
      "उद्यान": 8504,
      "ऋग्व": 8505,
      "ओआई": 8506,
      "क_": 8507,
      "क्रम": 8508,
      "कृष्ण": 8509,
      "गाली": 8510,
      "घा": 8511,
      "घाट": 8512,
      "जवा": 8513,
      "टन": 8514,
      "टा": 8515,
      "ठा": 8516,
      "ठार": 8517,
      "डा": 8518,
      "णे": 8519,
      "तः": 8520,
      "त्स": 8521,
      "थुरा": 8522,
      "दश": 8523,
      "दून": 8524,
      "दरण": 8525,
      "दादरा": 8526,
      "धता": 8527,
      "धोला": 8528,
      "नै": 8529,
      "न्य": 8530,
      "नजं": 8531,
      "निवेश": 8532,
      "पीप": 8533,
      "बो": 8534,
      "मोर": 8535,
      "यण": 8536,
      "ल-": 8537,
      "ल्ल": 8538,
      "लेशिया": 8539,
      "वर": 8540,
      "व\")": 8541,
      "वरा": 8542,
      "वरण": 8543,
      "सित": 8544,
      "सङ्": 8545,
      "़तर": 8546,
      "ाई": 8547,
      "ाग": 8548,
      "िपुरम": 8549,
      "ेज": 8550,
      "ैम्ब": 8551,
      "ोज": 8552,
      "ोढ़": 8553,
      "ोसी": 8554,
      "ोटे": 8555,
      "ोवियत": 8556,
      "्मार": 8557,
      "२०१": 8558,
      "४०": 8559,
      "ంస్కృ": 8560,
      "ఉత్తరా": 8561,
      "ఖో": 8562,
      "ఘాలయ": 8563,
      "చ్": 8564,
      "టై": 8565,
      "టర్": 8566,
      "డమ్": 8567,
      "డఖ్": 8568,
      "ణే": 8569,
      "ణంగా": 8570,
      "తే": 8571,
      "తెల": 8572,
      "దరంగ": 8573,
      "నో": 8574,
      "నంద": 8575,
      "బర్": 8576,
      "బార్": 8577,
      "యె": 8578,
      "రె": 8579,
      "లడఖ్": 8580,
      "ళా": 8581,
      "ళి": 8582,
      "శు": 8583,
      "హించ": 8584,
      "ుకు": 8585,
      "ెన్న": 8586,
      "ెట్రో": 8587,
      "ేతి": 8588,
      "ేఘాలయ": 8589,
      "ైనిక": 8590,
      "ొగలు": 8591,
      "ోళ": 8592,
      "‌కా": 8593,
      "‌మహ": 8594,
      "▁x": 8595,
      "▁y": 8596,
      "▁ठ": 8597,
      "▁ढ": 8598,
      "▁६": 8599,
      "▁८": 8600,
      "▁ఐ": 8601,
      "▁ఖ": 8602,
      "▁er": 8603,
      "▁enti": 8604,
      "▁go": 8605,
      "▁op": 8606,
      "▁rit": 8607,
      "▁–సా.శ.": 8608,
      "▁భారతీయ": 8609,
      "▁भाजपा": 8610,
      "▁very": 8611,
      "kid=20": 8612,
      "orbe": 8613,
      "ttac": 8614,
      "▁[రాష్ట్ర": 8615,
      "▁[धर्म": 8616,
      "▁[జన": 8617,
      "▁[గో": 8618,
      "▁[विश्व": 8619,
      "▁[...]": 8620,
      "enced": 8621,
      "▁\"Y": 8622,
      "▁\"ख": 8623,
      "▁\"का": 8624,
      "▁\"పా": 8625,
      "▁\"జన": 8626,
      "▁\"గో": 8627,
      "▁\"మూస:": 8628,
      "▁\"Hinduism": 8629,
      "▁\"ISO": 8630,
      "anal": 8631,
      "Infos": 8632,
      "thura": 8633,
      "th_East_Asia_Summit": 8634,
      "til": 8635,
      "hic": 8636,
      "hip": 8637,
      "erce": 8638,
      "arc": 8639,
      "arayan": 8640,
      "algh": 8641,
      "ारा": 8642,
      "▁कएल": 8643,
      "▁क्रांति": 8644,
      "▁कंपन": 8645,
      "](https://hi.wikipedia.org/wiki/श": 8646,
      "](https://hi.wikipedia.org/wiki/दक्षिण": 8647,
      "](https://hi.wikipedia.org/wiki/चीन": 8648,
      "](https://hi.wikipedia.org/wiki/विश्व": 8649,
      "](https://hi.wikipedia.org/wiki/राष्ट्रीय_स": 8650,
      "्रिज": 8651,
      "भारत_के_राज्य": 8652,
      "andoor": 8653,
      "andemic": 8654,
      "edary": 8655,
      "oms": 8656,
      "omic": 8657,
      "▁सर्व": 8658,
      "▁सङ्": 8659,
      "▁सर्वोच्च": 8660,
      "▁स्वतन्त्रता": 8661,
      "▁सहायक": 8662,
      "ital": 8663,
      "▁(2010": 8664,
      "▁(2003": 8665,
      "asu": 8666,
      "▁माना": 8667,
      "▁मशीन": 8668,
      "▁महारजिस्ट्रार": 8669,
      "▁India](https://en.wikipedia.org/wiki/E": 8670,
      "▁India\".": 8671,
      "19-1": 8672,
      "ooking": 8673,
      "▁institu": 8674,
      "nold": 8675,
      "रामा": 8676,
      "▁पू": 8677,
      "▁पत्र": 8678,
      "▁पब्ल": 8679,
      "▁परीक्षण": 8680,
      "](https://te.wikipedia.org/wiki/భారతదేశ": 8681,
      "](https://te.wikipedia.org/wiki/గో": 8682,
      "](https://te.wikipedia.org/wiki/మూస:": 8683,
      "entin": 8684,
      "▁shar": 8685,
      "▁science": 8686,
      "▁series": 8687,
      "▁signific": 8688,
      "ानक": 8689,
      "ानेर": 8690,
      "▁pred": 8691,
      "▁poli": 8692,
      "atel": 8693,
      "ateway": 8694,
      "र्धन": 8695,
      "ారస్వ": 8696,
      "ing)": 8697,
      "ingle": 8698,
      "am/": 8699,
      "amaj": 8700,
      "▁constitution": 8701,
      "▁coast": 8702,
      "▁cricket": 8703,
      "▁coral": 8704,
      "▁cultural": 8705,
      "ush": 8706,
      "usion": 8707,
      "atpura": 8708,
      "▁Cup": 8709,
      "▁Caves": 8710,
      "▁Amb": 8711,
      "acter": 8712,
      "ago": 8713,
      "agle": 8714,
      "agran": 8715,
      "agogue": 8716,
      "agwat": 8717,
      "agola": 8718,
      "▁हव": 8719,
      "▁Some": 8720,
      "▁SCO": 8721,
      "यास": 8722,
      "▁flow": 8723,
      "▁feat": 8724,
      "angra": 8725,
      "angla": 8726,
      "angrove": 8727,
      "ads": 8728,
      "adav": 8729,
      "\n\nభారతదేశం": 8730,
      "\n\n1.": 8731,
      "78)": 8732,
      "▁bas": 8733,
      "▁bread": 8734,
      "▁border": 8735,
      "▁birth": 8736,
      "▁bott": 8737,
      "िकेश": 8738,
      "िकास": 8739,
      "urther": 8740,
      "urned": 8741,
      "urvey": 8742,
      "▁अब": 8743,
      "▁अमीरात": 8744,
      "▁अलावा": 8745,
      "ాలె": 8746,
      "▁Puran": 8747,
      "istence": 8748,
      "▁में).": 8749,
      "_of_P": 8750,
      "chae": 8751,
      "roti": 8752,
      "roban": 8753,
      "▁mo": 8754,
      "▁met": 8755,
      "ाली\")": 8756,
      "ों_और": 8757,
      "lines": 8758,
      "linkid=20": 8759,
      "▁2013.": 8760,
      "uns": 8761,
      "unbird": 8762,
      "▁won": 8763,
      "స్ట": 8764,
      "స్\")": 8765,
      "స్వాతంత్ర్య": 8766,
      "▁dances": 8767,
      "▁dynast": 8768,
      "▁जाना": 8769,
      "▁जहाँ": 8770,
      "]](https://en.wikipedia.org/wiki/India#cite_note-Dyson2018": 8771,
      "▁दर्": 8772,
      "▁పర": 8773,
      "▁పండు": 8774,
      ".\n17": 8775,
      "▁Mughal": 8776,
      "_कोर": 8777,
      "tices": 8778,
      "▁today": 8779,
      "rested": 8780,
      "▁Bangladesh": 8781,
      "▁प्रत्य": 8782,
      "▁प्रयास": 8783,
      "▁बह": 8784,
      "▁ब्यूरो": 8785,
      "ंगोल": 8786,
      "?action=edit&redlink=1#": 8787,
      "तिरु": 8788,
      "ni_M": 8789,
      "25.": 8790,
      "ताम": 8791,
      "_(अभिज्ञापक": 8792,
      "▁em": 8793,
      "▁epic": 8794,
      "▁earliest": 8795,
      "▁निर": 8796,
      "▁की।": 8797,
      "iris": 8798,
      "▁Des": 8799,
      "▁\"Sri": 8800,
      "indoor": 8801,
      "independ": 8802,
      "▁[↑](https://en.wikipedia.org/wiki/India#cite_ref-35": 8803,
      "లు](https://te.wikipedia.org/wiki/": 8804,
      "▁Emi": 8805,
      "▁Emergency": 8806,
      "రాన్": 8807,
      "రాస్య": 8808,
      "स्तिकता": 8809,
      "_SCO": 8810,
      "_School": 8811,
      "_Sindoor": 8812,
      "▁आया": 8813,
      "▁आयुक्त": 8814,
      "▁आदि": 8815,
      "▁वाला": 8816,
      "▁वीं": 8817,
      "▁however,": 8818,
      "ासी": 8819,
      "ास्": 8820,
      "_in_M": 8821,
      "romedary": 8822,
      "▁కే": 8823,
      "▁కోర్": 8824,
      "](https://mai.wikipedia.org/wiki/इ": 8825,
      "](https://mai.wikipedia.org/wiki/उ": 8826,
      "త్రిక": 8827,
      "ell": 8828,
      "elta": 8829,
      "ellion": 8830,
      "▁तीन": 8831,
      "_Arab": 8832,
      "rynus": 8833,
      "క్స్": 8834,
      "క్కి": 8835,
      "▁వె": 8836,
      "▁వంట": 8837,
      "माख्या": 8838,
      "ables": 8839,
      "abhad": 8840,
      "akar": 8841,
      "ishes": 8842,
      "est_B": 8843,
      "▁nuclear": 8844,
      "oder": 8845,
      "oday": 8846,
      "▁उन्": 8847,
      "▁उच्च": 8848,
      "ంగో": 8849,
      "▁Food": 8850,
      "▁సముద్ర": 8851,
      "▁సూచ": 8852,
      "▁సౌక": 8853,
      ".[[4": 8854,
      ".[[28": 8855,
      "▁[मराठ": 8856,
      "▁पर्यटन\")": 8857,
      "_Per": 8858,
[...]
